{
  "version": "1.0",
  "truncation": null,
  "padding": null,
  "added_tokens": [
    {
      "id": 0,
      "content": "</s>",
      "single_word": false,
      "lstrip": false,
      "rstrip": false,
      "normalized": false,
      "special": true
    },
    {
      "id": 1,
      "content": "<pad>",
      "single_word": false,
      "lstrip": false,
      "rstrip": false,
      "normalized": false,
      "special": true
    },
    {
      "id": 2,
      "content": "<s>",
      "single_word": false,
      "lstrip": false,
      "rstrip": false,
      "normalized": false,
      "special": true
    },
    {
      "id": 3,
      "content": "<unk>",
      "single_word": false,
      "lstrip": false,
      "rstrip": false,
      "normalized": false,
      "special": true
    }
  ],
  "normalizer": null,
  "pre_tokenizer": {
    "type": "ByteLevel",
    "add_prefix_space": false,
    "trim_offsets": true,
    "use_regex": true
  },
  "post_processor": {
    "type": "ByteLevel",
    "add_prefix_space": true,
    "trim_offsets": false,
    "use_regex": true
  },
  "decoder": {
    "type": "ByteLevel",
    "add_prefix_space": true,
    "trim_offsets": true,
    "use_regex": true
  },
  "model": {
    "type": "BPE",
    "dropout": null,
    "unk_token": "<unk>",
    "continuing_subword_prefix": null,
    "end_of_word_suffix": null,
    "fuse_unk": false,
    "byte_fallback": false,
    "ignore_merges": false,
    "vocab": {
      "</s>": 0,
      "<pad>": 1,
      "<s>": 2,
      "<unk>": 3,
      "!": 4,
      "\"": 5,
      "#": 6,
      "$": 7,
      "%": 8,
      "&": 9,
      "'": 10,
      "(": 11,
      ")": 12,
      "*": 13,
      "+": 14,
      ",": 15,
      "-": 16,
      ".": 17,
      "/": 18,
      "0": 19,
      "1": 20,
      "2": 21,
      "3": 22,
      "4": 23,
      "5": 24,
      "6": 25,
      "7": 26,
      "8": 27,
      "9": 28,
      ":": 29,
      ";": 30,
      "<": 31,
      "=": 32,
      ">": 33,
      "?": 34,
      "@": 35,
      "A": 36,
      "B": 37,
      "C": 38,
      "D": 39,
      "E": 40,
      "F": 41,
      "G": 42,
      "H": 43,
      "I": 44,
      "J": 45,
      "K": 46,
      "L": 47,
      "M": 48,
      "N": 49,
      "O": 50,
      "P": 51,
      "Q": 52,
      "R": 53,
      "S": 54,
      "T": 55,
      "U": 56,
      "V": 57,
      "W": 58,
      "X": 59,
      "Y": 60,
      "Z": 61,
      "[": 62,
      "\\": 63,
      "]": 64,
      "^": 65,
      "_": 66,
      "`": 67,
      "a": 68,
      "b": 69,
      "c": 70,
      "d": 71,
      "e": 72,
      "f": 73,
      "g": 74,
      "h": 75,
      "i": 76,
      "j": 77,
      "k": 78,
      "l": 79,
      "m": 80,
      "n": 81,
      "o": 82,
      "p": 83,
      "q": 84,
      "r": 85,
      "s": 86,
      "t": 87,
      "u": 88,
      "v": 89,
      "w": 90,
      "x": 91,
      "y": 92,
      "z": 93,
      "{": 94,
      "|": 95,
      "}": 96,
      "~": 97,
      "¡": 98,
      "¢": 99,
      "£": 100,
      "¤": 101,
      "¥": 102,
      "¦": 103,
      "§": 104,
      "¨": 105,
      "©": 106,
      "ª": 107,
      "«": 108,
      "¬": 109,
      "®": 110,
      "¯": 111,
      "°": 112,
      "±": 113,
      "²": 114,
      "³": 115,
      "´": 116,
      "µ": 117,
      "¶": 118,
      "·": 119,
      "¸": 120,
      "¹": 121,
      "º": 122,
      "»": 123,
      "¼": 124,
      "½": 125,
      "¾": 126,
      "¿": 127,
      "À": 128,
      "Á": 129,
      "Â": 130,
      "Ã": 131,
      "Ä": 132,
      "Å": 133,
      "Æ": 134,
      "Ç": 135,
      "È": 136,
      "É": 137,
      "Ê": 138,
      "Ë": 139,
      "Ì": 140,
      "Í": 141,
      "Î": 142,
      "Ï": 143,
      "Ð": 144,
      "Ñ": 145,
      "Ò": 146,
      "Ó": 147,
      "Ô": 148,
      "Õ": 149,
      "Ö": 150,
      "×": 151,
      "Ø": 152,
      "Ù": 153,
      "Ú": 154,
      "Û": 155,
      "Ü": 156,
      "Ý": 157,
      "Þ": 158,
      "ß": 159,
      "à": 160,
      "á": 161,
      "â": 162,
      "ã": 163,
      "ä": 164,
      "å": 165,
      "æ": 166,
      "ç": 167,
      "è": 168,
      "é": 169,
      "ê": 170,
      "ë": 171,
      "ì": 172,
      "í": 173,
      "î": 174,
      "ï": 175,
      "ð": 176,
      "ñ": 177,
      "ò": 178,
      "ó": 179,
      "ô": 180,
      "õ": 181,
      "ö": 182,
      "÷": 183,
      "ø": 184,
      "ù": 185,
      "ú": 186,
      "û": 187,
      "ü": 188,
      "ý": 189,
      "þ": 190,
      "ÿ": 191,
      "Ā": 192,
      "ā": 193,
      "Ă": 194,
      "ă": 195,
      "Ą": 196,
      "ą": 197,
      "Ć": 198,
      "ć": 199,
      "Ĉ": 200,
      "ĉ": 201,
      "Ċ": 202,
      "ċ": 203,
      "Č": 204,
      "č": 205,
      "Ď": 206,
      "ď": 207,
      "Đ": 208,
      "đ": 209,
      "Ē": 210,
      "ē": 211,
      "Ĕ": 212,
      "ĕ": 213,
      "Ė": 214,
      "ė": 215,
      "Ę": 216,
      "ę": 217,
      "Ě": 218,
      "ě": 219,
      "Ĝ": 220,
      "ĝ": 221,
      "Ğ": 222,
      "ğ": 223,
      "Ġ": 224,
      "ġ": 225,
      "Ģ": 226,
      "ģ": 227,
      "Ĥ": 228,
      "ĥ": 229,
      "Ħ": 230,
      "ħ": 231,
      "Ĩ": 232,
      "ĩ": 233,
      "Ī": 234,
      "ī": 235,
      "Ĭ": 236,
      "ĭ": 237,
      "Į": 238,
      "į": 239,
      "İ": 240,
      "ı": 241,
      "Ĳ": 242,
      "ĳ": 243,
      "Ĵ": 244,
      "ĵ": 245,
      "Ķ": 246,
      "ķ": 247,
      "ĸ": 248,
      "Ĺ": 249,
      "ĺ": 250,
      "Ļ": 251,
      "ļ": 252,
      "Ľ": 253,
      "ľ": 254,
      "Ŀ": 255,
      "ŀ": 256,
      "Ł": 257,
      "ł": 258,
      "Ń": 259,
      "ĠĠ": 260,
      "ĠĠĠĠ": 261,
      "ĠĠĠ": 262,
      "ĠĠĠĠĠĠĠĠ": 263,
      "er": 264,
      "in": 265,
      "on": 266,
      "re": 267,
      "at": 268,
      "st": 269,
      "en": 270,
      "--": 271,
      "Ġ=": 272,
      "or": 273,
      "al": 274,
      "se": 275,
      "ĊĠĠĠ": 276,
      "le": 277,
      "Ġt": 278,
      "ĊĠĠĠĠ": 279,
      "ar": 280,
      "00": 281,
      "ĊĠĠĠĠĠĠĠĠ": 282,
      "an": 283,
      "de": 284,
      "it": 285,
      "ct": 286,
      "ion": 287,
      "Ġc": 288,
      "',": 289,
      "me": 290,
      "ĉĉ": 291,
      "Ġ'": 292,
      "ĊĠĠĠĠĠĠĠ": 293,
      "ro": 294,
      "Ġf": 295,
      "Ġ{": 296,
      "Ġ(": 297,
      "Ġ\"": 298,
      ");": 299,
      "Ġ0": 300,
      "ĊĠ": 301,
      "ut": 302,
      "es": 303,
      "Ġp": 304,
      "----": 305,
      "un": 306,
      "ing": 307,
      "ic": 308,
      "he": 309,
      "ur": 310,
      "et": 311,
      "ent": 312,
      "id": 313,
      "as": 314,
      "is": 315,
      "lo": 316,
      "mp": 317,
      "//": 318,
      "::": 319,
      "Ġs": 320,
      "ed": 321,
      "if": 322,
      "Ġn": 323,
      "Ġ*": 324,
      "Ġ1": 325,
      "ame": 326,
      "ex": 327,
      "Ġre": 328,
      "Ġ}": 329,
      "ad": 330,
      "ac": 331,
      "()": 332,
      "ate": 333,
      "il": 334,
      "int": 335,
      "el": 336,
      "\",": 337,
      "**": 338,
      "Ċĉ": 339,
      "pe": 340,
      "co": 341,
      "Ġb": 342,
      "ĊĠĠĠĠĠĠĠĠĠĠĠ": 343,
      "Ġm": 344,
      "ue": 345,
      "ag": 346,
      "),": 347,
      "tr": 348,
      "ul": 349,
      "Ġd": 350,
      "Ġv": 351,
      "ap": 352,
      "Ċĉĉ": 353,
      "Ġo": 354,
      "ĠS": 355,
      "ig": 356,
      "ab": 357,
      "Ġ<": 358,
      "ĠN": 359,
      "20": 360,
      "ol": 361,
      "end": 362,
      "Ġthe": 363,
      "In": 364,
      "str": 365,
      "##": 366,
      "Ġ-": 367,
      "ot": 368,
      "Ġa": 369,
      "ch": 370,
      "--------": 371,
      "ce": 372,
      "Ġw": 373,
      "ĠĠĠĠĠĠĠ": 374,
      "==": 375,
      "ĊĠĠĠĠĠĠĠĠĠĠĠĠĠĠĠĠ": 376,
      "ĠC": 377,
      "FF": 378,
      "urn": 379,
      "ĠT": 380,
      "us": 381,
      "um": 382,
      "ort": 383,
      "ĠA": 384,
      "IN": 385,
      "Ġin": 386,
      "pt": 387,
      "turn": 388,
      "ction": 389,
      "ub": 390,
      "ĊĠĠĠĠĠ": 391,
      "ation": 392,
      "and": 393,
      "th": 394,
      "iv": 395,
      "ata": 396,
      "get": 397,
      "ay": 398,
      "ype": 399,
      "li": 400,
      "Ġ:": 401,
      "Re": 402,
      "am": 403,
      "ass": 404,
      "ext": 405,
      "(\"": 406,
      "UL": 407,
      "te": 408,
      "Ġse": 409,
      "ode": 410,
      "con": 411,
      "))": 412,
      "Ġth": 413,
      "0000": 414,
      "ew": 415,
      "iz": 416,
      "age": 417,
      "Ġ`": 418,
      "Ġif": 419,
      "ER": 420,
      "ĠP": 421,
      "ile": 422,
      "res": 423,
      "ĠD": 424,
      "imp": 425,
      "up": 426,
      "ect": 427,
      "Ġ2": 428,
      "Ġde": 429,
      "Ġcon": 430,
      "ĊĠĠĠĠĠĠĠĠĠĠĠĠĠĠĠ": 431,
      "qu": 432,
      "om": 433,
      "able": 434,
      "Ġto": 435,
      "ULL": 436,
      "Ġ[": 437,
      "lf": 438,
      "ter": 439,
      "od": 440,
      "im": 441,
      "Ġ$": 442,
      "ĊĊĠĠĠ": 443,
      "->": 444,
      "Ġl": 445,
      "Ġst": 446,
      "****": 447,
      "err": 448,
      "to": 449,
      "','": 450,
      "ult": 451,
      "ht": 452,
      "ck": 453,
      "ĠĠĠĠĠĠĠĠĠĠĠĠĠĠĠĠ": 454,
      "ert": 455,
      "ment": 456,
      "Ġfor": 457,
      "10": 458,
      "ist": 459,
      "Ġ+": 460,
      "Ġreturn": 461,
      "set": 462,
      "ĠF": 463,
      "name": 464,
      "ase": 465,
      "ers": 466,
      "ff": 467,
      "em": 468,
      "alue": 469,
      "Ġ//": 470,
      "Ġ@": 471,
      "cal": 472,
      "\\\"": 473,
      "\")": 474,
      "ize": 475,
      "ir": 476,
      "Ġg": 477,
      "import": 478,
      "ine": 479,
      "ow": 480,
      "cl": 481,
      "ack": 482,
      "ĠNULL": 483,
      "pl": 484,
      "ĠE": 485,
      "Con": 486,
      "=\"": 487,
      "ri": 488,
      "os": 489,
      "ĠI": 490,
      "ĊĊ": 491,
      "Ġ#": 492,
      "####": 493,
      "Ġr": 494,
      "Ġe": 495,
      "ES": 496,
      "ke": 497,
      "ĠO": 498,
      "ĠM": 499,
      "ime": 500,
      "ĠL": 501,
      "Ġ&": 502,
      "11": 503,
      "ption": 504,
      "('": 505,
      "Ġh": 506,
      "Ġof": 507,
      "----------------": 508,
      "AL": 509,
      "ith": 510,
      "32": 511,
      "Ġis": 512,
      "unction": 513,
      "ĠV": 514,
      "__": 515,
      "====": 516,
      "12": 517,
      "rom": 518,
      "op": 519,
      "St": 520,
      "der": 521,
      "ĠB": 522,
      "Ġint": 523,
      "tring": 524,
      "ject": 525,
      "put": 526,
      "rr": 527,
      "ve": 528,
      "art": 529,
      "..": 530,
      "ang": 531,
      "Ġ->": 532,
      "ity": 533,
      "ire": 534,
      "16": 535,
      "ON": 536,
      "pro": 537,
      "Ġu": 538,
      "all": 539,
      "ain": 540,
      "est": 541,
      "orm": 542,
      "Ġ=>": 543,
      "act": 544,
      "sp": 545,
      "RE": 546,
      "Ġ==": 547,
      "ath": 548,
      "AT": 549,
      "string": 550,
      "();": 551,
      "ess": 552,
      "Ġ3": 553,
      "nt": 554,
      "Ġself": 555,
      "out": 556,
      "čĊ": 557,
      "19": 558,
      "64": 559,
      "Ġtr": 560,
      "ver": 561,
      "ind": 562,
      "are": 563,
      "ss": 564,
      "],": 565,
      "unt": 566,
      "ser": 567,
      "Ġi": 568,
      "uct": 569,
      "Ġand": 570,
      "return": 571,
      "ME": 572,
      "lic": 573,
      "ace": 574,
      "Ġend": 575,
      "15": 576,
      "que": 577,
      "let": 578,
      "data": 579,
      "fo": 580,
      "'),": 581,
      "18": 582,
      "ull": 583,
      "Name": 584,
      "Ġ|": 585,
      "lass": 586,
      "Ġex": 587,
      "Ġ/": 588,
      "def": 589,
      "ĠR": 590,
      "17": 591,
      "TO": 592,
      "arg": 593,
      "ĊĠĠĠĠĠĠĠĠĠĠĠĠĠĠĠĠĠĠĠ": 594,
      "Ġlo": 595,
      "LE": 596,
      "Type": 597,
      "ight": 598,
      "Ġ_": 599,
      "one": 600,
      "pr": 601,
      "ure": 602,
      "text": 603,
      "our": 604,
      "ial": 605,
      "Ċĉĉĉĉ": 606,
      "add": 607,
      "AR": 608,
      "ĠG": 609,
      "Ġ*/": 610,
      "Ġx": 611,
      "Ċĉĉĉ": 612,
      "Ġval": 613,
      "ID": 614,
      "sc": 615,
      "par": 616,
      "ib": 617,
      "Ġthis": 618,
      "bject": 619,
      "14": 620,
      "Ġerr": 621,
      "sh": 622,
      "type": 623,
      "ice": 624,
      "Id": 625,
      "ip": 626,
      "Ġ<-": 627,
      "Ġ4": 628,
      "Ex": 629,
      "ast": 630,
      "ive": 631,
      "Ġdef": 632,
      "val": 633,
      "********": 634,
      "fig": 635,
      "Ġor": 636,
      "Ġ.": 637,
      "25": 638,
      "else": 639,
      "ĠU": 640,
      "Ġdo": 641,
      "Ġ!": 642,
      "ax": 643,
      "Pro": 644,
      "dex": 645,
      "SE": 646,
      "ord": 647,
      "Ġj": 648,
      "ĠIN": 649,
      "String": 650,
      "Ġy": 651,
      "13": 652,
      "Ġ)": 653,
      "</": 654,
      "per": 655,
      ",'": 656,
      "ec": 657,
      "ĊĊĠ": 658,
      "ign": 659,
      "Ġpro": 660,
      "ĠFF": 661,
      "ST": 662,
      "eld": 663,
      "ant": 664,
      "ĊĠĠĠĠĠĠĠĠĠ": 665,
      "av": 666,
      ").": 667,
      "},": 668,
      "bu": 669,
      "ield": 670,
      "99": 671,
      "Co": 672,
      "Ġ5": 673,
      "oid": 674,
      "ite": 675,
      "ail": 676,
      "Ġas": 677,
      "key": 678,
      "quest": 679,
      "bo": 680,
      "test": 681,
      "self": 682,
      "02": 683,
      "Ġconst": 684,
      "ĠW": 685,
      "01": 686,
      "Ġpub": 687,
      "alse": 688,
      "Ġbe": 689,
      "und": 690,
      "ance": 691,
      "ust": 692,
      "ĊĊĠĠĠĠĠĠĠ": 693,
      "04": 694,
      "tp": 695,
      "Ġwh": 696,
      "atch": 697,
      "SER": 698,
      "vent": 699,
      "Ġco": 700,
      "list": 701,
      "ĠĠĠĠĠ": 702,
      "row": 703,
      "Ġme": 704,
      "22": 705,
      "03": 706,
      "ĠIn": 707,
      "odel": 708,
      "Res": 709,
      "Ġclass": 710,
      "De": 711,
      "col": 712,
      "Ġnew": 713,
      "com": 714,
      "ber": 715,
      "atus": 716,
      "quire": 717,
      "Ġit": 718,
      "NT": 719,
      "app": 720,
      "Ġlet": 721,
      "rror": 722,
      "Ġun": 723,
      "form": 724,
      "Ġch": 725,
      "ory": 726,
      "ans": 727,
      "Ġfunction": 728,
      "port": 729,
      "og": 730,
      "Ġnot": 731,
      "oc": 732,
      "05": 733,
      "ost": 734,
      "ition": 735,
      "user": 736,
      "CT": 737,
      "Ġ--": 738,
      "eng": 739,
      "07": 740,
      "Ġget": 741,
      "33": 742,
      "########": 743,
      "\"]": 744,
      "mo": 745,
      "ource": 746,
      "ide": 747,
      "24": 748,
      "RO": 749,
      "Ġ0000": 750,
      "Ġelse": 751,
      "ĊĠĠĠĠĠĠĠĠĠĠĠĠĠĠĠĠĠĠĠĠĠĠĠĠ": 752,
      "NA": 753,
      "ĊĠĠ": 754,
      "65": 755,
      "////": 756,
      "ated": 757,
      "amp": 758,
      "oint": 759,
      "reate": 760,
      "file": 761,
      "08": 762,
      "ress": 763,
      "Ġfrom": 764,
      "ty": 765,
      "')": 766,
      "iew": 767,
      "aw": 768,
      "ok": 769,
      "SERT": 770,
      "ll": 771,
      "OT": 772,
      "Ġname": 773,
      "Ġpr": 774,
      "IT": 775,
      "Ġ8": 776,
      "ĠFFFF": 777,
      "========": 778,
      "Ġvar": 779,
      "ault": 780,
      "ator": 781,
      "$\"": 782,
      "Data": 783,
      "vice": 784,
      "date": 785,
      "ALU": 786,
      "unc": 787,
      "ule": 788,
      "ĠH": 789,
      "Ġdata": 790,
      "List": 791,
      "code": 792,
      "Ġ>": 793,
      "pon": 794,
      "ude": 795,
      "En": 796,
      "ies": 797,
      "Ġres": 798,
      "DE": 799,
      "Error": 800,
      "Ġon": 801,
      "struct": 802,
      "new": 803,
      "Ġwith": 804,
      "ere": 805,
      "Ġ::": 806,
      "this": 807,
      "io": 808,
      "Ġ:=": 809,
      "06": 810,
      "])": 811,
      "cess": 812,
      "ard": 813,
      "use": 814,
      "');": 815,
      "\":": 816,
      "cur": 817,
      "09": 818,
      "log": 819,
      "ĠINTO": 820,
      "INSERT": 821,
      "lock": 822,
      "ALUES": 823,
      "lect": 824,
      "size": 825,
      "value": 826,
      "http": 827,
      "gr": 828,
      "ens": 829,
      "37": 830,
      "ref": 831,
      "ary": 832,
      "lient": 833,
      "min": 834,
      "ener": 835,
      "čĊĠĠĠ": 836,
      "son": 837,
      "`,": 838,
      "Ġsh": 839,
      "Ġan": 840,
      "34": 841,
      "Ġ!=": 842,
      "\">": 843,
      "OR": 844,
      "Ġtrue": 845,
      "ak": 846,
      "lement": 847,
      "heck": 848,
      "Ġset": 849,
      "ix": 850,
      "):": 851,
      "ifi": 852,
      "assert": 853,
      "Ġ%": 854,
      "Ġ,": 855,
      "ly": 856,
      "Ch": 857,
      "ĠVALUES": 858,
      "(),": 859,
      "Set": 860,
      "Ġvalue": 861,
      "low": 862,
      "roup": 863,
      "ength": 864,
      "KE": 865,
      "28": 866,
      "yst": 867,
      "27": 868,
      "umber": 869,
      "ĊĠĠĠĠĠĠĠĠĠĠĠĠĠĠĠĠĠĠĠĠĠĠĠĠĠĠĠĠĠĠĠĠ": 870,
      "ild": 871,
      "of": 872,
      "div": 873,
      "ill": 874,
      "clude": 875,
      "line": 876,
      "Ġk": 877,
      "Ġthen": 878,
      "Ġnil": 879,
      "[\"": 880,
      "35": 881,
      "param": 882,
      "ader": 883,
      "ĊĠĠĠĠĠĠĠĠĠĠĠĠĠĠĠĠĠĠĠĠĠĠĠ": 884,
      "AB": 885,
      "ool": 886,
      "function": 887,
      "Ġstring": 888,
      "ob": 889,
      "Ġtype": 890,
      "dd": 891,
      "atic": 892,
      "ystem": 893,
      "21": 894,
      "Un": 895,
      "ph": 896,
      "\");": 897,
      "ange": 898,
      "pect": 899,
      "var": 900,
      "NAME": 901,
      "ome": 902,
      "Ġ7": 903,
      "Ġnull": 904,
      "Tr": 905,
      "ATE": 906,
      "66": 907,
      "ork": 908,
      "000": 909,
      "Ġ},": 910,
      "--------------------------------": 911,
      "ute": 912,
      "abel": 913,
      "55": 914,
      "Ġpar": 915,
      "read": 916,
      "be": 917,
      "ash": 918,
      "\"\"": 919,
      "ger": 920,
      "ore": 921,
      "pec": 922,
      "MA": 923,
      "Ġfalse": 924,
      "ner": 925,
      "ector": 926,
      "ense": 927,
      "(&": 928,
      "Ġ\\": 929,
      "Get": 930,
      "FA": 931,
      "ION": 932,
      "29": 933,
      "scri": 934,
      "38": 935,
      "36": 936,
      "cont": 937,
      "26": 938,
      "Ġ6": 939,
      "ĠString": 940,
      "44": 941,
      "count": 942,
      "Ġfile": 943,
      "ĠNOT": 944,
      "map": 945,
      "ma": 946,
      "ĠRe": 947,
      "ong": 948,
      "class": 949,
      "const": 950,
      "Ġcom": 951,
      "arr": 952,
      "Par": 953,
      "NULL": 954,
      "Ġby": 955,
      "Ser": 956,
      "char": 957,
      "To": 958,
      "Ġid": 959,
      "().": 960,
      "ree": 961,
      "time": 962,
      "ersion": 963,
      "yn": 964,
      "path": 965,
      "Ġpublic": 966,
      "Ġcol": 967,
      "local": 968,
      "KEY": 969,
      "EN": 970,
      "pp": 971,
      "Value": 972,
      "Ġal": 973,
      "stance": 974,
      "ĠĠĠĠĠĠ": 975,
      "AN": 976,
      "rap": 977,
      "ery": 978,
      "['": 979,
      "lay": 980,
      "emp": 981,
      "ĠSt": 982,
      "ink": 983,
      "39": 984,
      "Se": 985,
      "Ġ20": 986,
      "88": 987,
      "ud": 988,
      "ey": 989,
      "loat": 990,
      "ms": 991,
      "ues": 992,
      "ps": 993,
      "pub": 994,
      "].": 995,
      "for": 996,
      "Cont": 997,
      "Ġuse": 998,
      "func": 999,
      "rame": 1000,
      "arent": 1001,
      "ave": 1002,
      "rent": 1003,
      "ach": 1004,
      "())": 1005,
      "red": 1006,
      "ge": 1007,
      "pos": 1008,
      "77": 1009,
      "/*": 1010,
      "://": 1011,
      "ont": 1012,
      "ole": 1013,
      "An": 1014,
      "ia": 1015,
      "ask": 1016,
      "Object": 1017,
      "uth": 1018,
      "45": 1019,
      "ument": 1020,
      "Ġstd": 1021,
      "Col": 1022,
      "ĠDE": 1023,
      "include": 1024,
      "Ġfn": 1025,
      "af": 1026,
      "Ġat": 1027,
      "ponse": 1028,
      "Key": 1029,
      "rc": 1030,
      "CH": 1031,
      "Int": 1032,
      "Ġerror": 1033,
      "30": 1034,
      "Bu": 1035,
      "****************": 1036,
      "lev": 1037,
      "print": 1038,
      "ml": 1039,
      "ULT": 1040,
      "rray": 1041,
      "Ġ10": 1042,
      "qual": 1043,
      "own": 1044,
      "comp": 1045,
      "OL": 1046,
      "Ġtest": 1047,
      "ache": 1048,
      "Ġ&&": 1049,
      "duct": 1050,
      "from": 1051,
      "AS": 1052,
      "by": 1053,
      "rite": 1054,
      "load": 1055,
      "File": 1056,
      "lot": 1057,
      "\",\"": 1058,
      "];": 1059,
      "Ġ'',": 1060,
      "ivate": 1061,
      "ication": 1062,
      "Ġ9": 1063,
      "ock": 1064,
      "Ġ<<": 1065,
      "!(": 1066,
      "75": 1067,
      "ET": 1068,
      "Time": 1069,
      "Ġvoid": 1070,
      "ĠJ": 1071,
      "Ġout": 1072,
      "74": 1073,
      "Ġthat": 1074,
      "uld": 1075,
      "args": 1076,
      "ence": 1077,
      "ĉĉĉĉ": 1078,
      "čĊč": 1079,
      "back": 1080,
      "cept": 1081,
      "IC": 1082,
      "State": 1083,
      "odule": 1084,
      "Ġcase": 1085,
      "Require": 1086,
      "fil": 1087,
      "ern": 1088,
      "));": 1089,
      "mb": 1090,
      "sub": 1091,
      "pert": 1092,
      "ptions": 1093,
      "69": 1094,
      "not": 1095,
      "ĠPro": 1096,
      "arget": 1097,
      "ne": 1098,
      "IL": 1099,
      "iter": 1100,
      "icense": 1101,
      "index": 1102,
      "Ġen": 1103,
      "Ġcont": 1104,
      "void": 1105,
      "Ġ</": 1106,
      "23": 1107,
      "Ġassert": 1108,
      "AD": 1109,
      "ffer": 1110,
      "Text": 1111,
      "Ġhe": 1112,
      "UT": 1113,
      "ep": 1114,
      "Info": 1115,
      "ename": 1116,
      "ception": 1117,
      "ample": 1118,
      "error": 1119,
      "ug": 1120,
      "ins": 1121,
      "ĠThe": 1122,
      "By": 1123,
      "Ġ('": 1124,
      "Ġ__": 1125,
      "Ġcomp": 1126,
      "48": 1127,
      "($": 1128,
      "br": 1129,
      "ound": 1130,
      "FAULT": 1131,
      "Comp": 1132,
      "78": 1133,
      "array": 1134,
      "ell": 1135,
      "Ġ00": 1136,
      "Requirement": 1137,
      "idth": 1138,
      "At": 1139,
      "ys": 1140,
      "ream": 1141,
      "yle": 1142,
      "68": 1143,
      "\\\\": 1144,
      "uc": 1145,
      "ould": 1146,
      "RA": 1147,
      "iss": 1148,
      "mut": 1149,
      "Map": 1150,
      "Ġuid": 1151,
      "\";": 1152,
      "49": 1153,
      "RI": 1154,
      "reg": 1155,
      "we": 1156,
      "ssage": 1157,
      "cri": 1158,
      "yp": 1159,
      "čĊĠĠĠĠĠĠĠ": 1160,
      "Request": 1161,
      "mand": 1162,
      "100": 1163,
      "Ġresult": 1164,
      "']": 1165,
      "2020": 1166,
      "Ġlocal": 1167,
      "ings": 1168,
      "Sh": 1169,
      "ABLE": 1170,
      "play": 1171,
      "trib": 1172,
      "ry": 1173,
      "ake": 1174,
      "Ġtime": 1175,
      "itle": 1176,
      "PE": 1177,
      "Test": 1178,
      "ifier": 1179,
      "pack": 1180,
      "ict": 1181,
      "url": 1182,
      "istr": 1183,
      "ef": 1184,
      "////////": 1185,
      "its": 1186,
      "action": 1187,
      "late": 1188,
      "Ġ///": 1189,
      "model": 1190,
      "Config": 1191,
      "word": 1192,
      "config": 1193,
      "40": 1194,
      "uble": 1195,
      "((": 1196,
      "lete": 1197,
      "ody": 1198,
      "face": 1199,
      "ick": 1200,
      ":\\\"": 1201,
      "ton": 1202,
      "Ġadd": 1203,
      "';": 1204,
      "ameter": 1205,
      "ations": 1206,
      "loc": 1207,
      "cre": 1208,
      "ED": 1209,
      "Ġsize": 1210,
      "irst": 1211,
      "json": 1212,
      "CO": 1213,
      "ded": 1214,
      "ĠDEFAULT": 1215,
      "inal": 1216,
      "ual": 1217,
      "à¸": 1218,
      "Array": 1219,
      "work": 1220,
      "umn": 1221,
      "79": 1222,
      "ou": 1223,
      "Ġbu": 1224,
      "++": 1225,
      "LO": 1226,
      "table": 1227,
      "MP": 1228,
      "api": 1229,
      "mat": 1230,
      "ark": 1231,
      "################": 1232,
      "input": 1233,
      "no": 1234,
      "());": 1235,
      "opy": 1236,
      "std": 1237,
      "Ġlist": 1238,
      "ates": 1239,
      "58": 1240,
      "result": 1241,
      "ise": 1242,
      "50": 1243,
      "...": 1244,
      "Event": 1245,
      "Ð¾": 1246,
      "Ġstruct": 1247,
      "core": 1248,
      "Add": 1249,
      "Ġup": 1250,
      "CRE": 1251,
      "Ġwhere": 1252,
      "length": 1253,
      "Ġz": 1254,
      "num": 1255,
      "mt": 1256,
      "mit": 1257,
      "Ġwe": 1258,
      "df": 1259,
      "Of": 1260,
      "max": 1261,
      "Ġkey": 1262,
      "roll": 1263,
      "item": 1264,
      "ä¸": 1265,
      "Or": 1266,
      "CE": 1267,
      "Ġ);": 1268,
      "Ġare": 1269,
      "lag": 1270,
      "ĊĠĠĠĠĠĠĠĠĠĠĠĠĠĠĠĠĠĠĠĠĠĠĠĠĠĠĠ": 1271,
      "ait": 1272,
      "Field": 1273,
      "ng": 1274,
      "59": 1275,
      "fer": 1276,
      "================": 1277,
      "Qu": 1278,
      "utton": 1279,
      "čĊĉ": 1280,
      "arch": 1281,
      "Node": 1282,
      "try": 1283,
      "db": 1284,
      "56": 1285,
      "._": 1286,
      "Ite": 1287,
      "View": 1288,
      "ww": 1289,
      "Path": 1290,
      "essage": 1291,
      "};": 1292,
      "util": 1293,
      "thod": 1294,
      "py": 1295,
      "onent": 1296,
      "Ġ/**": 1297,
      "ush": 1298,
      "old": 1299,
      "Ġtable": 1300,
      "Ġro": 1301,
      "raw": 1302,
      "='": 1303,
      "Size": 1304,
      "ffset": 1305,
      "ions": 1306,
      "Ġchar": 1307,
      "UR": 1308,
      "Ġprint": 1309,
      "andle": 1310,
      "che": 1311,
      "IS": 1312,
      "Met": 1313,
      "Ġ[]": 1314,
      "enc": 1315,
      "ĠLicense": 1316,
      "ee": 1317,
      "sign": 1318,
      "ĊĠĠĠĠĠĠĠĠĠĠĠĠĠ": 1319,
      "Context": 1320,
      "mon": 1321,
      "md": 1322,
      "Ġ'<": 1323,
      "46": 1324,
      "appl": 1325,
      "ify": 1326,
      "point": 1327,
      "System": 1328,
      "MENT": 1329,
      "Ar": 1330,
      "define": 1331,
      "ative": 1332,
      "Ġ||": 1333,
      "create": 1334,
      "ler": 1335,
      "IG": 1336,
      "uto": 1337,
      "47": 1338,
      "\"),": 1339,
      "He": 1340,
      "31": 1341,
      "Ġcur": 1342,
      "ages": 1343,
      "Ð°": 1344,
      "Index": 1345,
      "00000000": 1346,
      "valid": 1347,
      "Ġ?": 1348,
      "pre": 1349,
      "state": 1350,
      "Th": 1351,
      "order": 1352,
      "Ġprivate": 1353,
      "EX": 1354,
      "ta": 1355,
      ">',": 1356,
      "ĠÐ": 1357,
      "Lo": 1358,
      "indow": 1359,
      "space": 1360,
      "Com": 1361,
      "Up": 1362,
      "node": 1363,
      "reak": 1364,
      "Ġ/*": 1365,
      "info": 1366,
      "ava": 1367,
      "start": 1368,
      "UN": 1369,
      "200": 1370,
      "go": 1371,
      "PI": 1372,
      "AG": 1373,
      "ars": 1374,
      "Ġcan": 1375,
      "lob": 1376,
      "2018": 1377,
      "Response": 1378,
      "cond": 1379,
      "ĠTh": 1380,
      "ĠTABLE": 1381,
      "})": 1382,
      "bl": 1383,
      "Val": 1384,
      "sed": 1385,
      "move": 1386,
      "image": 1387,
      "cho": 1388,
      "Message": 1389,
      "ĠCon": 1390,
      "ĠK": 1391,
      "ics": 1392,
      "ann": 1393,
      "perty": 1394,
      "entifier": 1395,
      ")]": 1396,
      "field": 1397,
      "Result": 1398,
      "80": 1399,
      "Ġstr": 1400,
      "Ġexpect": 1401,
      "Ġser": 1402,
      "js": 1403,
      "view": 1404,
      "Ġlog": 1405,
      "ING": 1406,
      "ren": 1407,
      "temp": 1408,
      "rol": 1409,
      "cord": 1410,
      "Ðµ": 1411,
      "ĠText": 1412,
      "ie": 1413,
      "':": 1414,
      "Ġli": 1415,
      "ync": 1416,
      "Ġsub": 1417,
      "Ġus": 1418,
      "wh": 1419,
      "Exception": 1420,
      "Ġqu": 1421,
      "Out": 1422,
      "Ġle": 1423,
      "AC": 1424,
      "),(": 1425,
      "User": 1426,
      "Ġstatic": 1427,
      "label": 1428,
      "67": 1429,
      "tes": 1430,
      "Code": 1431,
      "ateg": 1432,
      "object": 1433,
      "89": 1434,
      "ld": 1435,
      "itial": 1436,
      "verr": 1437,
      "Log": 1438,
      "INT": 1439,
      "Inter": 1440,
      "https": 1441,
      "Ġac": 1442,
      "ams": 1443,
      "dir": 1444,
      "rate": 1445,
      "irect": 1446,
      "append": 1447,
      "Ġall": 1448,
      "Ġuser": 1449,
      "Item": 1450,
      "ken": 1451,
      "Ġdefault": 1452,
      "ilder": 1453,
      "mpty": 1454,
      "DI": 1455,
      "ctx": 1456,
      "2019": 1457,
      "Des": 1458,
      "54": 1459,
      ":\"": 1460,
      "client": 1461,
      "uration": 1462,
      "air": 1463,
      "ors": 1464,
      "57": 1465,
      "Ġvalues": 1466,
      "ĠEx": 1467,
      "oth": 1468,
      "Ċĉĉĉĉĉ": 1469,
      "ptr": 1470,
      "wner": 1471,
      "verride": 1472,
      "anag": 1473,
      "group": 1474,
      "erm": 1475,
      "čĊĠ": 1476,
      "cs": 1477,
      "rix": 1478,
      "base": 1479,
      "default": 1480,
      "Service": 1481,
      "Var": 1482,
      "dis": 1483,
      "ï¼": 1484,
      "Model": 1485,
      "ilter": 1486,
      "ices": 1487,
      "Ġ+=": 1488,
      "ature": 1489,
      "${": 1490,
      "status": 1491,
      "\"))": 1492,
      "Ġtext": 1493,
      "[]": 1494,
      "ĊĊĉ": 1495,
      "bug": 1496,
      "Ġorg": 1497,
      "Ġ\"<": 1498,
      "Ġob": 1499,
      "Def": 1500,
      "Ġobject": 1501,
      "ĠIs": 1502,
      "do": 1503,
      "case": 1504,
      "right": 1505,
      "doc": 1506,
      "inter": 1507,
      "cc": 1508,
      "Al": 1509,
      "ther": 1510,
      "DB": 1511,
      "Ġinput": 1512,
      "ĠInt": 1513,
      "ft": 1514,
      "Te": 1515,
      "len": 1516,
      "lection": 1517,
      "#'": 1518,
      "scal": 1519,
      "Ġ]": 1520,
      "Ġ(`": 1521,
      "ĠNo": 1522,
      "press": 1523,
      "ql": 1524,
      "Ġext": 1525,
      "Ġ16": 1526,
      "ãģ": 1527,
      "ĠAS": 1528,
      "span": 1529,
      "ĠUn": 1530,
      "cript": 1531,
      "Ġvarchar": 1532,
      "Bo": 1533,
      "Ġnumber": 1534,
      "olean": 1535,
      ">,": 1536,
      "With": 1537,
      "org": 1538,
      "ich": 1539,
      "Client": 1540,
      "ister": 1541,
      "iable": 1542,
      "utf": 1543,
      "true": 1544,
      "><": 1545,
      "Ġmax": 1546,
      "andler": 1547,
      "ĠGet": 1548,
      "Pr": 1549,
      "ces": 1550,
      "Ġbool": 1551,
      "][": 1552,
      "public": 1553,
      "ĠId": 1554,
      "vert": 1555,
      "ote": 1556,
      "Ġ()": 1557,
      "Ġfield": 1558,
      "ified": 1559,
      "export": 1560,
      "ĠAc": 1561,
      "Ġspec": 1562,
      "proto": 1563,
      "Ġimp": 1564,
      "ined": 1565,
      "87": 1566,
      "Ð¸": 1567,
      "ĊĊĠĠĠĠĠĠĠĠĠĠĠ": 1568,
      "Str": 1569,
      "level": 1570,
      "Ġread": 1571,
      "buf": 1572,
      "Reg": 1573,
      "Ġ15": 1574,
      "ci": 1575,
      "filename": 1576,
      "link": 1577,
      "CC": 1578,
      "Ġ#[": 1579,
      "ift": 1580,
      "AA": 1581,
      "On": 1582,
      "86": 1583,
      "anager": 1584,
      "EST": 1585,
      "///": 1586,
      "Ġpos": 1587,
      "Ġ{}": 1588,
      "Ġmut": 1589,
      "null": 1590,
      "ĠĠĠĠĠĠĠĠĠĠĠĠĠĠĠĠĠĠĠĠĠĠĠĠĠĠĠĠĠĠĠĠ": 1591,
      "Form": 1592,
      ">\",": 1593,
      "43": 1594,
      "SET": 1595,
      "layer": 1596,
      "mod": 1597,
      "Im": 1598,
      "fe": 1599,
      "Class": 1600,
      "42": 1601,
      "Status": 1602,
      "TER": 1603,
      "UE": 1604,
      "otal": 1605,
      "Ġrequire": 1606,
      "sg": 1607,
      "ĊĊĠĠĠĠĠ": 1608,
      "Ap": 1609,
      "insert": 1610,
      "static": 1611,
      "Ġarg": 1612,
      "ĠAN": 1613,
      "DD": 1614,
      "ized": 1615,
      "package": 1616,
      "curity": 1617,
      "TR": 1618,
      "Ġinto": 1619,
      "dat": 1620,
      "request": 1621,
      "Ġnode": 1622,
      "scription": 1623,
      "with": 1624,
      "Ġbo": 1625,
      "IM": 1626,
      "ade": 1627,
      "Ġinter": 1628,
      "ustom": 1629,
      "message": 1630,
      "={": 1631,
      "ĠStatus": 1632,
      "Ġshould": 1633,
      "Ċĉĉĉĉĉĉ": 1634,
      "CL": 1635,
      "ĠData": 1636,
      "ution": 1637,
      "annel": 1638,
      "lat": 1639,
      "net": 1640,
      "td": 1641,
      "call": 1642,
      "elf": 1643,
      "sum": 1644,
      "Pos": 1645,
      "ĠX": 1646,
      "Ġstate": 1647,
      "Ġstart": 1648,
      "lobal": 1649,
      "2021": 1650,
      "Ġdis": 1651,
      "ĠKEY": 1652,
      "EC": 1653,
      "pen": 1654,
      "Ġmatch": 1655,
      "enu": 1656,
      "ypes": 1657,
      "ÑĤ": 1658,
      "po": 1659,
      "ĠOwner": 1660,
      "event": 1661,
      "Group": 1662,
      "ĠNone": 1663,
      "ical": 1664,
      "check": 1665,
      "Be": 1666,
      "security": 1667,
      "Ġpath": 1668,
      "Input": 1669,
      ">>": 1670,
      "98": 1671,
      "Ġconfig": 1672,
      "US": 1673,
      "src": 1674,
      "Ġ(!": 1675,
      "Ġcheck": 1676,
      "ape": 1677,
      "Ġrequest": 1678,
      "../": 1679,
      "select": 1680,
      "ĠTr": 1681,
      "Date": 1682,
      "Is": 1683,
      "Ġindex": 1684,
      "Table": 1685,
      "Ġmap": 1686,
      "write": 1687,
      "Ð½": 1688,
      "Team": 1689,
      "95": 1690,
      "cle": 1691,
      "admin": 1692,
      "frame": 1693,
      "Ac": 1694,
      "Ġresp": 1695,
      "/**": 1696,
      "format": 1697,
      "76": 1698,
      "lib": 1699,
      "Not": 1700,
      "Ġwill": 1701,
      "Element": 1702,
      "raph": 1703,
      "]]": 1704,
      "tw": 1705,
      "fore": 1706,
      "ank": 1707,
      "Ġcreate": 1708,
      "Ġpre": 1709,
      "uint": 1710,
      "Ġfun": 1711,
      "ient": 1712,
      "Ġimport": 1713,
      "Ġ});": 1714,
      "Ġ};": 1715,
      "Vector": 1716,
      "trans": 1717,
      "ĠProduct": 1718,
      "auth": 1719,
      "Instance": 1720,
      "Ref": 1721,
      "(_": 1722,
      "Point": 1723,
      "the": 1724,
      "Ġreg": 1725,
      "Ġno": 1726,
      "current": 1727,
      "title": 1728,
      "bin": 1729,
      "Ġuint": 1730,
      "96": 1731,
      "Color": 1732,
      "cepted": 1733,
      "az": 1734,
      "CON": 1735,
      "\\\";": 1736,
      "ends": 1737,
      "></": 1738,
      "inline": 1739,
      "ui": 1740,
      "Le": 1741,
      "box": 1742,
      "){": 1743,
      "New": 1744,
      "lose": 1745,
      "ĠThis": 1746,
      "ider": 1747,
      "signed": 1748,
      "41": 1749,
      "FI": 1750,
      "ainer": 1751,
      "istrib": 1752,
      "Count": 1753,
      "ible": 1754,
      "typ": 1755,
      "roller": 1756,
      "ĊĠĠĠĠĠĠĠĠĠĠĠĠĠĠĠĠĠĠĠĠĠĠĠĠĠĠĠĠĠĠĠ": 1757,
      "module": 1758,
      "levant": 1759,
      "Ġyou": 1760,
      "Base": 1761,
      "ĠĠĠĠĠĠĠĠĠĠĠ": 1762,
      "gh": 1763,
      "tern": 1764,
      "TH": 1765,
      "tings": 1766,
      "ĠRes": 1767,
      "ĊĠĠĠĠĠĠ": 1768,
      "led": 1769,
      "Ġnum": 1770,
      "TY": 1771,
      "px": 1772,
      "html": 1773,
      "tx": 1774,
      "color": 1775,
      "DO": 1776,
      "oin": 1777,
      "ĠIdentifier": 1778,
      "tribute": 1779,
      "ish": 1780,
      "85": 1781,
      "ĠParent": 1782,
      "čĊĠĠĠĠĠĠĠĠĠĠĠ": 1783,
      "ĠSome": 1784,
      "For": 1785,
      "Ġcurrent": 1786,
      "Ġent": 1787,
      "roid": 1788,
      "content": 1789,
      "Ġarray": 1790,
      "`)": 1791,
      "eb": 1792,
      "eq": 1793,
      ">(": 1794,
      "Ġcall": 1795,
      "'),(": 1796,
      "names": 1797,
      "ĠEX": 1798,
      "Equal": 1799,
      "Ġmodel": 1800,
      "IO": 1801,
      "Ġoutput": 1802,
      "main": 1803,
      "72": 1804,
      "Ġab": 1805,
      "relevant": 1806,
      "any": 1807,
      "({": 1808,
      "gin": 1809,
      "2017": 1810,
      "Ġsup": 1811,
      "php": 1812,
      "wrap": 1813,
      "Dis": 1814,
      "version": 1815,
      "ĠĠĠĠĠĠĠĠĠĠ": 1816,
      "ning": 1817,
      "impl": 1818,
      "ĠAccepted": 1819,
      "OP": 1820,
      "Ġrun": 1821,
      "uccess": 1822,
      "Ġ((": 1823,
      "ero": 1824,
      "SystemRequirement": 1825,
      "ĠProductTeam": 1826,
      "update": 1827,
      "Ġ12": 1828,
      "output": 1829,
      "Ġhas": 1830,
      "nection": 1831,
      "round": 1832,
      "52": 1833,
      "eturn": 1834,
      "Ġlength": 1835,
      "false": 1836,
      "53": 1837,
      "ines": 1838,
      "Sub": 1839,
      "Arg": 1840,
      "Trans": 1841,
      "From": 1842,
      "Act": 1843,
      "ithub": 1844,
      "EMA": 1845,
      "ses": 1846,
      "Ġwhen": 1847,
      "init": 1848,
      "TE": 1849,
      ">\\": 1850,
      "aint": 1851,
      "ĠY": 1852,
      "cf": 1853,
      "UP": 1854,
      "xf": 1855,
      "cr": 1856,
      "rows": 1857,
      ")))": 1858,
      "ÑĢ": 1859,
      "cent": 1860,
      "Ġcode": 1861,
      "97": 1862,
      ",\"": 1863,
      "Ġ;": 1864,
      "post": 1865,
      "cat": 1866,
      "atrix": 1867,
      "Ad": 1868,
      "ear": 1869,
      "UM": 1870,
      "oken": 1871,
      "60": 1872,
      "env": 1873,
      "Ġany": 1874,
      "\"\"\"": 1875,
      "block": 1876,
      "ROM": 1877,
      "CREATE": 1878,
      "ĠCo": 1879,
      "top": 1880,
      "obj": 1881,
      "acter": 1882,
      "Frame": 1883,
      "{}": 1884,
      "stamp": 1885,
      "\\\",": 1886,
      "84": 1887,
      "PO": 1888,
      "CA": 1889,
      "à¦": 1890,
      "Call": 1891,
      "Query": 1892,
      "pc": 1893,
      "ender": 1894,
      "ĠSet": 1895,
      "part": 1896,
      "********************************": 1897,
      "expect": 1898,
      "Ġitem": 1899,
      "serv": 1900,
      "LECT": 1901,
      "ump": 1902,
      "Ġpl": 1903,
      "=\\\"": 1904,
      "Ġmin": 1905,
      "parse": 1906,
      "Ð¾Ð": 1907,
      "ĠOR": 1908,
      "ĠQ": 1909,
      "Ġline": 1910,
      "Ġmethod": 1911,
      "á»": 1912,
      "000000": 1913,
      "Ñģ": 1914,
      "Ġcl": 1915,
      "[:": 1916,
      "Ġ})": 1917,
      "SI": 1918,
      "iff": 1919,
      "SON": 1920,
      "Ġsp": 1921,
      "70": 1922,
      "instance": 1923,
      "Ġne": 1924,
      "ymb": 1925,
      "ĠCON": 1926,
      "andom": 1927,
      "aa": 1928,
      "angu": 1929,
      "lu": 1930,
      "img": 1931,
      "90": 1932,
      "73": 1933,
      "Ġunder": 1934,
      "As": 1935,
      "stract": 1936,
      "bar": 1937,
      "rop": 1938,
      "ormal": 1939,
      "Ġbreak": 1940,
      "erial": 1941,
      "place": 1942,
      "Ġstyle": 1943,
      "Ptr": 1944,
      "ameters": 1945,
      "assword": 1946,
      "INE": 1947,
      "ts": 1948,
      "åı": 1949,
      "Ġ++": 1950,
      "ility": 1951,
      "Ġcontext": 1952,
      "čĊĉĉ": 1953,
      "da": 1954,
      "github": 1955,
      "ymbol": 1956,
      "context": 1957,
      "Ġjs": 1958,
      "Ab": 1959,
      "'s": 1960,
      "dr": 1961,
      "Ġrespon": 1962,
      "=>": 1963,
      "ESS": 1964,
      "ared": 1965,
      "VE": 1966,
      "ln": 1967,
      "igh": 1968,
      "ails": 1969,
      "script": 1970,
      "med": 1971,
      "lags": 1972,
      "MO": 1973,
      "#[": 1974,
      "ian": 1975,
      "ĠCO": 1976,
      "mem": 1977,
      "Ġ14": 1978,
      "run": 1979,
      "No": 1980,
      "repon": 1981,
      "Ġtemp": 1982,
      "Sp": 1983,
      "EMAIL": 1984,
      "reponame": 1985,
      "opt": 1986,
      "my": 1987,
      "width": 1988,
      "ification": 1989,
      "Ġlen": 1990,
      "Ġevent": 1991,
      "hod": 1992,
      "HER": 1993,
      "stars": 1994,
      "iled": 1995,
      "ats": 1996,
      "Ġtrans": 1997,
      "ific": 1998,
      "push": 1999,
      "body": 2000,
      "Ġfinal": 2001,
      "Ġ\"\"\"": 2002,
      "Block": 2003,
      "ĠSET": 2004,
      "ments": 2005,
      "cast": 2006,
      "Pl": 2007,
      "ĠĠĠĠĠĠĠĠĠ": 2008,
      "ernal": 2009,
      "VER": 2010,
      "next": 2011,
      "////////////////": 2012,
      "Ġ~": 2013,
      "sm": 2014,
      "query": 2015,
      "Float": 2016,
      "çļ": 2017,
      "HT": 2018,
      "Create": 2019,
      "Manager": 2020,
      "orage": 2021,
      "Ġpoint": 2022,
      "tag": 2023,
      "sw": 2024,
      "sk": 2025,
      "ãĤ": 2026,
      "abase": 2027,
      "Ġ..": 2028,
      "App": 2029,
      "GL": 2030,
      "find": 2031,
      "token": 2032,
      "`,`": 2033,
      "*/": 2034,
      "Ġâ": 2035,
      "plit": 2036,
      "Ġmessage": 2037,
      "Ut": 2038,
      "Ġ11": 2039,
      "ization": 2040,
      "ategory": 2041,
      "Ġper": 2042,
      "ik": 2043,
      "rit": 2044,
      "255": 2045,
      "NO": 2046,
      "ĠCH": 2047,
      "ally": 2048,
      "çļĦ": 2049,
      "Ġcopy": 2050,
      "utes": 2051,
      "ret": 2052,
      "Number": 2053,
      "Ġact": 2054,
      "Ġother": 2055,
      "Action": 2056,
      "Ġmod": 2057,
      "number": 2058,
      "83": 2059,
      "ĊĠĠĠĠĊĠĠĠ": 2060,
      "ures": 2061,
      "plot": 2062,
      "Ġbase": 2063,
      "older": 2064,
      "itor": 2065,
      "gen": 2066,
      "Ġargs": 2067,
      "Image": 2068,
      "\\\":\\\"": 2069,
      "float": 2070,
      "Buffer": 2071,
      "Ġhave": 2072,
      "nd": 2073,
      "target": 2074,
      "rl": 2075,
      "anguage": 2076,
      "Ġoverride": 2077,
      "require": 2078,
      "flow": 2079,
      "2016": 2080,
      "82": 2081,
      "Output": 2082,
      "UTO": 2083,
      "Line": 2084,
      "params": 2085,
      "source": 2086,
      "abled": 2087,
      "Ġq": 2088,
      "94": 2089,
      "\\\":": 2090,
      "ï¼Į": 2091,
      "ho": 2092,
      "FFFF": 2093,
      "ĠSelf": 2094,
      "refix": 2095,
      "}}": 2096,
      "Ġmay": 2097,
      "pg": 2098,
      "ĊĠĠĠĠĠĠĠĠĠĠĠĠĠĠĠĠĠ": 2099,
      "ĠList": 2100,
      "nect": 2101,
      "tract": 2102,
      "Cl": 2103,
      "Ġ(\"": 2104,
      "ĠTest": 2105,
      "unk": 2106,
      "Check": 2107,
      "---": 2108,
      "63": 2109,
      "Ġ[\"": 2110,
      "ĠRE": 2111,
      "The": 2112,
      "Ġgo": 2113,
      "msg": 2114,
      "ains": 2115,
      "Ġ>=": 2116,
      "Ġtarget": 2117,
      "afe": 2118,
      "ML": 2119,
      "spec": 2120,
      "icon": 2121,
      "Stream": 2122,
      "filter": 2123,
      "rid": 2124,
      "uid": 2125,
      "UI": 2126,
      "vis": 2127,
      "ãĥ": 2128,
      "All": 2129,
      "ĠDe": 2130,
      "last": 2131,
      "ensor": 2132,
      "Ġelement": 2133,
      "can": 2134,
      "FE": 2135,
      "51": 2136,
      "apply": 2137,
      "FO": 2138,
      "ĠCOL": 2139,
      "IST": 2140,
      "62": 2141,
      "{\"": 2142,
      "CTION": 2143,
      "vector": 2144,
      "lex": 2145,
      "adata": 2146,
      "idx": 2147,
      "Ġresponse": 2148,
      "dev": 2149,
      "Ġauto": 2150,
      "head": 2151,
      "icle": 2152,
      "response": 2153,
      "Ġ100": 2154,
      "has": 2155,
      "cp": 2156,
      "Builder": 2157,
      "method": 2158,
      "81": 2159,
      "Ġscal": 2160,
      "BU": 2161,
      "Token": 2162,
      "iver": 2163,
      "\").": 2164,
      "Ġone": 2165,
      "Ġfirst": 2166,
      "vel": 2167,
      "():": 2168,
      ")),": 2169,
      "ĊĠĠĠĠĠĠĠĠĠĠĠĠ": 2170,
      "riter": 2171,
      "Ġobj": 2172,
      "Ġ13": 2173,
      "Handler": 2174,
      "first": 2175,
      "ove": 2176,
      "itch": 2177,
      "Ġ${": 2178,
      "option": 2179,
      "IP": 2180,
      "way": 2181,
      "ĠCh": 2182,
      "ailed": 2183,
      "Ġgener": 2184,
      "Ġjava": 2185,
      "Lay": 2186,
      "email": 2187,
      "Ġsource": 2188,
      "bit": 2189,
      "./": 2190,
      "Ġcount": 2191,
      "HE": 2192,
      "\"`": 2193,
      "Ġused": 2194,
      "Ġwhich": 2195,
      "ose": 2196,
      "Ġextends": 2197,
      "Function": 2198,
      "Spec": 2199,
      "cope": 2200,
      "AM": 2201,
      "ARY": 2202,
      "pend": 2203,
      "\".": 2204,
      "'t": 2205,
      "ference": 2206,
      "cd": 2207,
      "Button": 2208,
      "92": 2209,
      "byte": 2210,
      "www": 2211,
      "ume": 2212,
      "PRO": 2213,
      "resent": 2214,
      "Ġmake": 2215,
      "Ġ===": 2216,
      "ym": 2217,
      "Ġoper": 2218,
      "Ġutf": 2219,
      "End": 2220,
      "Start": 2221,
      "Cur": 2222,
      "endif": 2223,
      "ension": 2224,
      "TYPE": 2225,
      "ah": 2226,
      "open": 2227,
      "lease": 2228,
      "Ġpart": 2229,
      "dated": 2230,
      "uster": 2231,
      "Ġrange": 2232,
      "Ed": 2233,
      "PL": 2234,
      "xb": 2235,
      "Ġcolor": 2236,
      "omain": 2237,
      "61": 2238,
      "ward": 2239,
      "Ent": 2240,
      "oftw": 2241,
      "server": 2242,
      "HO": 2243,
      "ãĢ": 2244,
      "åĪ": 2245,
      ",-": 2246,
      "oftware": 2247,
      "ogle": 2248,
      "lp": 2249,
      "ov": 2250,
      "Method": 2251,
      "chema": 2252,
      "fr": 2253,
      "[[": 2254,
      "ssion": 2255,
      "gener": 2256,
      "Update": 2257,
      "Options": 2258,
      "ĠOption": 2259,
      "æľ": 2260,
      "down": 2261,
      "gram": 2262,
      "build": 2263,
      "fn": 2264,
      "cy": 2265,
      "Component": 2266,
      "xy": 2267,
      "actor": 2268,
      "','','": 2269,
      "Ġhttp": 2270,
      "Ġecho": 2271,
      "match": 2272,
      "show": 2273,
      "entity": 2274,
      "Imp": 2275,
      "ĠON": 2276,
      "Ġvalid": 2277,
      "HERE": 2278,
      "Ġdat": 2279,
      "Command": 2280,
      "Ġformat": 2281,
      "rt": 2282,
      "mark": 2283,
      "Version": 2284,
      "SELECT": 2285,
      "Util": 2286,
      "uted": 2287,
      "Ġad": 2288,
      "Per": 2289,
      "Server": 2290,
      "Ġupdate": 2291,
      "ĠIf": 2292,
      "----------------------------------------------------------------": 2293,
      "Ġaw": 2294,
      "idd": 2295,
      "exp": 2296,
      "bind": 2297,
      "tmp": 2298,
      "Ġversion": 2299,
      "Ġ17": 2300,
      "nown": 2301,
      "Temp": 2302,
      "Ġblock": 2303,
      "Ġ18": 2304,
      "Ġfloat": 2305,
      "Option": 2306,
      "lem": 2307,
      "AGE": 2308,
      "actory": 2309,
      "Ġ\"$": 2310,
      "Ċĉĉĉĉĉĉĉĉ": 2311,
      "ply": 2312,
      "AP": 2313,
      "ĠĊ": 2314,
      "olic": 2315,
      "Content": 2316,
      "Ġ19": 2317,
      "Read": 2318,
      "product": 2319,
      "DATE": 2320,
      ")(": 2321,
      "<-": 2322,
      "Mode": 2323,
      "ities": 2324,
      "perties": 2325,
      "ĠFROM": 2326,
      "xff": 2327,
      "miss": 2328,
      "XX": 2329,
      "ĠĠĠĠĠĠĠĠĠĠĠĠ": 2330,
      "\\\",\\\"": 2331,
      "Ġ\\\"": 2332,
      "resh": 2333,
      "Ġinst": 2334,
      "Ġ<=": 2335,
      "hed": 2336,
      "Num": 2337,
      "SS": 2338,
      "ANG": 2339,
      "host": 2340,
      "unwrap": 2341,
      "Ġag": 2342,
      "vide": 2343,
      "################################": 2344,
      "(:": 2345,
      "Ġshow": 2346,
      "ique": 2347,
      "page": 2348,
      "idget": 2349,
      "ns": 2350,
      "EXT": 2351,
      "Ġclient": 2352,
      "101": 2353,
      "parent": 2354,
      "xe": 2355,
      "hs": 2356,
      "NG": 2357,
      "Ġgroup": 2358,
      "Ġselect": 2359,
      "ĠType": 2360,
      "uction": 2361,
      "Filter": 2362,
      "Gener": 2363,
      "Part": 2364,
      "vider": 2365,
      "Ġmust": 2366,
      "Mem": 2367,
      "Format": 2368,
      "iven": 2369,
      "ting": 2370,
      "png": 2371,
      "Ġ\",": 2372,
      "ground": 2373,
      "ttp": 2374,
      "Source": 2375,
      "Resource": 2376,
      "CHAR": 2377,
      "ause": 2378,
      "Box": 2379,
      "IGN": 2380,
      "Ġlabel": 2381,
      "](": 2382,
      "ĠSh": 2383,
      "LATE": 2384,
      "defined": 2385,
      "bool": 2386,
      "Label": 2387,
      "äº": 2388,
      "Ġdouble": 2389,
      "Window": 2390,
      "left": 2391,
      "93": 2392,
      "Ġstatus": 2393,
      "]);": 2394,
      "ĠBo": 2395,
      "attern": 2396,
      "nb": 2397,
      "Ġjson": 2398,
      "tect": 2399,
      "reated": 2400,
      "Ġdistrib": 2401,
      "ĠTO": 2402,
      "rel": 2403,
      "sup": 2404,
      "EL": 2405,
      "Tag": 2406,
      "sl": 2407,
      "teger": 2408,
      "EM": 2409,
      "button": 2410,
      "req": 2411,
      "CREMENT": 2412,
      "ĠAUTO": 2413,
      "Ġtry": 2414,
      "style": 2415,
      "å®": 2416,
      "aster": 2417,
      "____": 2418,
      "template": 2419,
      "stream": 2420,
      "ivity": 2421,
      "Ġlast": 2422,
      "NS": 2423,
      "(*": 2424,
      "Ġnext": 2425,
      "cor": 2426,
      "types": 2427,
      "Ġref": 2428,
      "Ġonly": 2429,
      "([": 2430,
      "Controller": 2431,
      "ĠAn": 2432,
      "pression": 2433,
      "ĊĠĠĠĠĠĠĠĠĠĠĠĠĠĠĠĠĠĠĠĠĠĠĠĠĠĠĠĠĠĠĠĠĠĠĠ": 2434,
      "printf": 2435,
      "rad": 2436,
      "pha": 2437,
      "ĠPar": 2438,
      "åħ": 2439,
      "Ġsrc": 2440,
      "ists": 2441,
      "ATION": 2442,
      "gl": 2443,
      "Ġparse": 2444,
      "Default": 2445,
      "oper": 2446,
      "vo": 2447,
      "ĠAND": 2448,
      "formation": 2449,
      "ux": 2450,
      "ouble": 2451,
      "Ġ-->": 2452,
      "posit": 2453,
      "ORD": 2454,
      "INCREMENT": 2455,
      "ating": 2456,
      "store": 2457,
      "ĊĠĠĊĠ": 2458,
      "UB": 2459,
      "sys": 2460,
      "FT": 2461,
      "Ġel": 2462,
      "sert": 2463,
      "height": 2464,
      "mer": 2465,
      "2015": 2466,
      "unic": 2467,
      "untime": 2468,
      "so": 2469,
      "And": 2470,
      "ĠCopy": 2471,
      "itions": 2472,
      "Types": 2473,
      "}\"": 2474,
      "================================": 2475,
      "Auth": 2476,
      "Unit": 2477,
      "edit": 2478,
      "Ġwidth": 2479,
      "straint": 2480,
      "Select": 2481,
      "Ġcal": 2482,
      "ORT": 2483,
      "options": 2484,
      "ffect": 2485,
      "Ġinstance": 2486,
      "xc": 2487,
      "izer": 2488,
      "Ġdoc": 2489,
      "system": 2490,
      "offset": 2491,
      "ĠOF": 2492,
      "RES": 2493,
      "ular": 2494,
      "buffer": 2495,
      "Ġwork": 2496,
      "empty": 2497,
      "Ġcrate": 2498,
      "Ġlong": 2499,
      "Property": 2500,
      "irt": 2501,
      "gg": 2502,
      "ä»": 2503,
      "Ġoptions": 2504,
      "Ġhref": 2505,
      "Ġwrite": 2506,
      "Ġrow": 2507,
      "tn": 2508,
      "aste": 2509,
      "tom": 2510,
      "ALSE": 2511,
      "etwork": 2512,
      "Ġaction": 2513,
      "Any": 2514,
      "9999": 2515,
      "Ġret": 2516,
      "SP": 2517,
      "Ð»": 2518,
      "unit": 2519,
      "ocket": 2520,
      "loy": 2521,
      "ermiss": 2522,
      "element": 2523,
      "åĲ": 2524,
      "ĠĠĠĠĠĠĠĠĠĠĠĠĠĠĠ": 2525,
      "irectory": 2526,
      ">%": 2527,
      "leg": 2528,
      "application": 2529,
      "header": 2530,
      "root": 2531,
      "ĠAp": 2532,
      "QL": 2533,
      "column": 2534,
      "Char": 2535,
      "DF": 2536,
      "equal": 2537,
      "ingle": 2538,
      "imple": 2539,
      "71": 2540,
      "Ob": 2541,
      "Entity": 2542,
      "utils": 2543,
      "service": 2544,
      "uments": 2545,
      "<<": 2546,
      "Ġopt": 2547,
      "ĠIS": 2548,
      "Det": 2549,
      "Mod": 2550,
      "Address": 2551,
      "Ġright": 2552,
      "arn": 2553,
      "dim": 2554,
      "çĶ": 2555,
      "Ġsum": 2556,
      "Oper": 2557,
      "values": 2558,
      "++)": 2559,
      "Ġapp": 2560,
      "ower": 2561,
      "Ġ32": 2562,
      "Ġ\"\\": 2563,
      "ĠComp": 2564,
      "Mon": 2565,
      "bb": 2566,
      "âĢ": 2567,
      "scala": 2568,
      "ENT": 2569,
      "Valid": 2570,
      "aph": 2571,
      "MMENT": 2572,
      "ĠCont": 2573,
      "RIM": 2574,
      "ved": 2575,
      "True": 2576,
      "native": 2577,
      "Ġusing": 2578,
      "ĠCOLLATE": 2579,
      "Op": 2580,
      "mm": 2581,
      "Ġ21": 2582,
      "Ġwhile": 2583,
      "vec": 2584,
      "erson": 2585,
      "PT": 2586,
      "Ġcontent": 2587,
      "oto": 2588,
      "Ġunsigned": 2589,
      "uple": 2590,
      "Ġparams": 2591,
      "olicy": 2592,
      "ĠFile": 2593,
      "ds": 2594,
      "web": 2595,
      "ither": 2596,
      "?;": 2597,
      "%\",": 2598,
      "rect": 2599,
      "Module": 2600,
      "ĠWHERE": 2601,
      "(-": 2602,
      "BA": 2603,
      "Params": 2604,
      "Ġfunc": 2605,
      "Ġback": 2606,
      "ene": 2607,
      "lin": 2608,
      "ale": 2609,
      "join": 2610,
      "less": 2611,
      "Ġ...": 2612,
      "ding": 2613,
      "âĶ": 2614,
      "plication": 2615,
      "Ġmem": 2616,
      "imer": 2617,
      "Ġfilter": 2618,
      "angle": 2619,
      "Loc": 2620,
      "Ġthrow": 2621,
      "sol": 2622,
      "Ġandroid": 2623,
      "ugin": 2624,
      "Ġview": 2625,
      "address": 2626,
      "Ġ\"\"": 2627,
      "ALTER": 2628,
      "hash": 2629,
      "echo": 2630,
      "expected": 2631,
      "bytes": 2632,
      "project": 2633,
      "Ġurl": 2634,
      "ACT": 2635,
      "SC": 2636,
      "Header": 2637,
      "JSON": 2638,
      "safe": 2639,
      "ĊĠĠĠĠĠĠĠĠĠĠ": 2640,
      "fmt": 2641,
      "Hel": 2642,
      "apt": 2643,
      "double": 2644,
      "Ġso": 2645,
      "Ġio": 2646,
      "Ġ%>%": 2647,
      "unter": 2648,
      "should": 2649,
      "LL": 2650,
      "DC": 2651,
      "/*!": 2652,
      "cel": 2653,
      "ĠCHAR": 2654,
      "ĠArray": 2655,
      "91": 2656,
      "exec": 2657,
      "Hash": 2658,
      "------------------------": 2659,
      "handle": 2660,
      "common": 2661,
      "ources": 2662,
      "jpg": 2663,
      "orld": 2664,
      "API": 2665,
      "Ġ22": 2666,
      "Ġcolumn": 2667,
      "na": 2668,
      "tributes": 2669,
      "mode": 2670,
      "Ġcor": 2671,
      "active": 2672,
      "Ġrequired": 2673,
      "Level": 2674,
      "ra": 2675,
      "ITY": 2676,
      "FC": 2677,
      "Column": 2678,
      "Sto": 2679,
      "Run": 2680,
      "ĠZ": 2681,
      "Ġinitial": 2682,
      "fter": 2683,
      "graph": 2684,
      "ĠIO": 2685,
      "search": 2686,
      "description": 2687,
      "ART": 2688,
      "man": 2689,
      "Ġorder": 2690,
      "ROR": 2691,
      "rg": 2692,
      "å¤": 2693,
      "áº": 2694,
      "brary": 2695,
      "Ġ>>": 2696,
      "tra": 2697,
      "Max": 2698,
      "Ġfind": 2699,
      "child": 2700,
      "sets": 2701,
      "ency": 2702,
      "ĠOk": 2703,
      "ched": 2704,
      "using": 2705,
      "Ġquery": 2706,
      "xx": 2707,
      "board": 2708,
      "Row": 2709,
      "DA": 2710,
      "position": 2711,
      "font": 2712,
      "eft": 2713,
      "Ġar": 2714,
      "[,": 2715,
      "Ġass": 2716,
      "ollow": 2717,
      "ARE": 2718,
      "Ġtag": 2719,
      "MS": 2720,
      "Ġcommand": 2721,
      "Ġexpected": 2722,
      "met": 2723,
      "amb": 2724,
      "Abstract": 2725,
      "delete": 2726,
      "eger": 2727,
      "Ġmsg": 2728,
      "ulti": 2729,
      "files": 2730,
      "rep": 2731,
      "čĊĠĠĠĠĠĠĠĠĠĠĠĠĠĠĠ": 2732,
      "Ġmain": 2733,
      "sole": 2734,
      "Back": 2735,
      "sql": 2736,
      "MM": 2737,
      "Task": 2738,
      "Ġ',": 2739,
      "serial": 2740,
      "rag": 2741,
      "ĠReturn": 2742,
      "break": 2743,
      "Ġ(*": 2744,
      "CP": 2745,
      "=$": 2746,
      "Ġenv": 2747,
      "xml": 2748,
      "ERROR": 2749,
      "GET": 2750,
      "irection": 2751,
      "-}": 2752,
      "čĊčĊĠĠĠ": 2753,
      "ĠError": 2754,
      "Ph": 2755,
      "fs": 2756,
      "TP": 2757,
      "loud": 2758,
      "ALL": 2759,
      "cb": 2760,
      "irtual": 2761,
      "att": 2762,
      "Length": 2763,
      "RIMARY": 2764,
      "LOC": 2765,
      "128": 2766,
      "inst": 2767,
      "Ðº": 2768,
      "Ġgiven": 2769,
      "Dir": 2770,
      "ĠName": 2771,
      "BE": 2772,
      "Null": 2773,
      "apache": 2774,
      "wo": 2775,
      "Ġ),": 2776,
      "Ġbut": 2777,
      "quence": 2778,
      "cache": 2779,
      "Page": 2780,
      "Ġpack": 2781,
      "{-": 2782,
      "à¤": 2783,
      "Ass": 2784,
      "Url": 2785,
      "Player": 2786,
      "ĠÎ": 2787,
      "ae": 2788,
      "component": 2789,
      "ĠSystem": 2790,
      "Ġheight": 2791,
      "tree": 2792,
      "rs": 2793,
      "Tree": 2794,
      "remove": 2795,
      "æĸ": 2796,
      "!(\"": 2797,
      "fd": 2798,
      "anel": 2799,
      "imal": 2800,
      "<?": 2801,
      "Ġwas": 2802,
      "attr": 2803,
      "send": 2804,
      "uch": 2805,
      "Doc": 2806,
      "Ġ['": 2807,
      "Local": 2808,
      "command": 2809,
      "Ġ23": 2810,
      "Ġimage": 2811,
      "inition": 2812,
      "Ġph": 2813,
      "ĠCopyright": 2814,
      "ten": 2815,
      "ND": 2816,
      "kg": 2817,
      "EQ": 2818,
      "ĠSe": 2819,
      "Ġ\"/": 2820,
      "lick": 2821,
      "`.": 2822,
      "Position": 2823,
      "etch": 2824,
      "xd": 2825,
      "æĪ": 2826,
      "scribe": 2827,
      "ai": 2828,
      "ASS": 2829,
      "ATA": 2830,
      "ants": 2831,
      "ĠTR": 2832,
      "cul": 2833,
      "lt": 2834,
      "{{": 2835,
      "java": 2836,
      "Order": 2837,
      "ayload": 2838,
      "Ġind": 2839,
      "score": 2840,
      "_,": 2841,
      "ession": 2842,
      "location": 2843,
      "amples": 2844,
      "protobuf": 2845,
      "Ġmodule": 2846,
      "pository": 2847,
      "Ġ_,": 2848,
      "ls": 2849,
      "Body": 2850,
      "ential": 2851,
      "Entry": 2852,
      "menu": 2853,
      "ĠIF": 2854,
      "Ġfmt": 2855,
      "ĊĠĠĠĠĠĠĠĠĠĠĠĠĠĠĠĠĠĠĠĠĠĠĠĠĠĠĠĠĠĠĠĠĠĠĠĠĠĠĠĠĠĠĠĠĠĠĠĠ": 2856,
      "Ġeach": 2857,
      "Ã©": 2858,
      "ĠAdd": 2859,
      "ixed": 2860,
      "Width": 2861,
      "Ġfe": 2862,
      "mar": 2863,
      "Ro": 2864,
      "URL": 2865,
      "entry": 2866,
      "task": 2867,
      "ZE": 2868,
      "Ġos": 2869,
      "rypt": 2870,
      "copy": 2871,
      "refer": 2872,
      "now": 2873,
      "sor": 2874,
      "Ġtitle": 2875,
      "amil": 2876,
      "property": 2877,
      "Ġpost": 2878,
      "Ġboolean": 2879,
      "total": 2880,
      "åĬ": 2881,
      "ision": 2882,
      "ĠID": 2883,
      "second": 2884,
      "ĠCol": 2885,
      "Ġvariable": 2886,
      "Match": 2887,
      "private": 2888,
      "sd": 2889,
      "det": 2890,
      "Ġtmp": 2891,
      "lab": 2892,
      "Http": 2893,
      "500": 2894,
      "Handle": 2895,
      "iction": 2896,
      "čĊčĊ": 2897,
      "ansp": 2898,
      "pol": 2899,
      "role": 2900,
      "Ġload": 2901,
      "Ġdate": 2902,
      "make": 2903,
      "Ġop": 2904,
      "åĮ": 2905,
      "BO": 2906,
      "Ġsuper": 2907,
      "process": 2908,
      "Ġexec": 2909,
      ".\"": 2910,
      "Ġ\"\",": 2911,
      "Scal": 2912,
      "None": 2913,
      "STR": 2914,
      "ias": 2915,
      "ĠResult": 2916,
      "Ġoffset": 2917,
      "aybe": 2918,
      "Target": 2919,
      "player": 2920,
      "čĊĉĉĉ": 2921,
      "INFO": 2922,
      "Ġ($": 2923,
      "google": 2924,
      "<'": 2925,
      "nbsp": 2926,
      "čĊĠĠĠĠĠ": 2927,
      "Listener": 2928,
      "ids": 2929,
      "day": 2930,
      "eric": 2931,
      "ĠĊĠĠĠ": 2932,
      "pi": 2933,
      "istance": 2934,
      "Ġhandle": 2935,
      "lice": 2936,
      "SH": 2937,
      "ĊĊĉĉ": 2938,
      "mary": 2939,
      "Ġbuild": 2940,
      "Descri": 2941,
      "Layout": 2942,
      "tected": 2943,
      "Empty": 2944,
      "Rout": 2945,
      "Ġinterface": 2946,
      "ĠPRIMARY": 2947,
      "ater": 2948,
      "Pre": 2949,
      "NE": 2950,
      "~~": 2951,
      "Param": 2952,
      "queue": 2953,
      "lang": 2954,
      "()->": 2955,
      "Min": 2956,
      "seq": 2957,
      "ynam": 2958,
      "reen": 2959,
      "gress": 2960,
      "Err": 2961,
      "Record": 2962,
      "Device": 2963,
      "Ġinclude": 2964,
      "ĠLo": 2965,
      "PC": 2966,
      "internal": 2967,
      "ba": 2968,
      "Matrix": 2969,
      "eta": 2970,
      "her": 2971,
      "ĠApp": 2972,
      "EB": 2973,
      "Pack": 2974,
      "expr": 2975,
      "full": 2976,
      "othing": 2977,
      "fl": 2978,
      "Ġnon": 2979,
      "close": 2980,
      "inner": 2981,
      "bot": 2982,
      "Cache": 2983,
      "âĶĢ": 2984,
      "ĊĠĠĠĠĠĠĠĠĠĠĠĠĠĠ": 2985,
      "txt": 2986,
      "è¯": 2987,
      "Parser": 2988,
      "Ġ*/;": 2989,
      "ĠADD": 2990,
      "save": 2991,
      "cmd": 2992,
      "Ġ'/": 2993,
      "ĠĠĠĠĠĠĠĠĠĠĠĠĠ": 2994,
      "Link": 2995,
      "ĊĊĠĠĠĠĠĠĠĠĠĠĠĠĠĠĠ": 2996,
      "YY": 2997,
      "ĠCreate": 2998,
      "Ġdistributed": 2999,
      "split": 3000,
      "Ġfound": 3001,
      "gt": 3002,
      "range": 3003,
      "Factory": 3004,
      "ron": 3005,
      "apping": 3006,
      "imum": 3007,
      "device": 3008,
      "lear": 3009,
      "Rule": 3010,
      "Ġloc": 3011,
      "ailable": 3012,
      "ĠCOMMENT": 3013,
      "card": 3014,
      "sv": 3015,
      "Ġinfo": 3016,
      "Offset": 3017,
      "long": 3018,
      "aces": 3019,
      "æĹ": 3020,
      "tt": 3021,
      "Json": 3022,
      "Api": 3023,
      "ca": 3024,
      "Write": 3025,
      "anged": 3026,
      "addr": 3027,
      "CF": 3028,
      "').": 3029,
      "auto": 3030,
      "Case": 3031,
      ".',": 3032,
      "namespace": 3033,
      "ialog": 3034,
      "Que": 3035,
      "``": 3036,
      "256": 3037,
      "aded": 3038,
      "anch": 3039,
      "Ġexp": 3040,
      "Ġsign": 3041,
      "ĊĠĠĠĠĠĠĠĠĠĠĠĠĠĠĠĠĠĠĠĠĠ": 3042,
      "Us": 3043,
      "created": 3044,
      "ä½": 3045,
      "Ġbuffer": 3046,
      "ĠGL": 3047,
      "Proto": 3048,
      "Ġvec": 3049,
      "Ġtoken": 3050,
      ")*": 3051,
      "criptor": 3052,
      "iron": 3053,
      "resource": 3054,
      "Style": 3055,
      "IF": 3056,
      "imit": 3057,
      "plic": 3058,
      "Ġprocess": 3059,
      "pth": 3060,
      "PR": 3061,
      "ĠDef": 3062,
      "airs": 3063,
      "inary": 3064,
      "Ġdb": 3065,
      "xa": 3066,
      "PS": 3067,
      "ARRA": 3068,
      "fa": 3069,
      "ĠEn": 3070,
      "Ġ#-}": 3071,
      "uff": 3072,
      "ado": 3073,
      "Ġvector": 3074,
      "Ġsk": 3075,
      "ek": 3076,
      "debug": 3077,
      "Kind": 3078,
      "argin": 3079,
      "Ġtyp": 3080,
      "Ġneed": 3081,
      "other": 3082,
      "present": 3083,
      "unicode": 3084,
      "Ġdoes": 3085,
      "apter": 3086,
      "verse": 3087,
      "structor": 3088,
      "control": 3089,
      "clone": 3090,
      "era": 3091,
      "license": 3092,
      "ĠST": 3093,
      "Fe": 3094,
      "conf": 3095,
      "ĊĉĊ": 3096,
      "lip": 3097,
      "Ġrel": 3098,
      "OK": 3099,
      "Ġ200": 3100,
      "Ġimplement": 3101,
      "AY": 3102,
      "ane": 3103,
      "over": 3104,
      "Ġparent": 3105,
      "untry": 3106,
      "Override": 3107,
      "Ġmore": 3108,
      "patch": 3109,
      "Ġheader": 3110,
      "ultip": 3111,
      "Can": 3112,
      "aj": 3113,
      "Ġ'#": 3114,
      "csv": 3115,
      "etime": 3116,
      "sort": 3117,
      "Ext": 3118,
      "Ñĥ": 3119,
      "Ġover": 3120,
      "Ġet": 3121,
      "abs": 3122,
      "Load": 3123,
      "Ġauth": 3124,
      "}/": 3125,
      "å¸": 3126,
      "into": 3127,
      "Ġap": 3128,
      "Return": 3129,
      "00000": 3130,
      "gn": 3131,
      "bs": 3132,
      "Ġ**": 3133,
      "bound": 3134,
      "Range": 3135,
      "Ġed": 3136,
      "Ġlevel": 3137,
      "æķ": 3138,
      "asic": 3139,
      "section": 3140,
      "iod": 3141,
      "fi": 3142,
      "EE": 3143,
      "ĠLog": 3144,
      "author": 3145,
      "UID": 3146,
      "ĠSee": 3147,
      "dest": 3148,
      "off": 3149,
      "Integer": 3150,
      "DIR": 3151,
      "light": 3152,
      "Byte": 3153,
      "Debug": 3154,
      "sche": 3155,
      "vol": 3156,
      "ixel": 3157,
      "Vec": 3158,
      "Ġbody": 3159,
      "'))": 3160,
      "Ġserver": 3161,
      "Ġreturns": 3162,
      "cell": 3163,
      "inue": 3164,
      "Ġoption": 3165,
      "Ġfont": 3166,
      "rior": 3167,
      "layout": 3168,
      "Ġsw": 3169,
      "Child": 3170,
      "Ġopen": 3171,
      "vm": 3172,
      "where": 3173,
      "Ġframe": 3174,
      "leted": 3175,
      "sn": 3176,
      "ĠErr": 3177,
      "Sup": 3178,
      "coder": 3179,
      "mount": 3180,
      "shal": 3181,
      "Ġsc": 3182,
      "GE": 3183,
      "PECT": 3184,
      "Sign": 3185,
      "});": 3186,
      "è¿": 3187,
      "cfg": 3188,
      "Ġform": 3189,
      "ffff": 3190,
      "struction": 3191,
      "images": 3192,
      "DS": 3193,
      "Msg": 3194,
      "Ġred": 3195,
      "password": 3196,
      "Ġver": 3197,
      "Ġyour": 3198,
      "WORD": 3199,
      "Ġposition": 3200,
      "eff": 3201,
      "Ġinit": 3202,
      "ven": 3203,
      "Ġlimit": 3204,
      "book": 3205,
      "Sc": 3206,
      "ĠVec": 3207,
      "Store": 3208,
      "ĠClass": 3209,
      "ĠANY": 3210,
      "uture": 3211,
      "Ġdocument": 3212,
      "rm": 3213,
      "iag": 3214,
      "FL": 3215,
      "Ġmy": 3216,
      "Ġ^": 3217,
      "Ġav": 3218,
      "session": 3219,
      "grid": 3220,
      "ĠTrue": 3221,
      "mote": 3222,
      "category": 3223,
      "Ġport": 3224,
      "(|": 3225,
      "åŃ": 3226,
      "Ġleft": 3227,
      "COL": 3228,
      "åİ": 3229,
      "IR": 3230,
      "!!": 3231,
      "ECK": 3232,
      "Expr": 3233,
      "Height": 3234,
      "Args": 3235,
      "ĠMap": 3236,
      "enter": 3237,
      "Ġdelete": 3238,
      "amily": 3239,
      "eg": 3240,
      "MAX": 3241,
      "begin": 3242,
      "Ġreq": 3243,
      "ious": 3244,
      "Print": 3245,
      "uk": 3246,
      "Ġ],": 3247,
      "lim": 3248,
      "ĊĠĠĠĠĠĠĠĠĠĠĠĠĠĠĠĠĠĠĠĠĠĠĠĠĠĠĠĠĠĠĠĠĠĠĠĠĠĠĠ": 3249,
      "PER": 3250,
      "iant": 3251,
      "Env": 3252,
      "Ġproto": 3253,
      "olve": 3254,
      "(`": 3255,
      "Access": 3256,
      "''": 3257,
      ".*": 3258,
      "ORM": 3259,
      "ier": 3260,
      "Ġ06": 3261,
      "IME": 3262,
      "OS": 3263,
      "ĠVector": 3264,
      "crate": 3265,
      "127": 3266,
      "ging": 3267,
      "meta": 3268,
      "custom": 3269,
      "?:": 3270,
      "åį": 3271,
      "ĠObject": 3272,
      "Ġempty": 3273,
      "ĉĉĉ": 3274,
      ")[": 3275,
      "Top": 3276,
      "ĠTable": 3277,
      "coding": 3278,
      "hel": 3279,
      "Ġ*)": 3280,
      "udio": 3281,
      "notation": 3282,
      "ç»": 3283,
      "register": 3284,
      "ĠGener": 3285,
      "Ð°Ð": 3286,
      "GB": 3287,
      "Process": 3288,
      "ĊĊĊ": 3289,
      "change": 3290,
      "//!": 3291,
      "ability": 3292,
      "Graph": 3293,
      "ported": 3294,
      "users": 3295,
      ">)": 3296,
      "Settings": 3297,
      "Bytes": 3298,
      "Account": 3299,
      "'],": 3300,
      "]),": 3301,
      "nil": 3302,
      "Ġdim": 3303,
      "Ø§": 3304,
      "Left": 3305,
      "_.": 3306,
      "window": 3307,
      "Ġpage": 3308,
      "imary": 3309,
      "Interface": 3310,
      "la": 3311,
      "atures": 3312,
      "job": 3313,
      "ĠSer": 3314,
      "igger": 3315,
      "Ġsome": 3316,
      "Ġctx": 3317,
      "Ġhead": 3318,
      "adding": 3319,
      "Control": 3320,
      "Ġren": 3321,
      "ua": 3322,
      "display": 3323,
      "Ġmode": 3324,
      "Provider": 3325,
      "Exec": 3326,
      "interface": 3327,
      "Ġ64": 3328,
      "Const": 3329,
      "\"},": 3330,
      "quot": 3331,
      "Bar": 3332,
      "ĠTHE": 3333,
      "ĠUser": 3334,
      "SD": 3335,
      "Dat": 3336,
      "Ġnp": 3337,
      "Ġwrit": 3338,
      "step": 3339,
      ";&": 3340,
      "Change": 3341,
      "Descriptor": 3342,
      "weight": 3343,
      "Post": 3344,
      "CB": 3345,
      "very": 3346,
      "Ġroot": 3347,
      "account": 3348,
      "peed": 3349,
      "stack": 3350,
      "Ġhttps": 3351,
      "ĠĠĠĠĠĠĠĠĠĠĠĠĠĠ": 3352,
      "URE": 3353,
      "Ġstructure": 3354,
      "Ġ[[": 3355,
      "known": 3356,
      "pop": 3357,
      "TRUE": 3358,
      "ynamic": 3359,
      "Ċĉĉĉĉĉĉĉ": 3360,
      "Utils": 3361,
      "Ġ255": 3362,
      "ĠDes": 3363,
      "ready": 3364,
      "upt": 3365,
      "aws": 3366,
      "points": 3367,
      "ao": 3368,
      "::{": 3369,
      "....": 3370,
      "Ġ30": 3371,
      "ling": 3372,
      "Ġresource": 3373,
      "ĠCom": 3374,
      "lied": 3375,
      "ugh": 3376,
      "Ġbit": 3377,
      "Enum": 3378,
      "Template": 3379,
      "Ġiter": 3380,
      "Attribute": 3381,
      "oo": 3382,
      "{-#": 3383,
      "æĺ": 3384,
      "tool": 3385,
      "used": 3386,
      "Wh": 3387,
      "igin": 3388,
      "Ġprintln": 3389,
      "jl": 3390,
      "âĶĢâĶĢ": 3391,
      "items": 3392,
      "cap": 3393,
      "Ġplot": 3394,
      "library": 3395,
      "Work": 3396,
      "OLD": 3397,
      "idden": 3398,
      "Ġprovide": 3399,
      "hing": 3400,
      "Web": 3401,
      "ISTS": 3402,
      "train": 3403,
      "fin": 3404,
      "Ġfollow": 3405,
      "Ġfiles": 3406,
      "wd": 3407,
      "mail": 3408,
      "CD": 3409,
      "ouse": 3410,
      "Container": 3411,
      "Menu": 3412,
      "Ġqual": 3413,
      "Ġtop": 3414,
      "okup": 3415,
      "ince": 3416,
      "valu": 3417,
      "side": 3418,
      "ertex": 3419,
      "channel": 3420,
      "draw": 3421,
      "lish": 3422,
      "400": 3423,
      "FILE": 3424,
      "non": 3425,
      "matrix": 3426,
      "Ġsizeof": 3427,
      "ĠBase": 3428,
      "IND": 3429,
      "ATH": 3430,
      "SA": 3431,
      "ways": 3432,
      "AND": 3433,
      "bed": 3434,
      "Session": 3435,
      "game": 3436,
      "scale": 3437,
      "LI": 3438,
      "Ġenum": 3439,
      "only": 3440,
      "Ġge": 3441,
      "Invalid": 3442,
      "shared": 3443,
      "END": 3444,
      "FD": 3445,
      "Ġ25": 3446,
      "Parameter": 3447,
      "Ġtotal": 3448,
      "Ġrender": 3449,
      "area": 3450,
      "Ġsoftware": 3451,
      "Ġlay": 3452,
      "wise": 3453,
      "\":\"": 3454,
      "asses": 3455,
      "è®": 3456,
      "Ġawait": 3457,
      "ĊĉĠĠĠ": 3458,
      "roy": 3459,
      "Connection": 3460,
      "Port": 3461,
      "timestamp": 3462,
      "ãĢĤ": 3463,
      "bc": 3464,
      "...)": 3465,
      "ernel": 3466,
      "Ġgr": 3467,
      "300": 3468,
      "ius": 3469,
      "istory": 3470,
      "\"></": 3471,
      "Iter": 3472,
      "ences": 3473,
      "ived": 3474,
      "âķ": 3475,
      "ĠBu": 3476,
      "Render": 3477,
      "ĠWIT": 3478,
      "Ġ24": 3479,
      "iteral": 3480,
      "ironment": 3481,
      "Nd": 3482,
      "Reader": 3483,
      "Open": 3484,
      "1000": 3485,
      "Ġchild": 3486,
      "ĠUnit": 3487,
      "Ġ##": 3488,
      "Delete": 3489,
      "ĠEXISTS": 3490,
      "models": 3491,
      ")).": 3492,
      "RT": 3493,
      "connect": 3494,
      "Equals": 3495,
      "center": 3496,
      "Bool": 3497,
      "ĠAl": 3498,
      "ĠTRUE": 3499,
      "dict": 3500,
      "ets": 3501,
      "access": 3502,
      "oci": 3503,
      "ason": 3504,
      "Core": 3505,
      "Vis": 3506,
      "Ġdescription": 3507,
      "VAL": 3508,
      "Ġnames": 3509,
      "SION": 3510,
      "Global": 3511,
      "ium": 3512,
      "rule": 3513,
      "drop": 3514,
      "We": 3515,
      "Ġput": 3516,
      "keys": 3517,
      "Ġbefore": 3518,
      "shape": 3519,
      "IES": 3520,
      "creen": 3521,
      "ĠMO": 3522,
      "Ġstore": 3523,
      "Channel": 3524,
      "Mat": 3525,
      "FB": 3526,
      "ĠNew": 3527,
      "iginal": 3528,
      "CODE": 3529,
      "Ġservice": 3530,
      "alloc": 3531,
      "Ġexcept": 3532,
      "SO": 3533,
      "enum": 3534,
      "pred": 3535,
      "Ġallow": 3536,
      "ween": 3537,
      "Ġcharacter": 3538,
      "../../": 3539,
      "ful": 3540,
      "ted": 3541,
      "ric": 3542,
      "2014": 3543,
      "tab": 3544,
      "Bind": 3545,
      "ount": 3546,
      "Callback": 3547,
      "uri": 3548,
      "Ġmat": 3549,
      "ros": 3550,
      "Ġcatch": 3551,
      "Ġeither": 3552,
      "SIZE": 3553,
      "ĊĠĠĠĠĠĠĠĠĠĠĠĠĠĠĠĠĠĠĠĠ": 3554,
      "ĠUp": 3555,
      "Ġentry": 3556,
      "Ġbegin": 3557,
      "___": 3558,
      "arge": 3559,
      "Ġtask": 3560,
      "ĠValue": 3561,
      "cv": 3562,
      "ĠNO": 3563,
      "UD": 3564,
      "Ġ/>": 3565,
      "year": 3566,
      "RL": 3567,
      "Inst": 3568,
      "ĠReturns": 3569,
      "Ġcond": 3570,
      "Application": 3571,
      "anges": 3572,
      "prefix": 3573,
      "*)": 3574,
      "CI": 3575,
      "Ġpermiss": 3576,
      "ĠFalse": 3577,
      "Bl": 3578,
      "è¡": 3579,
      "Stack": 3580,
      "Ġem": 3581,
      "Cell": 3582,
      "Ġafter": 3583,
      ".</": 3584,
      "ARRANT": 3585,
      "Exp": 3586,
      "Ġproject": 3587,
      "ĠFor": 3588,
      "CM": 3589,
      "ĠYou": 3590,
      "Ġla": 3591,
      "åĽ": 3592,
      "Ġnamespace": 3593,
      "clear": 3594,
      "desc": 3595,
      "del": 3596,
      "Ste": 3597,
      "sample": 3598,
      "ced": 3599,
      "undle": 3600,
      "LINE": 3601,
      "Ġappend": 3602,
      "ination": 3603,
      "ailure": 3604,
      "extern": 3605,
      "ACTER": 3606,
      "ram": 3607,
      "Ġ'\\": 3608,
      "Ġaddress": 3609,
      "InstanceOf": 3610,
      "dc": 3611,
      "wer": 3612,
      "ĠWARRANT": 3613,
      "global": 3614,
      "Configuration": 3615,
      "001": 3616,
      "fields": 3617,
      "]))": 3618,
      "Ġax": 3619,
      "ENSE": 3620,
      "Ġasync": 3621,
      "Ġsystem": 3622,
      "Struct": 3623,
      "UNT": 3624,
      "False": 3625,
      "TEST": 3626,
      "BB": 3627,
      "arm": 3628,
      "GO": 3629,
      "Current": 3630,
      "prop": 3631,
      "Br": 3632,
      "ambda": 3633,
      "gment": 3634,
      "uce": 3635,
      "REG": 3636,
      "Ġwindow": 3637,
      "LIC": 3638,
      "Ġ08": 3639,
      "Ġ09": 3640,
      "ĠENG": 3641,
      "Description": 3642,
      "ĠEXPECT": 3643,
      "erge": 3644,
      "amera": 3645,
      "Cal": 3646,
      "ances": 3647,
      "âĤ": 3648,
      "Ġder": 3649,
      "Ġplayer": 3650,
      "ARCHAR": 3651,
      "ANGU": 3652,
      "mock": 3653,
      "Register": 3654,
      "ĠENGINE": 3655,
      "Parent": 3656,
      "Ġsecond": 3657,
      "Active": 3658,
      "ROP": 3659,
      "STRA": 3660,
      "This": 3661,
      "Game": 3662,
      "render": 3663,
      "unsigned": 3664,
      "Ġ{\"": 3665,
      "character": 3666,
      "Init": 3667,
      "term": 3668,
      "Sec": 3669,
      "Ġspecific": 3670,
      "Ġok": 3671,
      "Icon": 3672,
      "Serial": 3673,
      "Ñĭ": 3674,
      "Ġsame": 3675,
      "Ġbytes": 3676,
      "ilename": 3677,
      "Values": 3678,
      "ANGUAGE": 3679,
      "ĠBoolean": 3680,
      "results": 3681,
      "Click": 3682,
      "Show": 3683,
      "ĠVersion": 3684,
      "CR": 3685,
      "Ġvis": 3686,
      "\"],": 3687,
      "random": 3688,
      "Location": 3689,
      "ACK": 3690,
      "fit": 3691,
      "mean": 3692,
      "Ġ$(": 3693,
      "OF": 3694,
      "derive": 3695,
      "lean": 3696,
      "math": 3697,
      "CS": 3698,
      "NdEx": 3699,
      "Ġ07": 3700,
      "QU": 3701,
      "record": 3702,
      "ka": 3703,
      "Job": 3704,
      "\"));": 3705,
      "ators": 3706,
      "align": 3707,
      "foo": 3708,
      "BUG": 3709,
      "Ġrece": 3710,
      "Ñı": 3711,
      "aved": 3712,
      "thread": 3713,
      ">&": 3714,
      "Ġtimestamp": 3715,
      "itude": 3716,
      "los": 3717,
      "ITION": 3718,
      "success": 3719,
      ":(": 3720,
      "Ġinformation": 3721,
      "DR": 3722,
      "gu": 3723,
      "Func": 3724,
      "Ġhere": 3725,
      "Symbol": 3726,
      "pu": 3727,
      "ĠOr": 3728,
      "Ġshift": 3729,
      "Ġdf": 3730,
      "Ġstop": 3731,
      "testing": 3732,
      "WS": 3733,
      "PH": 3734,
      "Del": 3735,
      "\")]": 3736,
      "Custom": 3737,
      "Down": 3738,
      "Ġdisplay": 3739,
      "fc": 3740,
      "Ġmatrix": 3741,
      "'.": 3742,
      "toString": 3743,
      "Ġsm": 3744,
      "Ġparameters": 3745,
      "Obj": 3746,
      "Ġes": 3747,
      "çĶ¨": 3748,
      "ĠConfig": 3749,
      "yy": 3750,
      "si": 3751,
      "Ġhash": 3752,
      "andard": 3753,
      "Ġspecified": 3754,
      "licit": 3755,
      "FER": 3756,
      "als": 3757,
      "shot": 3758,
      "urface": 3759,
      "Ġresults": 3760,
      "Ã¡": 3761,
      "Ġcache": 3762,
      "settings": 3763,
      "110": 3764,
      "ios": 3765,
      "allow": 3766,
      "initial": 3767,
      "Variable": 3768,
      "Storage": 3769,
      ")/": 3770,
      "åľ": 3771,
      "Ġ\"${": 3772,
      "(!": 3773,
      "Ġconvert": 3774,
      "ONE": 3775,
      "dt": 3776,
      "igr": 3777,
      "Ġsort": 3778,
      "PORT": 3779,
      "Ġwithout": 3780,
      "ctor": 3781,
      "čĊĠĠĠĠ": 3782,
      "Ġdevice": 3783,
      "////////////////////////////////": 3784,
      "container": 3785,
      "Right": 3786,
      "mk": 3787,
      "Ġbl": 3788,
      "ĠAPI": 3789,
      "ross": 3790,
      "je": 3791,
      "Flags": 3792,
      "ĠDate": 3793,
      "STRAINT": 3794,
      "Ġcell": 3795,
      "free": 3796,
      "ĠReg": 3797,
      "AMP": 3798,
      "Ġest": 3799,
      "Ġvol": 3800,
      "Next": 3801,
      "replace": 3802,
      "inate": 3803,
      "Ag": 3804,
      "diff": 3805,
      "LOG": 3806,
      "stat": 3807,
      "Ġsend": 3808,
      "bers": 3809,
      "Ġtypes": 3810,
      "Ġ--------------------------------": 3811,
      "Ġcomponent": 3812,
      "etween": 3813,
      "NI": 3814,
      "ĠFALSE": 3815,
      "AST": 3816,
      "mask": 3817,
      "Ġusize": 3818,
      "ĠNothing": 3819,
      "FFF": 3820,
      "Ġremove": 3821,
      "Ġdest": 3822,
      "ĠVal": 3823,
      "Errorf": 3824,
      "ords": 3825,
      "Ġgl": 3826,
      "Ġold": 3827,
      "bits": 3828,
      "ĠTH": 3829,
      "120": 3830,
      "Eq": 3831,
      "Ġlanguage": 3832,
      "heet": 3833,
      "asInstanceOf": 3834,
      "Double": 3835,
      "git": 3836,
      "ĠĊĠ": 3837,
      "ring": 3838,
      "SK": 3839,
      "DATA": 3840,
      "Ġthan": 3841,
      "Ġparameter": 3842,
      "Intern": 3843,
      "inc": 3844,
      "cket": 3845,
      "ĠCHARSET": 3846,
      "Project": 3847,
      "lua": 3848,
      "edia": 3849,
      "ario": 3850,
      "Ġthere": 3851,
      "css": 3852,
      "ÑĮ": 3853,
      "region": 3854,
      "STAT": 3855,
      "Schema": 3856,
      "vices": 3857,
      "Ġscale": 3858,
      "Ġapply": 3859,
      "Red": 3860,
      "Ġstream": 3861,
      "Names": 3862,
      "OUT": 3863,
      "aly": 3864,
      "168": 3865,
      "ous": 3866,
      "romise": 3867,
      "les": 3868,
      "Ġqualified": 3869,
      "ĠTime": 3870,
      "normal": 3871,
      "Ġ50": 3872,
      "atal": 3873,
      "velo": 3874,
      "thon": 3875,
      "sim": 3876,
      "Ġchange": 3877,
      "Me": 3878,
      "Meta": 3879,
      "Ġrecord": 3880,
      "aining": 3881,
      "æķ°": 3882,
      "vious": 3883,
      "omite": 3884,
      "!--": 3885,
      "ĠCheck": 3886,
      "ategor": 3887,
      "ged": 3888,
      "slot": 3889,
      "Ġ<>": 3890,
      "fg": 3891,
      "ĠLANGUAGE": 3892,
      "ĠTo": 3893,
      "omitempty": 3894,
      "Ġjust": 3895,
      "Lib": 3896,
      "ĠJust": 3897,
      "ĠWe": 3898,
      "ĠTODO": 3899,
      "none": 3900,
      "Ġits": 3901,
      "Ġlink": 3902,
      "istry": 3903,
      "arning": 3904,
      "åº": 3905,
      "Ġcallback": 3906,
      "Ġmet": 3907,
      "utor": 3908,
      "eps": 3909,
      "`),": 3910,
      "Ġcreated": 3911,
      "Ġtemplate": 3912,
      "ensions": 3913,
      "Ġ];": 3914,
      "Ġfields": 3915,
      "Ind": 3916,
      "stop": 3917,
      "alpha": 3918,
      "xFF": 3919,
      "feature": 3920,
      ")->": 3921,
      "Title": 3922,
      "rb": 3923,
      "Ġsuccess": 3924,
      "just": 3925,
      "final": 3926,
      "657": 3927,
      "fill": 3928,
      "noDB": 3929,
      "ipel": 3930,
      "656": 3931,
      "Ġsol": 3932,
      "Ġexit": 3933,
      "ignore": 3934,
      "Ġdel": 3935,
      "PP": 3936,
      "xE": 3937,
      "lines": 3938,
      "------------------------------------------------------------------------": 3939,
      "np": 3940,
      "AF": 3941,
      "åİ¿": 3942,
      "Ġexist": 3943,
      "Copy": 3944,
      "nav": 3945,
      "Rel": 3946,
      "Wrap": 3947,
      "40101": 3948,
      "ĠÏ": 3949,
      "imation": 3950,
      "asure": 3951,
      "site": 3952,
      "TIM": 3953,
      "dist": 3954,
      "ipp": 3955,
      "ished": 3956,
      "UPDATE": 3957,
      "then": 3958,
      "lap": 3959,
      "Ġprotected": 3960,
      "Ġbig": 3961,
      "PAR": 3962,
      "ublic": 3963,
      "cpp": 3964,
      "Ġchannel": 3965,
      "OG": 3966,
      "Ġdefined": 3967,
      "ii": 3968,
      "azy": 3969,
      "Ġpred": 3970,
      "member": 3971,
      "cm": 3972,
      "Product": 3973,
      "aise": 3974,
      "Mock": 3975,
      "SY": 3976,
      "Long": 3977,
      ".(": 3978,
      "ĠPr": 3979,
      "Found": 3980,
      "GER": 3981,
      "Ġ\"#": 3982,
      "tot": 3983,
      "ĠDefault": 3984,
      "Ġnow": 3985,
      "updated": 3986,
      "Search": 3987,
      "ĠCONSTRAINT": 3988,
      "variable": 3989,
      "Bit": 3990,
      "One": 3991,
      "OB": 3992,
      "Internal": 3993,
      "Ġerrors": 3994,
      "Build": 3995,
      "price": 3996,
      "Sum": 3997,
      "à¹": 3998,
      "Ġinsert": 3999,
      "![": 4000,
      "WN": 4001,
      "Script": 4002,
      "ĠDouble": 4003,
      "Ġregister": 4004,
      "License": 4005,
      "mac": 4006,
      "Collection": 4007,
      "ENC": 4008,
      "1111": 4009,
      ">::": 4010,
      "Opt": 4011,
      "{\\\"": 4012,
      "Impl": 4013,
      "ulation": 4014,
      "ĠIm": 4015,
      "\\'": 4016,
      "::<": 4017,
      "Mut": 4018,
      "Dec": 4019,
      "]:": 4020,
      "tip": 4021,
      "PATH": 4022,
      "Ġbuf": 4023,
      "Ġxs": 4024,
      "Ġ''": 4025,
      "Ġaccount": 4026,
      "mov": 4027,
      "Dr": 4028,
      "Ð²": 4029,
      "ragment": 4030,
      "Ġmon": 4031,
      "tbl": 4032,
      "iving": 4033,
      "ĠVARCHAR": 4034,
      "ĠAll": 4035,
      "dec": 4036,
      "domain": 4037,
      "Ġelseif": 4038,
      "Display": 4039,
      "Ġfollowing": 4040,
      "ware": 4041,
      "schema": 4042,
      "Real": 4043,
      "Rect": 4044,
      "Ġ}}": 4045,
      ">;": 4046,
      "redential": 4047,
      "ĠNode": 4048,
      "wn": 4049,
      "Last": 4050,
      "ze": 4051,
      "Over": 4052,
      "=(": 4053,
      "limit": 4054,
      "áŀ": 4055,
      "Ġidx": 4056,
      "issing": 4057,
      "Ġ'./": 4058,
      "Tool": 4059,
      "ges": 4060,
      "logger": 4061,
      "Policy": 4062,
      "Items": 4063,
      "Ġ03": 4064,
      "NOT": 4065,
      "?.": 4066,
      "Fields": 4067,
      "ĠPRO": 4068,
      "strong": 4069,
      "login": 4070,
      "actions": 4071,
      "Pool": 4072,
      "()),": 4073,
      "eros": 4074,
      "example": 4075,
      "ĠOn": 4076,
      ")\"": 4077,
      "Writer": 4078,
      "Activity": 4079,
      "Ġpush": 4080,
      "mission": 4081,
      "oly": 4082,
      "Ġaccess": 4083,
      "itional": 4084,
      "ench": 4085,
      "Non": 4086,
      "ports": 4087,
      "ALUE": 4088,
      "Ġbyte": 4089,
      "come": 4090,
      "home": 4091,
      "Properties": 4092,
      "ung": 4093,
      "thing": 4094,
      "alth": 4095,
      "ident": 4096,
      "Ġsession": 4097,
      "TA": 4098,
      "Logger": 4099,
      "If": 4100,
      "username": 4101,
      "Gen": 4102,
      "BLE": 4103,
      "alk": 4104,
      "(__": 4105,
      "Ġter": 4106,
      "Head": 4107,
      "123": 4108,
      "aft": 4109,
      "ĠHash": 4110,
      "Repository": 4111,
      "zip": 4112,
      "ĊĠĠĠĠĠĠĠĠĠĠĠĠĠĠĠĠĠĠĠĠĠĠĠĠĠ": 4113,
      "å¼": 4114,
      "\"><": 4115,
      "ipeline": 4116,
      "Thread": 4117,
      "Ġunit": 4118,
      "Tx": 4119,
      "LS": 4120,
      "Host": 4121,
      "Ġdet": 4122,
      "ĠWARRANTIES": 4123,
      "Ġbr": 4124,
      "serialize": 4125,
      "gor": 4126,
      "éĢ": 4127,
      "ĠInitial": 4128,
      "ICE": 4129,
      "Ġip": 4130,
      "Ġ~=": 4131,
      "ĊĠĠĠĠĠĠĠĠĠĠĠĠĠĠĠĠĠĠ": 4132,
      "'),('": 4133,
      "192": 4134,
      "172": 4135,
      "MODE": 4136,
      "Sk": 4137,
      "au": 4138,
      "Ġ'-": 4139,
      "ĠMon": 4140,
      "Ġparam": 4141,
      "omic": 4142,
      "flags": 4143,
      "Ġunsafe": 4144,
      "Helper": 4145,
      "achine": 4146,
      "Ġobt": 4147,
      "Ġglobal": 4148,
      "rary": 4149,
      "IE": 4150,
      "ĠclassName": 4151,
      "mi": 4152,
      "Queue": 4153,
      "sync": 4154,
      "Grid": 4155,
      "profile": 4156,
      "ssages": 4157,
      "iffer": 4158,
      "Ġinteger": 4159,
      "Role": 4160,
      "fb": 4161,
      "Ġgraph": 4162,
      "InnoDB": 4163,
      "icient": 4164,
      "Ġprob": 4165,
      "Eng": 4166,
      "(\"%": 4167,
      "ayment": 4168,
      "Ġpaste": 4169,
      "Ġhost": 4170,
      "Ġsim": 4171,
      "å°": 4172,
      "Network": 4173,
      ".\",": 4174,
      "SQL": 4175,
      "}(": 4176,
      "Ġtx": 4177,
      "377": 4178,
      "ĠEvent": 4179,
      "Ġ65": 4180,
      "Ġsearch": 4181,
      "ignment": 4182,
      "Ġpy": 4183,
      "ĠIndex": 4184,
      "RY": 4185,
      "irc": 4186,
      "unique": 4187,
      ">\"": 4188,
      "Admin": 4189,
      ")?;": 4190,
      "Close": 4191,
      "tric": 4192,
      "Ġtwo": 4193,
      "Len": 4194,
      "ĠKey": 4195,
      "encode": 4196,
      "Ġthread": 4197,
      "ĠSE": 4198,
      "Ġpass": 4199,
      "Metadata": 4200,
      "MIN": 4201,
      "(\"/": 4202,
      "pair": 4203,
      "android": 4204,
      "ĊĠĠĠĠĠĠĠĠĠĠĠĠĠĠĠĠĠĠĠĠĠĠ": 4205,
      "ĊĊĠĠ": 4206,
      "PA": 4207,
      "LOCK": 4208,
      "LETE": 4209,
      ":{": 4210,
      "Draw": 4211,
      "Ġgame": 4212,
      "Ġnet": 4213,
      "Ġdec": 4214,
      "nn": 4215,
      "dk": 4216,
      "builder": 4217,
      "paste": 4218,
      "FALSE": 4219,
      ",,": 4220,
      "uter": 4221,
      "ĠApache": 4222,
      "600": 4223,
      "attribute": 4224,
      "Gr": 4225,
      "Ġ<$": 4226,
      "acity": 4227,
      "Ġdir": 4228,
      "flag": 4229,
      "apshot": 4230,
      "Ġman": 4231,
      "Ġraw": 4232,
      "Ġnormal": 4233,
      "Root": 4234,
      "ynt": 4235,
      "props": 4236,
      "ness": 4237,
      "AAAA": 4238,
      "ĠAD": 4239,
      "].[": 4240,
      "_;": 4241,
      "engine": 4242,
      "ites": 4243,
      "åĮº": 4244,
      "å·": 4245,
      "ĠFO": 4246,
      "Ġ\"-": 4247,
      "Ġbeen": 4248,
      "Ã³": 4249,
      "sec": 4250,
      "****************************************************************": 4251,
      "Ġproperty": 4252,
      "esh": 4253,
      "¿½": 4254,
      "Ġstep": 4255,
      "ĠTrans": 4256,
      "ultiple": 4257,
      "tk": 4258,
      "Ġconsole": 4259,
      "ĠBY": 4260,
      "Self": 4261,
      ".,": 4262,
      "ĠMet": 4263,
      "MT": 4264,
      "errors": 4265,
      "Ġrandom": 4266,
      "awn": 4267,
      "oll": 4268,
      "collect": 4269,
      "Ġ<:": 4270,
      "Ġgen": 4271,
      "oft": 4272,
      "USER": 4273,
      "HOUT": 4274,
      "DROP": 4275,
      "Ġfull": 4276,
      "numeric": 4277,
      "ï¿½": 4278,
      "DEX": 4279,
      "Mark": 4280,
      "click": 4281,
      "Texture": 4282,
      "Ð¼": 4283,
      "REIGN": 4284,
      "Route": 4285,
      "ĠDis": 4286,
      "Reference": 4287,
      "kens": 4288,
      "Operation": 4289,
      "ANT": 4290,
      "Ġmock": 4291,
      "ior": 4292,
      "Ġlocation": 4293,
      "Ġte": 4294,
      "@@": 4295,
      "Ġsys": 4296,
      "Document": 4297,
      "uuid": 4298,
      "pkg": 4299,
      "ĠINT": 4300,
      "ube": 4301,
      "Engine": 4302,
      "]*": 4303,
      "iddle": 4304,
      "Ġloop": 4305,
      "ĠPart": 4306,
      "ĠControl": 4307,
      "Ġcre": 4308,
      "BF": 4309,
      "served": 4310,
      "Ġproduct": 4311,
      ")',": 4312,
      "æī": 4313,
      "widget": 4314,
      "Do": 4315,
      "Go": 4316,
      "ending": 4317,
      "DEBUG": 4318,
      "VERSION": 4319,
      "ÙĦ": 4320,
      "å¸Ĥ": 4321,
      "PASS": 4322,
      "æĿ": 4323,
      "Font": 4324,
      "Bound": 4325,
      "++;": 4326,
      "Ġmark": 4327,
      "Dim": 4328,
      "Lock": 4329,
      "SU": 4330,
      "framework": 4331,
      ")\",": 4332,
      "Ġbuilder": 4333,
      "Ġ05": 4334,
      "Track": 4335,
      "Ġsample": 4336,
      "Widget": 4337,
      "Ġlike": 4338,
      "Ġfailed": 4339,
      "ĠNot": 4340,
      "Ġattribute": 4341,
      "Ġbind": 4342,
      "reshold": 4343,
      "await": 4344,
      "}},": 4345,
      "Ġnothing": 4346,
      "Mar": 4347,
      "bre": 4348,
      "Seq": 4349,
      "Ġ1000": 4350,
      "ries": 4351,
      "kt": 4352,
      "Ġmath": 4353,
      "AX": 4354,
      "RIG": 4355,
      "zero": 4356,
      "ni": 4357,
      "()))": 4358,
      "dig": 4359,
      "PUT": 4360,
      "rec": 4361,
      "car": 4362,
      "ĠJSON": 4363,
      "alle": 4364,
      "ilt": 4365,
      "Ã£": 4366,
      "Ret": 4367,
      "Ġnullptr": 4368,
      "iate": 4369,
      "ITE": 4370,
      "gorith": 4371,
      "'])": 4372,
      "ä¹": 4373,
      "Ġscript": 4374,
      "$(": 4375,
      "upload": 4376,
      "----------------------------": 4377,
      "ĠOut": 4378,
      "Man": 4379,
      "AtA": 4380,
      "åĨ": 4381,
      "Ġcustom": 4382,
      "POST": 4383,
      "ä¸Ģ": 4384,
      "Ġwant": 4385,
      "Parse": 4386,
      "Ġconnection": 4387,
      "vid": 4388,
      "Card": 4389,
      "Ġ28": 4390,
      "<:": 4391,
      "Ġexpress": 4392,
      "Ġsave": 4393,
      "Ġmean": 4394,
      "hpp": 4395,
      "batch": 4396,
      "collection": 4397,
      ".\\": 4398,
      "Ġ01": 4399,
      "El": 4400,
      "Ge": 4401,
      "Ġborder": 4402,
      "otlin": 4403,
      "MI": 4404,
      "bd": 4405,
      "ents": 4406,
      "Ġdown": 4407,
      "Edit": 4408,
      "Ġaut": 4409,
      "Ġbound": 4410,
      "storage": 4411,
      "My": 4412,
      "ĠRead": 4413,
      "document": 4414,
      "]=\"": 4415,
      "Ġcmd": 4416,
      "BC": 4417,
      "Ġfill": 4418,
      "wait": 4419,
      "fix": 4420,
      "Ġapi": 4421,
      "čĊĠĠĠĠĠĠĠĠĠĠĠĠĠĠĠĠĠĠĠ": 4422,
      "Expression": 4423,
      "prob": 4424,
      "tc": 4425,
      "Parameters": 4426,
      "Success": 4427,
      "Sw": 4428,
      "FORM": 4429,
      "Ġtree": 4430,
      "verage": 4431,
      "ersist": 4432,
      "ideo": 4433,
      "Ġ<$>": 4434,
      "CHECK": 4435,
      "Ġdr": 4436,
      "ĠArg": 4437,
      "SR": 4438,
      "leep": 4439,
      "éĩ": 4440,
      "JE": 4441,
      "PRE": 4442,
      "react": 4443,
      "pa": 4444,
      "vas": 4445,
      "ĠIt": 4446,
      "ĠĊĠĠĠĠĠĠĠ": 4447,
      "Py": 4448,
      "202": 4449,
      "zone": 4450,
      "connection": 4451,
      "800": 4452,
      "First": 4453,
      "ESTAMP": 4454,
      "ibility": 4455,
      "ploy": 4456,
      "Ġattr": 4457,
      "ĊĠĠĠĠĠĠĠĠĊĠĠĠĠĠĠĠ": 4458,
      "104": 4459,
      "alt": 4460,
      "NUM": 4461,
      "Ġfree": 4462,
      "Ġoff": 4463,
      "liance": 4464,
      "Ġraise": 4465,
      "latform": 4466,
      "TIME": 4467,
      "`;": 4468,
      "æł": 4469,
      "ead": 4470,
      "BL": 4471,
      "ĠAny": 4472,
      ",\\\"": 4473,
      "eval": 4474,
      "###": 4475,
      "Database": 4476,
      "ired": 4477,
      "handler": 4478,
      "ĠWITHOUT": 4479,
      "prod": 4480,
      "Details": 4481,
      "wargs": 4482,
      "________": 4483,
      "umb": 4484,
      "()).": 4485,
      "city": 4486,
      "ĠSO": 4487,
      "Failed": 4488,
      "ĠWh": 4489,
      "callback": 4490,
      "Ġ27": 4491,
      "ÑģÑĤ": 4492,
      "Ġcontinue": 4493,
      "metadata": 4494,
      "Decl": 4495,
      "\\\">": 4496,
      "Ġinstall": 4497,
      "ĠBy": 4498,
      "nodes": 4499,
      "conn": 4500,
      "parser": 4501,
      "reed": 4502,
      "reference": 4503,
      "ĉĉĉĉĉĉĉĉ": 4504,
      "licenses": 4505,
      "Ġfilename": 4506,
      "SL": 4507,
      "Ġ26": 4508,
      "2022": 4509,
      "Ġgrid": 4510,
      "Ġfin": 4511,
      "Has": 4512,
      "ä¿": 4513,
      "println": 4514,
      "ĠInter": 4515,
      "Ġscala": 4516,
      "ws": 4517,
      "flat": 4518,
      "Ġdone": 4519,
      "VM": 4520,
      "atio": 4521,
      "Ġ40": 4522,
      "0000000000000000": 4523,
      "Ġ(\\": 4524,
      "ĊĠĠĠĠĠĠĠĠĠĠĠĠĠĠĠĠĠĠĠĠĠĠĠĠĠĠĠĠĠĠĠĠĠĠĠĠĠĠĠĠĠĠĠ": 4525,
      "switch": 4526,
      "acc": 4527,
      "Definition": 4528,
      "105": 4529,
      "istic": 4530,
      "Ġjob": 4531,
      "à§": 4532,
      "VALUE": 4533,
      "fun": 4534,
      "Enabled": 4535,
      "]+": 4536,
      "Ġrepresent": 4537,
      "RM": 4538,
      "Ġ\"%": 4539,
      "ĠPy": 4540,
      "Av": 4541,
      "ives": 4542,
      "LICENSE": 4543,
      "125": 4544,
      "iny": 4545,
      "102": 4546,
      "Ġdirectory": 4547,
      "__(": 4548,
      "Ġserial": 4549,
      "Ne": 4550,
      "qrt": 4551,
      "sig": 4552,
      "Ġundefined": 4553,
      "Ġarguments": 4554,
      "Ġtab": 4555,
      "ulum": 4556,
      "Ġpermissions": 4557,
      "ĠAuth": 4558,
      "hi": 4559,
      "Ġ&'": 4560,
      "acy": 4561,
      "ays": 4562,
      "summary": 4563,
      "chain": 4564,
      "Cluster": 4565,
      "AE": 4566,
      "RESULT": 4567,
      "TEXT": 4568,
      "cloud": 4569,
      "Ġrule": 4570,
      "Ġdatabase": 4571,
      "$`": 4572,
      "ĠAb": 4573,
      "ĠÄ": 4574,
      "('#": 4575,
      "exit": 4576,
      "Ġoperator": 4577,
      "riority": 4578,
      "Ġstack": 4579,
      "land": 4580,
      "Ġobtain": 4581,
      "uit": 4582,
      "ERR": 4583,
      "irm": 4584,
      "cret": 4585,
      "Props": 4586,
      "3333": 4587,
      "Step": 4588,
      "Ġwriting": 4589,
      "Ġgover": 4590,
      "DEF": 4591,
      "FERENC": 4592,
      "(){": 4593,
      "Desc": 4594,
      "network": 4595,
      "('/": 4596,
      "help": 4597,
      "contains": 4598,
      "(@": 4599,
      "ä¼": 4600,
      "313": 4601,
      "ĠSoftware": 4602,
      "btn": 4603,
      "Ġcons": 4604,
      "ops": 4605,
      "Expect": 4606,
      "ESC": 4607,
      "Ġopts": 4608,
      "Ġalready": 4609,
      "Ġ\".": 4610,
      ".{": 4611,
      "Cond": 4612,
      "cmp": 4613,
      "éĹ": 4614,
      "Ġlogger": 4615,
      "iler": 4616,
      "aff": 4617,
      "Ġbetween": 4618,
      "ĊĉĠ": 4619,
      "Ġhelp": 4620,
      "ĠAL": 4621,
      "ĠState": 4622,
      ";;": 4623,
      "ometry": 4624,
      "ĠBool": 4625,
      "pyx": 4626,
      "*(": 4627,
      "Ġsee": 4628,
      "617": 4629,
      "čĊĉĉĉĉ": 4630,
      "Ġconf": 4631,
      "Ġlicense": 4632,
      "ja": 4633,
      "required": 4634,
      "requ": 4635,
      "103": 4636,
      "gy": 4637,
      "Play": 4638,
      "Ġ___": 4639,
      "ĠFloat": 4640,
      "Rate": 4641,
      "icate": 4642,
      "ĊĊĊĊ": 4643,
      "Ġvirtual": 4644,
      "Ġgenerate": 4645,
      "axis": 4646,
      "MB": 4647,
      "ĠView": 4648,
      "ĠSub": 4649,
      "ula": 4650,
      "Dict": 4651,
      "`);": 4652,
      "eh": 4653,
      "ga": 4654,
      "Dialog": 4655,
      "pool": 4656,
      "ycle": 4657,
      "Ġprovided": 4658,
      "sible": 4659,
      "ada": 4660,
      "Ver": 4661,
      "Ġskip": 4662,
      "ĠForm": 4663,
      "integer": 4664,
      "components": 4665,
      "pdf": 4666,
      "Windows": 4667,
      "Ġalso": 4668,
      "curs": 4669,
      "Ġ04": 4670,
      "#!": 4671,
      "Ġ60": 4672,
      ".__": 4673,
      "each": 4674,
      "Ġim": 4675,
      "real": 4676,
      "reset": 4677,
      "[:,": 4678,
      "USE": 4679,
      "country": 4680,
      "ILITY": 4681,
      "ĠHT": 4682,
      "2013": 4683,
      "AV": 4684,
      "FERENCES": 4685,
      "jo": 4686,
      "vs": 4687,
      "applic": 4688,
      "Ġfunctions": 4689,
      "words": 4690,
      "Insert": 4691,
      "Ġfore": 4692,
      "æĺ¯": 4693,
      "ĠPoint": 4694,
      "ĠÐ¿": 4695,
      "ons": 4696,
      "éĻ": 4697,
      "Main": 4698,
      "pass": 4699,
      "ather": 4700,
      "ById": 4701,
      "ĠKIND": 4702,
      "Memory": 4703,
      "Vol": 4704,
      "QUE": 4705,
      "family": 4706,
      "Ġlib": 4707,
      "ÃŃ": 4708,
      "Ġpe": 4709,
      "čĊĠĠ": 4710,
      "nl": 4711,
      "prec": 4712,
      "Ġavailable": 4713,
      "JS": 4714,
      "Ġprogram": 4715,
      "Ġeq": 4716,
      "Prefix": 4717,
      "dl": 4718,
      "ÐµÐ½": 4719,
      "aml": 4720,
      ">','": 4721,
      "ifdef": 4722,
      "scope": 4723,
      "*>": 4724,
      "gre": 4725,
      "comment": 4726,
      "Ġ?>": 4727,
      "olver": 4728,
      "ĠCl": 4729,
      "Ġsingle": 4730,
      "Word": 4731,
      "rowser": 4732,
      "ĊĊĊĠĠĠ": 4733,
      "ighb": 4734,
      "rough": 4735,
      "COMP": 4736,
      "lower": 4737,
      "}',": 4738,
      "Ġpackage": 4739,
      "termin": 4740,
      "Ġimplied": 4741,
      "ĠFOREIGN": 4742,
      "Ġbutton": 4743,
      "}\",": 4744,
      "iment": 4745,
      "holder": 4746,
      ")));": 4747,
      "Tensor": 4748,
      "Ġ{{": 4749,
      "Transaction": 4750,
      "report": 4751,
      "GIN": 4752,
      "ç½": 4753,
      "Ġcontrol": 4754,
      "Ġthrows": 4755,
      "VENT": 4756,
      "ĠVar": 4757,
      "Ġ([": 4758,
      "decl": 4759,
      "Ġactual": 4760,
      "stats": 4761,
      "hell": 4762,
      "bf": 4763,
      "Vertex": 4764,
      "Space": 4765,
      "å¹": 4766,
      "Ġzero": 4767,
      "GR": 4768,
      "20202020": 4769,
      "ĠAss": 4770,
      "Flag": 4771,
      "Scope": 4772,
      "culate": 4773,
      "ĠFOR": 4774,
      "Ġoperation": 4775,
      "(::": 4776,
      "TRA": 4777,
      "alys": 4778,
      "BD": 4779,
      "pattern": 4780,
      "track": 4781,
      "ĠStr": 4782,
      "Ġslot": 4783,
      "alance": 4784,
      "Unknown": 4785,
      "Send": 4786,
      "rief": 4787,
      "Report": 4788,
      "mun": 4789,
      "Boolean": 4790,
      "Ġargument": 4791,
      "xs": 4792,
      "Ġ02": 4793,
      "Ġke": 4794,
      "',@": 4795,
      "Ð´": 4796,
      "150": 4797,
      "ĠPtr": 4798,
      "dp": 4799,
      "åĩ": 4800,
      "Ġmemory": 4801,
      "ILE": 4802,
      "Ġdraw": 4803,
      "ĠInput": 4804,
      "Ġacc": 4805,
      "Ġweight": 4806,
      "usr": 4807,
      "ely": 4808,
      "PASSWORD": 4809,
      "ĠUpdate": 4810,
      "FIG": 4811,
      "respon": 4812,
      "alysis": 4813,
      "]],": 4814,
      "ithy": 4815,
      "Ġdebug": 4816,
      "%%": 4817,
      "Layer": 4818,
      "ansport": 4819,
      "Initial": 4820,
      "xF": 4821,
      "Ġswitch": 4822,
      "Profile": 4823,
      "Total": 4824,
      "BR": 4825,
      "Assert": 4826,
      "unch": 4827,
      "grad": 4828,
      "Ġfa": 4829,
      "erialize": 4830,
      "=>'": 4831,
      "docs": 4832,
      "Ġexample": 4833,
      "operator": 4834,
      "Ġitems": 4835,
      "gb": 4836,
      "ĠSeq": 4837,
      ")}": 4838,
      "runtime": 4839,
      "iNdEx": 4840,
      "cluster": 4841,
      "Ġmove": 4842,
      "Ġ(-": 4843,
      "NV": 4844,
      "Ġentity": 4845,
      "boot": 4846,
      "ä¸Ń": 4847,
      "DITION": 4848,
      "SW": 4849,
      "Ġexists": 4850,
      "SM": 4851,
      "Ġpoints": 4852,
      "Addr": 4853,
      "argument": 4854,
      "zz": 4855,
      "Ġpop": 4856,
      "bottom": 4857,
      "acing": 4858,
      "apped": 4859,
      "Ġpassword": 4860,
      "Ġgeom": 4861,
      "decode": 4862,
      "vers": 4863,
      "gorithm": 4864,
      "yntax": 4865,
      "Transform": 4866,
      "execute": 4867,
      "manager": 4868,
      "Ġkeys": 4869,
      "ecause": 4870,
      "ottom": 4871,
      "Ġ29": 4872,
      "å¯": 4873,
      "exists": 4874,
      "Ġreturned": 4875,
      "Cor": 4876,
      "children": 4877,
      "rot": 4878,
      "Ġinline": 4879,
      "Att": 4880,
      "108": 4881,
      "counter": 4882,
      "rency": 4883,
      "rea": 4884,
      "ipe": 4885,
      "events": 4886,
      "exception": 4887,
      "Ġotherwise": 4888,
      "bose": 4889,
      ".\")": 4890,
      "Ġ80": 4891,
      "master": 4892,
      "??": 4893,
      "ertific": 4894,
      "Ġstrings": 4895,
      "ev": 4896,
      "izes": 4897,
      "invalid": 4898,
      "allet": 4899,
      ")\\": 4900,
      "Ġ!==": 4901,
      "norm": 4902,
      "Category": 4903,
      "]=": 4904,
      "sing": 4905,
      "ummy": 4906,
      "ĠREFERENCES": 4907,
      "Ġaws": 4908,
      "Dest": 4909,
      "696": 4910,
      "Ñĩ": 4911,
      "(\"\\": 4912,
      "tags": 4913,
      "encies": 4914,
      "ĠStObject": 4915,
      "#!/": 4916,
      "typedef": 4917,
      "Second": 4918,
      "Ġ_)": 4919,
      "slice": 4920,
      "NU": 4921,
      "straints": 4922,
      "ĠLI": 4923,
      "xC": 4924,
      "amount": 4925,
      "Ġapplic": 4926,
      "Duration": 4927,
      "Ġpairs": 4928,
      "Adapter": 4929,
      "transform": 4930,
      "Ġparser": 4931,
      "Scale": 4932,
      "111": 4933,
      "uler": 4934,
      "Argument": 4935,
      "vision": 4936,
      "database": 4937,
      "106": 4938,
      "Ġword": 4939,
      "Ġprintf": 4940,
      "Pair": 4941,
      "Ġapplication": 4942,
      "Ġunique": 4943,
      "ĠColor": 4944,
      "ĠQu": 4945,
      "ifferent": 4946,
      "Ġsep": 4947,
      "efficient": 4948,
      "Ġdon": 4949,
      "ĠSp": 4950,
      "IGNED": 4951,
      "theme": 4952,
      "Ġbox": 4953,
      "ressed": 4954,
      "Ġsettings": 4955,
      "sr": 4956,
      "ades": 4957,
      "ĠDB": 4958,
      "ĠException": 4959,
      "~~~~": 4960,
      "Use": 4961,
      "Move": 4962,
      "Ġ{@": 4963,
      "Ġconfiguration": 4964,
      "Ġclear": 4965,
      "ook": 4966,
      "Panel": 4967,
      "Cmd": 4968,
      "Ġplay": 4969,
      "sa": 4970,
      "selected": 4971,
      "tegr": 4972,
      "cols": 4973,
      "egr": 4974,
      "Ġelements": 4975,
      "Gu": 4976,
      "109": 4977,
      "ales": 4978,
      "Conf": 4979,
      "trace": 4980,
      "107": 4981,
      "AME": 4982,
      "DL": 4983,
      "Normal": 4984,
      "Ġunt": 4985,
      "{},": 4986,
      "Timeout": 4987,
      "ĠInteger": 4988,
      "short": 4989,
      "Ġbigint": 4990,
      "tick": 4991,
      "voke": 4992,
      "ategy": 4993,
      "ĠAt": 4994,
      "Ġemail": 4995,
      "Monad": 4996,
      "Ġplace": 4997,
      "anc": 4998,
      "Maybe": 4999,
      "resp": 5000,
      "Ġclose": 5001,
      "Ġ[`": 5002,
      "æĹ¶": 5003,
      "Sn": 5004,
      "HTML": 5005,
      "Ġ&[": 5006,
      "factor": 5007,
      "Ġcalled": 5008,
      "\"}": 5009,
      "||": 5010,
      "Some": 5011,
      "Ġcontains": 5012,
      "]):": 5013,
      "Ġ\")": 5014,
      "223": 5015,
      "orch": 5016,
      "COUNT": 5017,
      "adow": 5018,
      "Tuple": 5019,
      "ndef": 5020,
      "crypt": 5021,
      "convert": 5022,
      "ĠRequest": 5023,
      "Ġdescribe": 5024,
      "anic": 5025,
      "annotation": 5026,
      "ĊĠĠĠĠĠĠĠĠĠĠĠĠĠĠĠĠĠĠĠĠĠĠĠĠĠĠĠĠĠ": 5027,
      "Ġselected": 5028,
      "HTTP": 5029,
      "Ġconstructor": 5030,
      "pm": 5031,
      "route": 5032,
      "brief": 5033,
      "Ġabout": 5034,
      "iform": 5035,
      "616": 5036,
      "Ġfail": 5037,
      "kind": 5038,
      "Ġapplicable": 5039,
      "TIMESTAMP": 5040,
      "di": 5041,
      "Ġdatetime": 5042,
      "install": 5043,
      "gs": 5044,
      "ĊĉĉĊĉ": 5045,
      "å½": 5046,
      "vars": 5047,
      "Ġ{},": 5048,
      "ina": 5049,
      "Identifier": 5050,
      "å±": 5051,
      "TS": 5052,
      "ĠFunction": 5053,
      "ĠMaybe": 5054,
      "-----": 5055,
      "ship": 5056,
      "čĊčĊĠĠĠĠĠĠĠ": 5057,
      "win": 5058,
      "done": 5059,
      "edge": 5060,
      "inv": 5061,
      "olution": 5062,
      "ONG": 5063,
      "Plugin": 5064,
      "CK": 5065,
      "tem": 5066,
      "Ġequal": 5067,
      "ural": 5068,
      "symbol": 5069,
      "Rece": 5070,
      "screen": 5071,
      "Member": 5072,
      "ama": 5073,
      "ari": 5074,
      "Files": 5075,
      "Ġconnect": 5076,
      "Ġ2020": 5077,
      "Each": 5078,
      "high": 5079,
      "ASE": 5080,
      "}.": 5081,
      "132": 5082,
      "PU": 5083,
      "Ġactive": 5084,
      "vi": 5085,
      "Ġmeta": 5086,
      "ĠAd": 5087,
      "hether": 5088,
      "2011": 5089,
      "ifndef": 5090,
      "tests": 5091,
      "JECT": 5092,
      "Ġflag": 5093,
      "ãĢģ": 5094,
      "Ġ35": 5095,
      "OD": 5096,
      "Effect": 5097,
      "çĲ": 5098,
      "ĠModel": 5099,
      "Ġreserved": 5100,
      "Ġarr": 5101,
      "Ġreference": 5102,
      "ĠDO": 5103,
      "Domain": 5104,
      "Password": 5105,
      "oriz": 5106,
      "ĠLicensed": 5107,
      "Ġ2021": 5108,
      "rand": 5109,
      "Ġencode": 5110,
      "æŀ": 5111,
      "Ġatt": 5112,
      "async": 5113,
      "Ġfi": 5114,
      "ĠRed": 5115,
      "#{": 5116,
      "999": 5117,
      "fk": 5118,
      "cost": 5119,
      "ç§": 5120,
      "Ġrows": 5121,
      "Raw": 5122,
      "Ġtheme": 5123,
      "lour": 5124,
      "Ġ'@": 5125,
      "Full": 5126,
      "Ġ\"_": 5127,
      "loor": 5128,
      "ital": 5129,
      "shift": 5130,
      "assed": 5131,
      "Ġdist": 5132,
      "Ġicon": 5133,
      "alf": 5134,
      "gle": 5135,
      "Ġ2019": 5136,
      "Rad": 5137,
      "pret": 5138,
      "losed": 5139,
      "ha": 5140,
      "ĠBAS": 5141,
      "Mesh": 5142,
      "bg": 5143,
      "spring": 5144,
      "ea": 5145,
      "Pointer": 5146,
      "Ġlaw": 5147,
      "Cap": 5148,
      "Ġmk": 5149,
      "missing": 5150,
      "ĠUP": 5151,
      "Ġ--------------------------------------------------------": 5152,
      "Ġcompliance": 5153,
      "Ġcorrect": 5154,
      "bus": 5155,
      "Ġsplit": 5156,
      "assign": 5157,
      "Wrapper": 5158,
      "Net": 5159,
      "pd": 5160,
      "logy": 5161,
      "dAtA": 5162,
      "Only": 5163,
      "1234": 5164,
      "DEFAULT": 5165,
      "Ġflags": 5166,
      "chedule": 5167,
      "plugin": 5168,
      "ĠSQL": 5169,
      "002": 5170,
      "ĠNumber": 5171,
      "which": 5172,
      "FY": 5173,
      "dot": 5174,
      "Ġbits": 5175,
      "rest": 5176,
      "ĠUse": 5177,
      "udent": 5178,
      "parameters": 5179,
      "pb": 5180,
      "Shape": 5181,
      "Attr": 5182,
      "Socket": 5183,
      "FUN": 5184,
      "ircle": 5185,
      "æĶ": 5186,
      "ped": 5187,
      "hidden": 5188,
      "udo": 5189,
      "ĊĊĠĠĠĠĠĠĠĠĠĠĠĠĠĠĠĠĠĠĠ": 5190,
      "itive": 5191,
      "oot": 5192,
      "Created": 5193,
      "ictionary": 5194,
      "sel": 5195,
      "Ġvariables": 5196,
      "Ġjav": 5197,
      "vals": 5198,
      "Ġdirection": 5199,
      "Proxy": 5200,
      "enable": 5201,
      "ica": 5202,
      "su": 5203,
      "Ġnetwork": 5204,
      "labels": 5205,
      "SB": 5206,
      "Ġč": 5207,
      "Stat": 5208,
      "article": 5209,
      "Fin": 5210,
      "background": 5211,
      "206": 5212,
      "ugins": 5213,
      "ih": 5214,
      "lg": 5215,
      "Fr": 5216,
      "dom": 5217,
      "Pe": 5218,
      "Ġsv": 5219,
      "çĽ": 5220,
      "Ġ''),": 5221,
      "ĠĠĠĠĠĠĠĠĠĠĠĠĠĠĠĠĠĠĠ": 5222,
      "dbo": 5223,
      "Ġsymbol": 5224,
      "views": 5225,
      "Ġreal": 5226,
      "Package": 5227,
      "Find": 5228,
      "rd": 5229,
      "FLAG": 5230,
      "Tab": 5231,
      "BIT": 5232,
      "DateTime": 5233,
      "ike": 5234,
      "Ġrand": 5235,
      "Ġbtn": 5236,
      "plus": 5237,
      "Changed": 5238,
      "ĠSchema": 5239,
      "IVE": 5240,
      "urity": 5241,
      "ĠPl": 5242,
      "Ġjoin": 5243,
      "å¾": 5244,
      "pose": 5245,
      "Ġinvalid": 5246,
      "Keys": 5247,
      "WR": 5248,
      "sched": 5249,
      "plat": 5250,
      "Ġbecause": 5251,
      "road": 5252,
      "Language": 5253,
      "agent": 5254,
      "BY": 5255,
      "DITIONS": 5256,
      "always": 5257,
      "119": 5258,
      "hav": 5259,
      "Ġshort": 5260,
      "Limit": 5261,
      ")+": 5262,
      "ensity": 5263,
      "Ġdecl": 5264,
      "rome": 5265,
      "Sync": 5266,
      "peat": 5267,
      "inf": 5268,
      "Ġwait": 5269,
      "READ": 5270,
      "Fragment": 5271,
      "Ġperson": 5272,
      "]}": 5273,
      "è§": 5274,
      "ĠBASIS": 5275,
      "è´": 5276,
      "Sort": 5277,
      "Ġhandler": 5278,
      "cout": 5279,
      "headers": 5280,
      "ested": 5281,
      "Feature": 5282,
      "Ġcontainer": 5283,
      "EF": 5284,
      "Ġwire": 5285,
      "ĊĠĠĠĠĠĠĠĠĠĠĠĠĠĠĠĠĠĠĠĠĠĠĠĠĠĠ": 5286,
      "helper": 5287,
      "lide": 5288,
      "Ġgoverning": 5289,
      "antity": 5290,
      "Ġimpl": 5291,
      "assets": 5292,
      "returns": 5293,
      "Ġct": 5294,
      "imate": 5295,
      "SING": 5296,
      "Author": 5297,
      "ä¸į": 5298,
      "media": 5299,
      "Ġalpha": 5300,
      "conv": 5301,
      "Âł": 5302,
      "IMIT": 5303,
      "Simple": 5304,
      "room": 5305,
      "ĠCONDITIONS": 5306,
      "Ġsql": 5307,
      "Ġgu": 5308,
      "memory": 5309,
      "oss": 5310,
      "bon": 5311,
      "Ġpadding": 5312,
      "aut": 5313,
      "istrict": 5314,
      "material": 5315,
      "typename": 5316,
      "STATUS": 5317,
      "ĠĠĠĠĠĠĠĠĠĠĠĠĠĠĠĠĠ": 5318,
      "ĠShow": 5319,
      "Ġrights": 5320,
      "ĠÐ²": 5321,
      "ARG": 5322,
      "Ġhigh": 5323,
      "Ġmodels": 5324,
      "fp": 5325,
      "204": 5326,
      "Ġmed": 5327,
      "attributes": 5328,
      "Ġabove": 5329,
      "controller": 5330,
      "Stats": 5331,
      "Ġagreed": 5332,
      "Ġlines": 5333,
      "SV": 5334,
      "andid": 5335,
      "Ġscope": 5336,
      "EP": 5337,
      "Ġthem": 5338,
      "rece": 5339,
      "ks": 5340,
      "Ġnodes": 5341,
      "ĠÄĳ": 5342,
      "Ġcore": 5343,
      "Ġpattern": 5344,
      "operation": 5345,
      "Remove": 5346,
      "ĠPath": 5347,
      "plan": 5348,
      "537": 5349,
      "details": 5350,
      "bt": 5351,
      "ABILITY": 5352,
      "STRING": 5353,
      "Cre": 5354,
      "Ġmargin": 5355,
      "saved": 5356,
      "super": 5357,
      "groups": 5358,
      "istics": 5359,
      "ĊĊĠĠĠĠĠĠĠĠĠ": 5360,
      "mploy": 5361,
      "ires": 5362,
      "scriptor": 5363,
      "Updated": 5364,
      "Ġì": 5365,
      "Ġ(_": 5366,
      "Email": 5367,
      "LY": 5368,
      "250": 5369,
      "detail": 5370,
      "Ġtests": 5371,
      "Region": 5372,
      "ĠMessage": 5373,
      "Ġdiv": 5374,
      "Ġcoord": 5375,
      "MD": 5376,
      "Ġseq": 5377,
      "117": 5378,
      "ĠCHARACTER": 5379,
      "ventory": 5380,
      "æľī": 5381,
      "Ġ34": 5382,
      "boolean": 5383,
      "acute": 5384,
      "linky": 5385,
      "Ġtransform": 5386,
      "lier": 5387,
      "Ùħ": 5388,
      "()));": 5389,
      "itter": 5390,
      "Ġimplicit": 5391,
      "CLI": 5392,
      "Term": 5393,
      "Iterator": 5394,
      "foreach": 5395,
      "Ġsn": 5396,
      "WARE": 5397,
      "çĲĨ": 5398,
      "ana": 5399,
      "dst": 5400,
      "dates": 5401,
      "AK": 5402,
      "release": 5403,
      "Ġimg": 5404,
      "Ġfeature": 5405,
      "fold": 5406,
      "Ġupdated": 5407,
      "totype": 5408,
      "Ġround": 5409,
      "IV": 5410,
      "idual": 5411,
      "while": 5412,
      "Ġ<!--": 5413,
      "ational": 5414,
      "tools": 5415,
      "Ð¾Ð²": 5416,
      "Just": 5417,
      "ĠÑģ": 5418,
      "ones": 5419,
      "ually": 5420,
      "âĸ": 5421,
      "beta": 5422,
      "UInt": 5423,
      "rf": 5424,
      "language": 5425,
      "733": 5426,
      "HR": 5427,
      "Directory": 5428,
      "Ġthey": 5429,
      "Screen": 5430,
      "ĊĊĉĉĉ": 5431,
      "005": 5432,
      "tb": 5433,
      "Ġheaders": 5434,
      "Ġcho": 5435,
      "jection": 5436,
      "opts": 5437,
      "2000": 5438,
      "Ġspace": 5439,
      "ĠHe": 5440,
      "lation": 5441,
      "Art": 5442,
      "ĠDump": 5443,
      "Ids": 5444,
      "UND": 5445,
      "ĠRight": 5446,
      "æ³": 5447,
      "Ġlift": 5448,
      "Slinky": 5449,
      "ï¼ļ": 5450,
      "[$": 5451,
      "Ġsubject": 5452,
      "Ġprod": 5453,
      "2010": 5454,
      "wp": 5455,
      "Conn": 5456,
      "see": 5457,
      "FR": 5458,
      "loop": 5459,
      "Ġprefix": 5460,
      "Ġ|=": 5461,
      "\"/": 5462,
      "003": 5463,
      "ĠUNS": 5464,
      "Ġbackground": 5465,
      "ulumi": 5466,
      "dataset": 5467,
      "115": 5468,
      "sep": 5469,
      "kit": 5470,
      "ĠCode": 5471,
      "Ġoriginal": 5472,
      "apture": 5473,
      "utions": 5474,
      ">();": 5475,
      "fx": 5476,
      "Ġ31": 5477,
      "acts": 5478,
      "Ġ37": 5479,
      "chron": 5480,
      "Ġexpr": 5481,
      "rem": 5482,
      "Ġinternal": 5483,
      "ertificate": 5484,
      "Ġdi": 5485,
      "Interval": 5486,
      "some": 5487,
      "Ġ'.": 5488,
      "cons": 5489,
      "akes": 5490,
      "ĠSELECT": 5491,
      "timeout": 5492,
      "Ġdrop": 5493,
      "Ġmov": 5494,
      "TUR": 5495,
      "blue": 5496,
      "Ġcluster": 5497,
      "Ġlimitations": 5498,
      "crement": 5499,
      "phone": 5500,
      "Ġalign": 5501,
      "nv": 5502,
      "hook": 5503,
      "cli": 5504,
      "TT": 5505,
      "203": 5506,
      "Buf": 5507,
      "ategories": 5508,
      "sumer": 5509,
      "uplic": 5510,
      "mu": 5511,
      "owner": 5512,
      "Ġdesc": 5513,
      "sym": 5514,
      "ĠBlock": 5515,
      "skip": 5516,
      "illa": 5517,
      "marshal": 5518,
      "_(": 5519,
      "AI": 5520,
      "180": 5521,
      "Results": 5522,
      "iterator": 5523,
      "Ġbinary": 5524,
      "Random": 5525,
      "207": 5526,
      "Ġschema": 5527,
      "depend": 5528,
      "ivers": 5529,
      "Ġmerge": 5530,
      "Import": 5531,
      "XFF": 5532,
      "Ġassoci": 5533,
      "Ãł": 5534,
      "Selector": 5535,
      "114": 5536,
      "Ġlock": 5537,
      "ocker": 5538,
      "TOR": 5539,
      "Ġ#{": 5540,
      "cpu": 5541,
      "Ġreplace": 5542,
      "properties": 5543,
      "rank": 5544,
      "Ġdiff": 5545,
      "quare": 5546,
      "ternal": 5547,
      "Async": 5548,
      "Ġcommon": 5549,
      "âķĲ": 5550,
      "Attributes": 5551,
      "OIN": 5552,
      "Ġrole": 5553,
      "','<": 5554,
      "Trace": 5555,
      "Ġbatch": 5556,
      ">.": 5557,
      "Static": 5558,
      "Ġ99": 5559,
      "ĠassertEquals": 5560,
      "redentials": 5561,
      "serde": 5562,
      "Events": 5563,
      "tries": 5564,
      "ĠImage": 5565,
      "equals": 5566,
      "generate": 5567,
      "Ġ----------------------------": 5568,
      "Ġstorage": 5569,
      "uffix": 5570,
      "uss": 5571,
      "ingsSlinky": 5572,
      "NC": 5573,
      "HC": 5574,
      "found": 5575,
      "`:": 5576,
      "sect": 5577,
      "Ġ38": 5578,
      "024": 5579,
      "ĠUNSIGNED": 5580,
      "Ġrep": 5581,
      "ito": 5582,
      "ĠAs": 5583,
      "wr": 5584,
      "aim": 5585,
      "Ġstat": 5586,
      "512": 5587,
      "Ġdifferent": 5588,
      "ij": 5589,
      "Program": 5590,
      "ĠAct": 5591,
      "ĠOpen": 5592,
      "Pattern": 5593,
      "hr": 5594,
      "Ġtrack": 5595,
      "ĠValid": 5596,
      "Ġfs": 5597,
      "Ġpointer": 5598,
      "ĠUnless": 5599,
      "ĠĠĠĠĠĠĠĠĠĠĠĠĠĠĠĠĠĠĠĠĠĠĠĠĠĠĠĠĠĠĠĠĠĠĠĠĠĠĠĠĠĠĠĠĠĠĠĠĠĠĠĠĠĠĠĠĠĠĠĠĠĠĠĠ": 5600,
      "BER": 5601,
      "OW": 5602,
      "Ġaxis": 5603,
      "([]": 5604,
      "Ġmetadata": 5605,
      "çī": 5606,
      "pad": 5607,
      "black": 5608,
      "Ġour": 5609,
      "Ġdig": 5610,
      "æµ": 5611,
      "ison": 5612,
      "ç®": 5613,
      "VALUES": 5614,
      "pag": 5615,
      "ied": 5616,
      "Common": 5617,
      "Integr": 5618,
      "ulia": 5619,
      "Section": 5620,
      "VS": 5621,
      "Ġfr": 5622,
      "FS": 5623,
      "Ġmask": 5624,
      "DIS": 5625,
      "oom": 5626,
      "=\"{{": 5627,
      "socket": 5628,
      "Ġts": 5629,
      "ĠResponse": 5630,
      "amage": 5631,
      "destroy": 5632,
      "ters": 5633,
      "ĊĠĠĠĠĠĠĠĠĠĠĠĠĠĠĠĠĠĠĠĠĠĠĠĠĠĠĠĠ": 5634,
      "ĠCre": 5635,
      "Ġdepend": 5636,
      "Ġderiving": 5637,
      "ĠCall": 5638,
      "Ġalloc": 5639,
      "Ġamount": 5640,
      "person": 5641,
      "Sequence": 5642,
      "seed": 5643,
      "ĠOutput": 5644,
      "Ġignore": 5645,
      "Ġps": 5646,
      "prev": 5647,
      "à¸²": 5648,
      "ĠField": 5649,
      "Ġcontain": 5650,
      "Media": 5651,
      "ĊĠĠĠĠĠĠĠĠĠĠĠĠĠĠĠĠĠĠĠĠĠĠĠĠĠĠĠĠĠĠĠĠĠĠĠĠĠĠĠĠĠĠĠĠĠĠĠ": 5652,
      "undefined": 5653,
      "ĠLong": 5654,
      "Ġdetails": 5655,
      "Ġandroidx": 5656,
      "Ġrad": 5657,
      "va": 5658,
      "subject": 5659,
      "Ġdirect": 5660,
      "cid": 5661,
      "ĠRun": 5662,
      "modules": 5663,
      "Year": 5664,
      "fail": 5665,
      "Ġcap": 5666,
      "ony": 5667,
      "Ġsetup": 5668,
      "Ġ45": 5669,
      "OO": 5670,
      "ĠAbstract": 5671,
      "loaded": 5672,
      "Ã£o": 5673,
      "Auto": 5674,
      "ĠCal": 5675,
      "Ġlat": 5676,
      "appy": 5677,
      "149": 5678,
      "Mask": 5679,
      "izing": 5680,
      "æį": 5681,
      "Ġprevious": 5682,
      "okie": 5683,
      "agement": 5684,
      "Ġwr": 5685,
      "Ġweb": 5686,
      "acion": 5687,
      "Ġcolumns": 5688,
      "ood": 5689,
      ")){": 5690,
      "LOW": 5691,
      "Diff": 5692,
      "VICE": 5693,
      "æĪĲ": 5694,
      "116": 5695,
      "services": 5696,
      "entication": 5697,
      "merge": 5698,
      "Ġptr": 5699,
      "tile": 5700,
      "ĠFE": 5701,
      "INTER": 5702,
      "Coord": 5703,
      "2012": 5704,
      "emon": 5705,
      "EOF": 5706,
      "\",\"\",\"": 5707,
      "Ġevery": 5708,
      "Ġ36": 5709,
      "čĊčĊč": 5710,
      "month": 5711,
      "_Ĉ": 5712,
      "æĢ": 5713,
      "Ġ39": 5714,
      "amma": 5715,
      "'];": 5716,
      "mc": 5717,
      ":\\": 5718,
      "Namespace": 5719,
      "Ġoptional": 5720,
      "bounds": 5721,
      "Permiss": 5722,
      "------": 5723,
      "emale": 5724,
      "Ġyear": 5725,
      "Area": 5726,
      "setup": 5727,
      "ARD": 5728,
      "Ġfl": 5729,
      "ĠDescri": 5730,
      "FTWARE": 5731,
      "Multi": 5732,
      "Bundle": 5733,
      "endar": 5734,
      "Ġlabels": 5735,
      "ĠSH": 5736,
      "margin": 5737,
      "letion": 5738,
      "ĠØ": 5739,
      "Ġproperties": 5740,
      "303": 5741,
      "Chain": 5742,
      "Binary": 5743,
      "IX": 5744,
      "ENCE": 5745,
      "trics": 5746,
      "cover": 5747,
      "Notification": 5748,
      "Price": 5749,
      "Ð¿": 5750,
      "primary": 5751,
      "validate": 5752,
      "condition": 5753,
      "Background": 5754,
      "gp": 5755,
      "ĠMem": 5756,
      "ĠBE": 5757,
      "Dynamic": 5758,
      "æİ": 5759,
      "Ġelif": 5760,
      "Ty": 5761,
      "mob": 5762,
      "uring": 5763,
      "ĠĊĉ": 5764,
      "æ²": 5765,
      "depth": 5766,
      "(\"#": 5767,
      "Ġusers": 5768,
      "Ġqueue": 5769,
      "indices": 5770,
      "Ġshape": 5771,
      "sheet": 5772,
      "NABLE": 5773,
      "VALID": 5774,
      "aker": 5775,
      "nom": 5776,
      "ĠRout": 5777,
      "Ġsupport": 5778,
      "[(": 5779,
      "0000000": 5780,
      "asi": 5781,
      "Ġutil": 5782,
      "=\"#": 5783,
      "==\"": 5784,
      "voice": 5785,
      "ĠLe": 5786,
      "205": 5787,
      "\"])": 5788,
      "solute": 5789,
      "Timer": 5790,
      "seconds": 5791,
      "ateway": 5792,
      "UUID": 5793,
      "Org": 5794,
      "lv": 5795,
      "kan": 5796,
      "Ð°Ð½": 5797,
      "ĠInitialized": 5798,
      "alog": 5799,
      "ĠItem": 5800,
      "dx": 5801,
      "prox": 5802,
      "Ġ-=": 5803,
      "Fun": 5804,
      "ä¸ª": 5805,
      "igation": 5806,
      "ordered": 5807,
      "]={": 5808,
      "Volume": 5809,
      "Ġreport": 5810,
      "PTION": 5811,
      "FROM": 5812,
      "208": 5813,
      "IAL": 5814,
      "ĠURL": 5815,
      "mic": 5816,
      "112": 5817,
      "{})": 5818,
      "moved": 5819,
      "ino": 5820,
      "124": 5821,
      "columns": 5822,
      "Ġkind": 5823,
      "ĠINDEX": 5824,
      "comm": 5825,
      "Ġ\"\")": 5826,
      "plicit": 5827,
      "Ġ2016": 5828,
      "xA": 5829,
      "ÙĪ": 5830,
      "Ġut": 5831,
      "mport": 5832,
      "ĠĠĠĠĠĠĠĠĠĠĠĠĠĠĠĠĠĠ": 5833,
      "RIGHT": 5834,
      "pk": 5835,
      "LD": 5836,
      "ĠCur": 5837,
      "strap": 5838,
      "PM": 5839,
      "Ġhow": 5840,
      "Ġ./": 5841,
      "Material": 5842,
      "unknown": 5843,
      "è¡¨": 5844,
      "parameter": 5845,
      "fetch": 5846,
      "Flow": 5847,
      "118": 5848,
      "Connect": 5849,
      "Ġpure": 5850,
      "Ġexception": 5851,
      "ĠDat": 5852,
      "Ġvert": 5853,
      "700": 5854,
      "ÙĨ": 5855,
      "ura": 5856,
      "Ġpayload": 5857,
      "nc": 5858,
      "LA": 5859,
      "Mapping": 5860,
      "abil": 5861,
      "ended": 5862,
      "llum": 5863,
      "ĠPh": 5864,
      "Tri": 5865,
      "Ġgenerated": 5866,
      "ĠReact": 5867,
      "ĠToken": 5868,
      "âĶĢâĶĢâĶĢâĶĢ": 5869,
      "bad": 5870,
      ">{": 5871,
      "åľ¨": 5872,
      "Ã§": 5873,
      "question": 5874,
      "Ġ42": 5875,
      "bi": 5876,
      "failed": 5877,
      "asis": 5878,
      "note": 5879,
      "Ġsig": 5880,
      "EA": 5881,
      "mutable": 5882,
      "ĠUPDATE": 5883,
      "iness": 5884,
      "allel": 5885,
      "duration": 5886,
      "Protocol": 5887,
      "Ġcollection": 5888,
      "Ġ48": 5889,
      "tax": 5890,
      "graphics": 5891,
      "Sample": 5892,
      "159": 5893,
      "Ġlayer": 5894,
      "Ġmodify": 5895,
      "Labels": 5896,
      "ĠLine": 5897,
      "hip": 5898,
      "ĠEd": 5899,
      "Generator": 5900,
      "cour": 5901,
      "icker": 5902,
      "inu": 5903,
      "ĠDo": 5904,
      "================================================================": 5905,
      "################################################################": 5906,
      "Ġna": 5907,
      "ru": 5908,
      "Idx": 5909,
      "istribution": 5910,
      "ird": 5911,
      "Ġ[(": 5912,
      "Ġdst": 5913,
      "Ġloaded": 5914,
      "ĠContext": 5915,
      "ĠPer": 5916,
      "ster": 5917,
      "ĠSOFTWARE": 5918,
      "Ġtri": 5919,
      "Ġ2018": 5920,
      "çľ": 5921,
      "Light": 5922,
      "varchar": 5923,
      "payload": 5924,
      "Rec": 5925,
      "Plot": 5926,
      "endor": 5927,
      "blank": 5928,
      "tf": 5929,
      "imitive": 5930,
      "Ġregion": 5931,
      "Runtime": 5932,
      "agma": 5933,
      "CHARACTER": 5934,
      "Edge": 5935,
      "world": 5936,
      "legal": 5937,
      "Ġcenter": 5938,
      "Ġwrap": 5939,
      "ĠHttp": 5940,
      "nh": 5941,
      "smithy": 5942,
      "Ġinner": 5943,
      "Ġconn": 5944,
      "Ġevents": 5945,
      "=$(": 5946,
      "structure": 5947,
      "ĠFrom": 5948,
      "ĠNote": 5949,
      "ÙĬ": 5950,
      "ĠGe": 5951,
      "Nodes": 5952,
      "Off": 5953,
      "platform": 5954,
      "Ġrot": 5955,
      "enabled": 5956,
      "mesh": 5957,
      "elseif": 5958,
      "Ġexpression": 5959,
      "')->": 5960,
      ";\\": 5961,
      "cn": 5962,
      "Ġcat": 5963,
      "xB": 5964,
      "Ġthese": 5965,
      "Ġreset": 5966,
      "Ġ33": 5967,
      "Ġbased": 5968,
      "CCESS": 5969,
      "\\\\/": 5970,
      ">()": 5971,
      "NECTION": 5972,
      "Slot": 5973,
      "mes": 5974,
      "chunk": 5975,
      "bash": 5976,
      "Ġdefine": 5977,
      "Ġvalidate": 5978,
      "Ġmp": 5979,
      "Plan": 5980,
      "Strings": 5981,
      "buff": 5982,
      "ĠDict": 5983,
      "ĠXXX": 5984,
      "::*": 5985,
      "UTE": 5986,
      "Ġ'$": 5987,
      "reser": 5988,
      "Ġconditions": 5989,
      "ĊĠĠĠĠĠĠĊĠĠĠĠĠ": 5990,
      "Ġtake": 5991,
      "junit": 5992,
      "ãģ®": 5993,
      "'));": 5994,
      "CG": 5995,
      "Ġauthor": 5996,
      "æŃ": 5997,
      "Db": 5998,
      "dm": 5999,
      "Generic": 6000,
      "Ġjavax": 6001,
      "Ġwhether": 6002,
      "grade": 6003,
      "MOD": 6004,
      "CLIENT": 6005,
      "ĠPromise": 6006,
      "?,": 6007,
      "Ġextract": 6008,
      "Batch": 6009,
      "Ġans": 6010,
      "636": 6011,
      "icator": 6012,
      "145": 6013,
      "Selection": 6014,
      "Sprintf": 6015,
      "resources": 6016,
      "Join": 6017,
      "endl": 6018,
      "CONFIG": 6019,
      "ROUP": 6020,
      "goto": 6021,
      "737": 6022,
      "Wait": 6023,
      "ĠLocal": 6024,
      "Ġmissing": 6025,
      "Ġ66": 6026,
      "æĸ°": 6027,
      "Ġpassed": 6028,
      "Undef": 6029,
      "ggle": 6030,
      "hy": 6031,
      "ashboard": 6032,
      "Extension": 6033,
      ":%": 6034,
      "Pred": 6035,
      "Ġworld": 6036,
      "Ġ{'": 6037,
      "PK": 6038,
      "timer": 6039,
      "Day": 6040,
      "Ġsmall": 6041,
      "ĠWord": 6042,
      "Pass": 6043,
      "Mess": 6044,
      "STATE": 6045,
      ",:": 6046,
      "defer": 6047,
      "Progress": 6048,
      "URRE": 6049,
      "Selected": 6050,
      "Marshal": 6051,
      "mbers": 6052,
      "force": 6053,
      "ifest": 6054,
      "164": 6055,
      "Ġbar": 6056,
      "lluminate": 6057,
      "sha": 6058,
      "Gui": 6059,
      "ĠMath": 6060,
      "080": 6061,
      "interval": 6062,
      "ette": 6063,
      "Ġlayout": 6064,
      "BASE": 6065,
      "loss": 6066,
      "TOP": 6067,
      "ĠDebug": 6068,
      "orizont": 6069,
      "Ok": 6070,
      "herit": 6071,
      "lates": 6072,
      "Ġassign": 6073,
      "Ġgot": 6074,
      "It": 6075,
      "Points": 6076,
      "Binding": 6077,
      "LES": 6078,
      "Pop": 6079,
      "ĠGame": 6080,
      "video": 6081,
      "224": 6082,
      "],[": 6083,
      "relation": 6084,
      "Ġinv": 6085,
      "ACE": 6086,
      "periment": 6087,
      "clean": 6088,
      "Users": 6089,
      "Ġtool": 6090,
      "Ġ.=": 6091,
      "ASSERT": 6092,
      "ĠWeb": 6093,
      "ä¸º": 6094,
      "Ġdes": 6095,
      "semb": 6096,
      "Ġoc": 6097,
      "è¾": 6098,
      "big": 6099,
      "Ġcomment": 6100,
      "complete": 6101,
      "panel": 6102,
      "folder": 6103,
      ")-": 6104,
      "Ġedge": 6105,
      "ermin": 6106,
      "---@": 6107,
      "TX": 6108,
      "Ġ):": 6109,
      "pid": 6110,
      "Ġobjects": 6111,
      "legate": 6112,
      "Ġmaximum": 6113,
      "ĠASSERT": 6114,
      "Sl": 6115,
      "proc": 6116,
      "Failure": 6117,
      "pat": 6118,
      "Ġalt": 6119,
      "hand": 6120,
      "springframework": 6121,
      "sur": 6122,
      "ĠEND": 6123,
      "Ġrhs": 6124,
      "ji": 6125,
      "121": 6126,
      "139": 6127,
      "speed": 6128,
      "ĠJS": 6129,
      "mpt": 6130,
      "locity": 6131,
      "Free": 6132,
      "ĊĠĠĠĠĠĠĠĠĠĠĠĠĠĠĠĠĠĠĠĠĠĠĠĠĠĠĠĠĠĠ": 6133,
      "istration": 6134,
      "cos": 6135,
      "pare": 6136,
      "ble": 6137,
      "ulate": 6138,
      "border": 6139,
      "World": 6140,
      "throws": 6141,
      "modal": 6142,
      "ÐµÑĢ": 6143,
      "tl": 6144,
      "Ġfactor": 6145,
      "Ġident": 6146,
      "VID": 6147,
      "ARN": 6148,
      "ĠPartial": 6149,
      "Single": 6150,
      "delta": 6151,
      "ĠServer": 6152,
      "Required": 6153,
      "UndefOr": 6154,
      "Ġ<?": 6155,
      "ases": 6156,
      "Ġdict": 6157,
      "commit": 6158,
      "Ġthrough": 6159,
      "Ġsl": 6160,
      "çº": 6161,
      "_)": 6162,
      "Ġsection": 6163,
      "asm": 6164,
      "erate": 6165,
      "scan": 6166,
      "Æ°": 6167,
      "RS": 6168,
      "TF": 6169,
      "************************************************************************": 6170,
      "++++": 6171,
      "mn": 6172,
      "atomic": 6173,
      "Ġ128": 6174,
      "Ġdt": 6175,
      "ĠRef": 6176,
      "coord": 6177,
      "that": 6178,
      "}\\": 6179,
      "140": 6180,
      "ĠParser": 6181,
      "TAG": 6182,
      "PY": 6183,
      "UMN": 6184,
      "lux": 6185,
      "æĪ·": 6186,
      "ĠMonad": 6187,
      "throw": 6188,
      "NotFound": 6189,
      "Fl": 6190,
      "rv": 6191,
      "Ġroute": 6192,
      "period": 6193,
      "ĠCHECK": 6194,
      "white": 6195,
      "Big": 6196,
      "anization": 6197,
      "greg": 6198,
      "174": 6199,
      "Weight": 6200,
      "Nav": 6201,
      "ours": 6202,
      "policy": 6203,
      "ĠClient": 6204,
      "\"\\": 6205,
      "535": 6206,
      "Ġtheir": 6207,
      "Ġ{}\",": 6208,
      "enchmark": 6209,
      "ĠWH": 6210,
      "èĩ": 6211,
      "ĠHel": 6212,
      "Ġcp": 6213,
      "PD": 6214,
      "valuate": 6215,
      "Login": 6216,
      "requency": 6217,
      "ERS": 6218,
      "nost": 6219,
      "Ġ\"[": 6220,
      "ĠUNI": 6221,
      "reader": 6222,
      "Union": 6223,
      "bra": 6224,
      "IA": 6225,
      "ĠMAX": 6226,
      "atest": 6227,
      "strip": 6228,
      "lookup": 6229,
      "004": 6230,
      "velop": 6231,
      "323": 6232,
      "sess": 6233,
      "IZ": 6234,
      "elements": 6235,
      "ĠtypingsSlinky": 6236,
      "after": 6237,
      "cores": 6238,
      "\"=>": 6239,
      "Ġ))": 6240,
      "ression": 6241,
      "Ġdomain": 6242,
      "Ċĉĉĉĉĉĉĉĉĉ": 6243,
      "Ġnotice": 6244,
      "sequence": 6245,
      "ĠJson": 6246,
      "Loader": 6247,
      "Ġcompute": 6248,
      "oz": 6249,
      "ods": 6250,
      "front": 6251,
      "122": 6252,
      "ocation": 6253,
      "æĸĩ": 6254,
      "provider": 6255,
      "Ġ%%": 6256,
      "virtual": 6257,
      "_->": 6258,
      "chr": 6259,
      "åĳ": 6260,
      "Ġtimeout": 6261,
      "ehicle": 6262,
      "Ġxml": 6263,
      "objects": 6264,
      "ocus": 6265,
      "variant": 6266,
      "PF": 6267,
      ",'<": 6268,
      "rx": 6269,
      "contact": 6270,
      "ico": 6271,
      "inates": 6272,
      "Ġdistance": 6273,
      "transaction": 6274,
      "After": 6275,
      "Ġdev": 6276,
      "ĠMy": 6277,
      "305": 6278,
      "Ġlibrary": 6279,
      "ADDR": 6280,
      "exports": 6281,
      "à¥": 6282,
      "trie": 6283,
      "à¸²à¸": 6284,
      "ĠCommand": 6285,
      "Fatal": 6286,
      "asset": 6287,
      "ker": 6288,
      "acters": 6289,
      "ITEM": 6290,
      "VO": 6291,
      "when": 6292,
      "ĠGraph": 6293,
      "Ġgg": 6294,
      "orizontal": 6295,
      "(..": 6296,
      "æ±": 6297,
      "alias": 6298,
      "209": 6299,
      "Inf": 6300,
      "OFF": 6301,
      "agger": 6302,
      "Ġ90": 6303,
      "Ġedit": 6304,
      "cut": 6305,
      "Ġwhat": 6306,
      "MASK": 6307,
      "osition": 6308,
      "zh": 6309,
      "ĠAr": 6310,
      "ĠMod": 6311,
      "Literal": 6312,
      "effect": 6313,
      "ĠDoc": 6314,
      "Ġside": 6315,
      "=[": 6316,
      "ĠBox": 6317,
      "chat": 6318,
      "leton": 6319,
      "configuration": 6320,
      "times": 6321,
      "ĠĠĠĠĠĠĠĠĠĠĠĠĠĠĠĠĠĠĠĠ": 6322,
      "Ġtypename": 6323,
      "Kit": 6324,
      "metric": 6325,
      "ĠEnd": 6326,
      "Ð¹": 6327,
      "Ġexport": 6328,
      "Short": 6329,
      "àº": 6330,
      "ĠStart": 6331,
      "Ġclean": 6332,
      "Amount": 6333,
      "GRA": 6334,
      "Statement": 6335,
      "neg": 6336,
      "Character": 6337,
      "Ġzeros": 6338,
      "uest": 6339,
      "Models": 6340,
      "Ġcopyright": 6341,
      "Ġattributes": 6342,
      "Ġeval": 6343,
      "ĠJOIN": 6344,
      "ĠChar": 6345,
      "Detail": 6346,
      "']['": 6347,
      "FOR": 6348,
      "ĠPublic": 6349,
      "160": 6350,
      "eeded": 6351,
      "158": 6352,
      "MAP": 6353,
      "156": 6354,
      "Acc": 6355,
      "Sm": 6356,
      "Ġday": 6357,
      "reflect": 6358,
      "201": 6359,
      "Ġsent": 6360,
      "Ġdataset": 6361,
      "Ġaddr": 6362,
      "warn": 6363,
      "agr": 6364,
      "dump": 6365,
      "aaaa": 6366,
      "Tags": 6367,
      "Ax": 6368,
      "unused": 6369,
      "Ġchunk": 6370,
      "ral": 6371,
      "distance": 6372,
      "333": 6373,
      "Ġsequence": 6374,
      "DT": 6375,
      "Payload": 6376,
      "Ġâķ": 6377,
      "154": 6378,
      "Ġty": 6379,
      "prototype": 6380,
      "abc": 6381,
      "Ġperform": 6382,
      "ĠLoad": 6383,
      "ATCH": 6384,
      "CN": 6385,
      "Ġrest": 6386,
      "typeof": 6387,
      "129": 6388,
      "achment": 6389,
      "PROC": 6390,
      "Ġâī": 6391,
      "375": 6392,
      "vt": 6393,
      "That": 6394,
      "cursor": 6395,
      ">'": 6396,
      "Ġinstead": 6397,
      "Counter": 6398,
      "Public": 6399,
      "234": 6400,
      "144": 6401,
      "DIFY": 6402,
      "Lens": 6403,
      "Prop": 6404,
      "sf": 6405,
      "SPE": 6406,
      "ĥ½": 6407,
      "ĠLOG": 6408,
      "Qt": 6409,
      "235": 6410,
      "Ġscreen": 6411,
      "ĠÐ½": 6412,
      "UTH": 6413,
      "Ġfetch": 6414,
      "igration": 6415,
      "ival": 6416,
      "concat": 6417,
      "angular": 6418,
      "Ġeffect": 6419,
      "`.`": 6420,
      "Ñħ": 6421,
      "137": 6422,
      "branch": 6423,
      "Usage": 6424,
      "Sim": 6425,
      "upper": 6426,
      "apon": 6427,
      "oney": 6428,
      "Ġ'%": 6429,
      "mag": 6430,
      "Ġhtml": 6431,
      "Bits": 6432,
      "feed": 6433,
      "ĠCan": 6434,
      "157": 6435,
      "mul": 6436,
      "Ġimplementation": 6437,
      "origin": 6438,
      "ĠAR": 6439,
      "wik": 6440,
      "ism": 6441,
      "riend": 6442,
      "ĠEq": 6443,
      "uf": 6444,
      "155": 6445,
      "Ġsed": 6446,
      "repo": 6447,
      "erc": 6448,
      "FIX": 6449,
      "TRI": 6450,
      "Scroll": 6451,
      "è¡Į": 6452,
      "asc": 6453,
      "ĠIP": 6454,
      "........": 6455,
      "atile": 6456,
      "Stop": 6457,
      "ye": 6458,
      "=%": 6459,
      "$$": 6460,
      "LT": 6461,
      "ĠĊĠĠĠĠĠĠĠĠĠĠĠ": 6462,
      "Shader": 6463,
      "ysical": 6464,
      "wwv": 6465,
      "single": 6466,
      "faces": 6467,
      "Ġmultiple": 6468,
      "6666": 6469,
      "Ġwithin": 6470,
      "Chat": 6471,
      "wt": 6472,
      "multi": 6473,
      "bat": 6474,
      "YPE": 6475,
      "cogn": 6476,
      "datetime": 6477,
      "literal": 6478,
      "IGHT": 6479,
      "Owner": 6480,
      "Ġdecode": 6481,
      ":?": 6482,
      "protocol": 6483,
      "Ġcollect": 6484,
      "Ġtrait": 6485,
      "Ġmessages": 6486,
      "Ġcr": 6487,
      "Ġsure": 6488,
      "Ġcb": 6489,
      "SUB": 6490,
      "647": 6491,
      "elem": 6492,
      "binary": 6493,
      "GEN": 6494,
      "ĠNS": 6495,
      "general": 6496,
      "XML": 6497,
      "ĠByte": 6498,
      "è½": 6499,
      "Car": 6500,
      "illi": 6501,
      "aration": 6502,
      "ĠOper": 6503,
      "trim": 6504,
      "Mouse": 6505,
      "Release": 6506,
      "Req": 6507,
      "Ġ@@": 6508,
      "gon": 6509,
      "225": 6510,
      "Support": 6511,
      "testset": 6512,
      "ELD": 6513,
      "ĠFFF": 6514,
      "Ġadded": 6515,
      "Unexpected": 6516,
      "Registry": 6517,
      "Ġinitialize": 6518,
      "ĠQuery": 6519,
      "Ġmethods": 6520,
      "0001": 6521,
      "Save": 6522,
      "pri": 6523,
      "ĠSource": 6524,
      "Ġcannot": 6525,
      "/\"": 6526,
      "orth": 6527,
      "Basic": 6528,
      "MAGE": 6529,
      "You": 6530,
      "THER": 6531,
      "resolve": 6532,
      "strings": 6533,
      "Ġsit": 6534,
      "roke": 6535,
      "Ġonce": 6536,
      "hex": 6537,
      "ĊĠĠĠĠĠĠĠĠĠĠĠĠĠĠĠĠĠĠĠĠĠĠĠĠĠĠĠĠĠĠĠĠĠ": 6538,
      "-------": 6539,
      "ADD": 6540,
      "ables": 6541,
      "ĠDumping": 6542,
      "fire": 6543,
      "ĠTe": 6544,
      "otion": 6545,
      "ĠAction": 6546,
      "ĠSpec": 6547,
      "Holder": 6548,
      "ĠĊĠĠĠĠĠ": 6549,
      "Editor": 6550,
      "ota": 6551,
      "history": 6552,
      "=${": 6553,
      "Score": 6554,
      "Dig": 6555,
      "åĲį": 6556,
      "nrow": 6557,
      "RED": 6558,
      "Factor": 6559,
      "TC": 6560,
      "Alloc": 6561,
      "é¢": 6562,
      "[-": 6563,
      "Ø±": 6564,
      "ĠExpr": 6565,
      "å¤§": 6566,
      "tle": 6567,
      "kernel": 6568,
      "148": 6569,
      "Note": 6570,
      "du": 6571,
      "Ġbin": 6572,
      "Ġexecute": 6573,
      "199": 6574,
      "tol": 6575,
      "ASH": 6576,
      "=-": 6577,
      "small": 6578,
      "Ġui": 6579,
      "URRENT": 6580,
      "Ġlower": 6581,
      "Bin": 6582,
      "START": 6583,
      ">'),": 6584,
      "RB": 6585,
      "Ġwriter": 6586,
      "ĠNA": 6587,
      "samples": 6588,
      "ention": 6589,
      "DESC": 6590,
      "Ġhand": 6591,
      "CU": 6592,
      "ErrorKind": 6593,
      "roadcast": 6594,
      "Endpoint": 6595,
      "rules": 6596,
      "simple": 6597,
      "ucer": 6598,
      "Ġtransaction": 6599,
      "Ġagain": 6600,
      "ĠAC": 6601,
      "Ġuntil": 6602,
      "Ġ\"./": 6603,
      "uite": 6604,
      "alert": 6605,
      "Ġabs": 6606,
      "loader": 6607,
      "SUCCESS": 6608,
      "Ġassociated": 6609,
      "čĊĠĠĠĠĠĠĠĠĠ": 6610,
      "WI": 6611,
      "Ġbeing": 6612,
      "Ġwould": 6613,
      "175": 6614,
      "DM": 6615,
      "ĠDA": 6616,
      "Ġterm": 6617,
      "(()": 6618,
      "åĪĨ": 6619,
      "POS": 6620,
      "maining": 6621,
      "Ġboth": 6622,
      "Ġleg": 6623,
      "Surface": 6624,
      "obs": 6625,
      "Ġ2017": 6626,
      "Ġĉ": 6627,
      "Fore": 6628,
      "Fn": 6629,
      "Ġpool": 6630,
      "113": 6631,
      "Ġ'../": 6632,
      "čĊĠĠĠĠĠĠĠĠĠĠĠĠĠĠĠĠĠĠĠĠĠĠĠ": 6633,
      "messages": 6634,
      "gui": 6635,
      "Ġprev": 6636,
      "team": 6637,
      "sz": 6638,
      "135": 6639,
      "Ġown": 6640,
      "rics": 6641,
      "Ġ[];": 6642,
      "Pub": 6643,
      "Ip": 6644,
      "atar": 6645,
      "Ġarea": 6646,
      "sdk": 6647,
      "prite": 6648,
      "REC": 6649,
      "notations": 6650,
      "features": 6651,
      "ĠService": 6652,
      "district": 6653,
      "YS": 6654,
      "`](": 6655,
      "reat": 6656,
      "program": 6657,
      "Ġverify": 6658,
      "matches": 6659,
      "900": 6660,
      "Operator": 6661,
      "sin": 6662,
      "ano": 6663,
      "Ġ81": 6664,
      "Depend": 6665,
      "130": 6666,
      "165": 6667,
      "ç±": 6668,
      "continue": 6669,
      "aries": 6670,
      "ANCE": 6671,
      "ĠSk": 6672,
      "Inv": 6673,
      "ĠDelete": 6674,
      "Ġfix": 6675,
      "aes": 6676,
      "LB": 6677,
      "Ġcategory": 6678,
      "Clone": 6679,
      "Enable": 6680,
      "æĬ": 6681,
      "EQU": 6682,
      "Std": 6683,
      "ĠInst": 6684,
      "191": 6685,
      "strict": 6686,
      "Ġnone": 6687,
      "sizeof": 6688,
      "218": 6689,
      "iece": 6690,
      "Ð¾Ð»": 6691,
      "RC": 6692,
      "ĠTemp": 6693,
      "Actor": 6694,
      "star": 6695,
      "ĠOTHER": 6696,
      "pointer": 6697,
      "Ġsince": 6698,
      "/$": 6699,
      "classes": 6700,
      "download": 6701,
      "Zone": 6702,
      "pin": 6703,
      "PG": 6704,
      "Il": 6705,
      "å®ļ": 6706,
      "bitrary": 6707,
      "WE": 6708,
      "Ġmany": 6709,
      ".$": 6710,
      "INST": 6711,
      "]->": 6712,
      ".'": 6713,
      "167": 6714,
      "ĠDELETE": 6715,
      "REE": 6716,
      "URI": 6717,
      "Agent": 6718,
      "iqu": 6719,
      "Ġcfg": 6720,
      "sy": 6721,
      "Quest": 6722,
      "LM": 6723,
      "ilar": 6724,
      "134": 6725,
      "Cpp": 6726,
      "vc": 6727,
      "compose": 6728,
      "padding": 6729,
      "ROW": 6730,
      "138": 6731,
      "Ġreader": 6732,
      "ĠProject": 6733,
      "ĠGo": 6734,
      "python": 6735,
      "Ġkeep": 6736,
      "179": 6737,
      "unded": 6738,
      "colors": 6739,
      "Clear": 6740,
      "Ġ500": 6741,
      "cus": 6742,
      "Uint": 6743,
      "Ġpresent": 6744,
      "LIST": 6745,
      "localhost": 6746,
      "126": 6747,
      "]])": 6748,
      "II": 6749,
      "pay": 6750,
      "proxy": 6751,
      "Div": 6752,
      "ĠFUN": 6753,
      "222": 6754,
      "support": 6755,
      "Rot": 6756,
      "EPS": 6757,
      "Ġmag": 6758,
      "Ġsimple": 6759,
      "åĢ": 6760,
      "Ġcs": 6761,
      "374": 6762,
      "Ġimplements": 6763,
      "CADE": 6764,
      "Ġtags": 6765,
      "Ġns": 6766,
      "chan": 6767,
      "QUI": 6768,
      "lambda": 6769,
      "ĠWrite": 6770,
      "ĠResource": 6771,
      "deps": 6772,
      "tml": 6773,
      "submit": 6774,
      "Ali": 6775,
      "ynchron": 6776,
      "Visible": 6777,
      "169": 6778,
      "Ġcard": 6779,
      "ä»¶": 6780,
      "ture": 6781,
      "cheme": 6782,
      "ĠMethod": 6783,
      "directory": 6784,
      "Ġchildren": 6785,
      "Ġpara": 6786,
      "clus": 6787,
      "çİ": 6788,
      "0002": 6789,
      "Ġ{};": 6790,
      "verter": 6791,
      "Cursor": 6792,
      "tokens": 6793,
      "Ġdoesn": 6794,
      "Ġfit": 6795,
      "æį®": 6796,
      "fast": 6797,
      "Ġ\\\\": 6798,
      "PIO": 6799,
      "Ã¼": 6800,
      "Ġrunning": 6801,
      "uding": 6802,
      "Ġrefer": 6803,
      "XY": 6804,
      "gres": 6805,
      "Scene": 6806,
      "AU": 6807,
      "ĠMODIFY": 6808,
      "Cons": 6809,
      "Timestamp": 6810,
      "Help": 6811,
      "ife": 6812,
      "FORMAT": 6813,
      "Ġcv": 6814,
      "Ġpixel": 6815,
      "fully": 6816,
      "Ġmember": 6817,
      "Ġtokens": 6818,
      "Ġtrace": 6819,
      "ĠOUT": 6820,
      "Ġcould": 6821,
      "åŃĹ": 6822,
      "Ġmenu": 6823,
      "irr": 6824,
      "Ġtorch": 6825,
      "mediate": 6826,
      "ensure": 6827,
      "poly": 6828,
      "kwargs": 6829,
      "å¿": 6830,
      "ĠOrder": 6831,
      "trait": 6832,
      "ysql": 6833,
      "ĠOptional": 6834,
      "Ġsupported": 6835,
      "ĠHas": 6836,
      "FileName": 6837,
      "Constant": 6838,
      "hist": 6839,
      "143": 6840,
      "cert": 6841,
      "ĠTHEN": 6842,
      "Ġ'_": 6843,
      "à¦¾": 6844,
      "power": 6845,
      "254": 6846,
      "Ġtf": 6847,
      "Cloud": 6848,
      "ĠRegister": 6849,
      "/{": 6850,
      "::*;": 6851,
      "Ġtrain": 6852,
      "ached": 6853,
      "!=": 6854,
      "DU": 6855,
      "pragma": 6856,
      "ASCADE": 6857,
      "Condition": 6858,
      "las": 6859,
      "Ġlook": 6860,
      "é¡": 6861,
      "äºº": 6862,
      "cluding": 6863,
      "čĊčĊĠ": 6864,
      "customer": 6865,
      "ç½®": 6866,
      "Ġcop": 6867,
      "/',": 6868,
      "éĹ´": 6869,
      "Before": 6870,
      "178": 6871,
      "Ġfold": 6872,
      "Ġsite": 6873,
      "ny": 6874,
      "åŁ": 6875,
      "Zero": 6876,
      "226": 6877,
      "got": 6878,
      "Comment": 6879,
      "cnt": 6880,
      "Ġunless": 6881,
      "mx": 6882,
      "Ġpossible": 6883,
      "visible": 6884,
      "006": 6885,
      "delay": 6886,
      "History": 6887,
      "aper": 6888,
      "Ġdelta": 6889,
      "ban": 6890,
      "Ġsuch": 6891,
      "Ġ\"+": 6892,
      "enario": 6893,
      "ctrl": 6894,
      "secret": 6895,
      "Ã¤": 6896,
      "Ġdiag": 6897,
      "jav": 6898,
      "icons": 6899,
      "ki": 6900,
      "Messages": 6901,
      "ĠALTER": 6902,
      "ĠSup": 6903,
      "ĠLO": 6904,
      "losure": 6905,
      "uman": 6906,
      "ĠFA": 6907,
      "utable": 6908,
      "svg": 6909,
      "147": 6910,
      "Ins": 6911,
      "APP": 6912,
      "\":[": 6913,
      "Direction": 6914,
      "console": 6915,
      "Bus": 6916,
      "park": 6917,
      "ĠĠĠĠĠĠĠĠĠĠĠĠĠĠĠĠĠĠĠĠĠ": 6918,
      "éĿ": 6919,
      "ĠUt": 6920,
      "Future": 6921,
      "Distance": 6922,
      "lision": 6923,
      "ĠACTION": 6924,
      "Elements": 6925,
      "åĵ": 6926,
      "LOAD": 6927,
      "ByteString": 6928,
      "Ġterms": 6929,
      "('.": 6930,
      "8888": 6931,
      "\\\"><": 6932,
      "ÑĨ": 6933,
      "toBe": 6934,
      "Instruction": 6935,
      "ĠĠĠĠĠĠĠĠĠĠĠĠĠĠĠĠĠĠĠĠĠĠĠ": 6936,
      "ora": 6937,
      "ĠâĪ": 6938,
      "OPT": 6939,
      "188": 6940,
      "asy": 6941,
      "******": 6942,
      "METH": 6943,
      "Ġccall": 6944,
      "ves": 6945,
      "404": 6946,
      "Ġvisit": 6947,
      "pow": 6948,
      "driver": 6949,
      "Person": 6950,
      "707": 6951,
      "nf": 6952,
      "YYYY": 6953,
      "green": 6954,
      "434": 6955,
      "activity": 6956,
      "Drop": 6957,
      "ĠSend": 6958,
      "<&": 6959,
      "messageInfo": 6960,
      "èĢ": 6961,
      "666": 6962,
      "SG": 6963,
      "Ġenabled": 6964,
      "acro": 6965,
      "URCE": 6966,
      "Groups": 6967,
      "Mov": 6968,
      "Packet": 6969,
      "xD": 6970,
      "uel": 6971,
      "peg": 6972,
      "BUFF": 6973,
      "Bad": 6974,
      "196": 6975,
      "ĠOp": 6976,
      "shop": 6977,
      "ament": 6978,
      "NN": 6979,
      "Ġbest": 6980,
      "TURN": 6981,
      "company": 6982,
      "WA": 6983,
      "ured": 6984,
      "?>": 6985,
      "Ġyy": 6986,
      "expression": 6987,
      "Ġrelease": 6988,
      "cessed": 6989,
      "Nil": 6990,
      "Ġcursor": 6991,
      "isEmpty": 6992,
      "BEGIN": 6993,
      "HP": 6994,
      "ĊĠĠĠĠĠĠĠĠĠĠĠĠĠĠĠĠĠĠĠĠĠĠĠĠĠĠĠĠĠĠĠĠĠĠĠĠĠĠĠĠĠĠĠĠĠĠĠĠĠĠĠĠĠĠĠĠĠĠĠĠĠĠĠĠ": 6995,
      "cipe": 6996,
      "ĠFound": 6997,
      "wire": 6998,
      "diag": 6999,
      "disable": 7000,
      "ĠScal": 7001,
      "Ġ89": 7002,
      "rollers": 7003,
      "Loop": 7004,
      "ĠSymbol": 7005,
      "ĠExec": 7006,
      "foreign": 7007,
      "Ġcounter": 7008,
      "oy": 7009,
      "pages": 7010,
      "COM": 7011,
      "describe": 7012,
      "ĠInc": 7013,
      "Ġenvironment": 7014,
      "Prob": 7015,
      "iet": 7016,
      "Ġcc": 7017,
      "ĠWindow": 7018,
      "Ø§ÙĦ": 7019,
      "atur": 7020,
      "008": 7021,
      "Ġ```": 7022,
      "Press": 7023,
      "ands": 7024,
      "TL": 7025,
      "ILD": 7026,
      "etc": 7027,
      "ç«": 7028,
      "238": 7029,
      "rust": 7030,
      "Ġexisting": 7031,
      "ĠLeft": 7032,
      "Ġmatches": 7033,
      "Ġ[],": 7034,
      "Enter": 7035,
      "Ġmonth": 7036,
      "Ġdocumentation": 7037,
      "ongo": 7038,
      "wx": 7039,
      "wa": 7040,
      "ĠÐ¸": 7041,
      "Ã³n": 7042,
      "andidate": 7043,
      "ograph": 7044,
      "cha": 7045,
      "Ġtile": 7046,
      "Ġenable": 7047,
      "Video": 7048,
      "CLASS": 7049,
      "ĠGeneral": 7050,
      "sequ": 7051,
      "Ġss": 7052,
      "Ġruntime": 7053,
      "Ġscore": 7054,
      "ĠSto": 7055,
      "ĠUSE": 7056,
      "gest": 7057,
      "EMP": 7058,
      "âĢĻ": 7059,
      "ango": 7060,
      "}\")": 7061,
      "Merge": 7062,
      "Ġeven": 7063,
      "Compat": 7064,
      "VAR": 7065,
      "ULE": 7066,
      "Pixel": 7067,
      "inct": 7068,
      "bj": 7069,
      "mr": 7070,
      "Constants": 7071,
      "ĠBuild": 7072,
      "ĠMatrix": 7073,
      "Direct": 7074,
      "Ð¾ÑĢ": 7075,
      "mult": 7076,
      "éĺ": 7077,
      "Ġway": 7078,
      "Typ": 7079,
      "fixed": 7080,
      "Ġms": 7081,
      "ĠAssert": 7082,
      "Ġ47": 7083,
      "ĠMain": 7084,
      "ĠHTTP": 7085,
      "covery": 7086,
      "Ġequ": 7087,
      "catalog": 7088,
      "visit": 7089,
      "Headers": 7090,
      "Math": 7091,
      "Ð·": 7092,
      "Arr": 7093,
      "argv": 7094,
      "Ġprop": 7095,
      "Ġusername": 7096,
      "extract": 7097,
      "ĠEnum": 7098,
      "La": 7099,
      "1024": 7100,
      "007": 7101,
      "Ġ49": 7102,
      "Ġ56": 7103,
      "basic": 7104,
      "Ġaes": 7105,
      "writ": 7106,
      "ĠVk": 7107,
      "Ġgrad": 7108,
      "326": 7109,
      "Ġ{-": 7110,
      "Ctx": 7111,
      "docker": 7112,
      "aced": 7113,
      "igen": 7114,
      "unicip": 7115,
      "Validation": 7116,
      "Tile": 7117,
      "Tests": 7118,
      "Ġprops": 7119,
      "146": 7120,
      "tensor": 7121,
      "Lines": 7122,
      "avel": 7123,
      "iddleware": 7124,
      "rename": 7125,
      "Security": 7126,
      "validation": 7127,
      "(_.": 7128,
      "stderr": 7129,
      "TRGL": 7130,
      "Ġque": 7131,
      "dyn": 7132,
      "æģ": 7133,
      "Ġgoto": 7134,
      "lers": 7135,
      "136": 7136,
      "Encoding": 7137,
      "Ġyield": 7138,
      "ĠSign": 7139,
      "tuple": 7140,
      "foot": 7141,
      "LOAT": 7142,
      "185": 7143,
      "tail": 7144,
      "deserialize": 7145,
      "=@": 7146,
      "Environment": 7147,
      "WIN": 7148,
      "Ġneg": 7149,
      "ĠMin": 7150,
      "Ġir": 7151,
      "ĠCustom": 7152,
      "čĊĉĉĉĉĉ": 7153,
      "ç¬": 7154,
      "(())": 7155,
      "Ġprimary": 7156,
      "lyph": 7157,
      "Constraint": 7158,
      "\\\\\\\"": 7159,
      "324": 7160,
      "Ġrec": 7161,
      "Ïĥ": 7162,
      "Contract": 7163,
      "Ġ55": 7164,
      "references": 7165,
      "304": 7166,
      "166": 7167,
      "BS": 7168,
      "Camera": 7169,
      "Audio": 7170,
      "supported": 7171,
      "MAG": 7172,
      "Ġ<*>": 7173,
      "Ġcorrespon": 7174,
      "macro": 7175,
      "COMMENT": 7176,
      "remote": 7177,
      "ĠNum": 7178,
      "Reset": 7179,
      "FIL": 7180,
      "Ln": 7181,
      "Ġredirect": 7182,
      "priv": 7183,
      "skill": 7184,
      "Poly": 7185,
      "))))": 7186,
      "ĠIndexes": 7187,
      "æĮ": 7188,
      "ĠIter": 7189,
      "à¸Ļ": 7190,
      ".\");": 7191,
      "plugins": 7192,
      "orn": 7193,
      "Ġpair": 7194,
      "Book": 7195,
      "ĠWITH": 7196,
      "ç±»": 7197,
      "ĠClone": 7198,
      "Power": 7199,
      "Xml": 7200,
      "Ġtimes": 7201,
      "Slice": 7202,
      "åįķ": 7203,
      "ĠSw": 7204,
      "åıĸ": 7205,
      "Remote": 7206,
      "actors": 7207,
      "ĠNE": 7208,
      "isc": 7209,
      "Ġkernel": 7210,
      "OM": 7211,
      "writer": 7212,
      "pixel": 7213,
      "Ł¥": 7214,
      "ĠMat": 7215,
      "Ġ'[": 7216,
      "éĶ": 7217,
      "NAM": 7218,
      "ĠParse": 7219,
      "'-": 7220,
      "Ġalways": 7221,
      "eek": 7222,
      "olor": 7223,
      "MEM": 7224,
      "Ġvs": 7225,
      "Split": 7226,
      "ĠDI": 7227,
      "omatic": 7228,
      "264": 7229,
      "seg": 7230,
      "ĠCASCADE": 7231,
      "Ġ44": 7232,
      "ĠBig": 7233,
      "Period": 7234,
      "High": 7235,
      "Ġ'\"": 7236,
      "vey": 7237,
      "Ġdefinition": 7238,
      "777": 7239,
      "Ġ88": 7240,
      "udit": 7241,
      "VR": 7242,
      "volume": 7243,
      "BIN": 7244,
      "assertEquals": 7245,
      "ox": 7246,
      "ĠFC": 7247,
      "ĠBit": 7248,
      "ĠTag": 7249,
      "170": 7250,
      "urch": 7251,
      "MAR": 7252,
      "Ð»Ð¸": 7253,
      "UTF": 7254,
      "'].": 7255,
      "direction": 7256,
      "Ġremote": 7257,
      "210": 7258,
      "extension": 7259,
      "lm": 7260,
      "ÐµÑĤ": 7261,
      "ĠProto": 7262,
      "Ġtiny": 7263,
      "och": 7264,
      "dw": 7265,
      "usize": 7266,
      "den": 7267,
      "Private": 7268,
      "Ġnote": 7269,
      "compile": 7270,
      "havior": 7271,
      "catch": 7272,
      "ĠIMP": 7273,
      "craft": 7274,
      "acket": 7275,
      "abilities": 7276,
      "reet": 7277,
      "ips": 7278,
      "Ġà¦": 7279,
      "ĠUN": 7280,
      "\"].": 7281,
      "ĠTEST": 7282,
      "forEach": 7283,
      "ORY": 7284,
      "uting": 7285,
      "tv": 7286,
      "IEW": 7287,
      "rev": 7288,
      "Folder": 7289,
      "Place": 7290,
      "Java": 7291,
      "ACC": 7292,
      "CONNECTION": 7293,
      "Ġsocket": 7294,
      "gree": 7295,
      "employ": 7296,
      "Ġ\"(": 7297,
      "CALL": 7298,
      "325": 7299,
      "Ġidentifier": 7300,
      "Nothing": 7301,
      "FK": 7302,
      "DP": 7303,
      "take": 7304,
      "frag": 7305,
      "chool": 7306,
      "DER": 7307,
      "198": 7308,
      "Ġfeatures": 7309,
      "10000": 7310,
      "des": 7311,
      "_);": 7312,
      "RGB": 7313,
      "usic": 7314,
      "ĠRecord": 7315,
      "mas": 7316,
      "Asset": 7317,
      "ĠComponent": 7318,
      "Aut": 7319,
      "ĠIl": 7320,
      "Lower": 7321,
      "ying": 7322,
      "è¦": 7323,
      "Ġperiod": 7324,
      "exist": 7325,
      "ifiers": 7326,
      "bine": 7327,
      "icip": 7328,
      "lapse": 7329,
      "189": 7330,
      "'},": 7331,
      "tm": 7332,
      "184": 7333,
      "tty": 7334,
      "Sql": 7335,
      "available": 7336,
      "Ġcontaining": 7337,
      "spark": 7338,
      "Ġmulti": 7339,
      "ourse": 7340,
      "Sound": 7341,
      "aging": 7342,
      "getName": 7343,
      "ĊĠĠĠĠĠĠĠĠĠĠĠĠĊĠĠĠĠĠĠĠĠĠĠĠ": 7344,
      "_[": 7345,
      "Ġda": 7346,
      "vp": 7347,
      "Src": 7348,
      "'}": 7349,
      "Identity": 7350,
      "ĠDatabase": 7351,
      "ĠMake": 7352,
      "Ġarch": 7353,
      "Cho": 7354,
      "Ġ2015": 7355,
      "ĠÐº": 7356,
      "oment": 7357,
      "ders": 7358,
      "sqrt": 7359,
      "emit": 7360,
      "ä¿¡": 7361,
      "Tick": 7362,
      "Ġdepth": 7363,
      "ĠPost": 7364,
      "Allow": 7365,
      "INIT": 7366,
      "Ġneeded": 7367,
      "Ġfoo": 7368,
      "```": 7369,
      "before": 7370,
      "optional": 7371,
      "ĊĠĠĠĠĠĠĠĠĠĠĠĠĠĠĠĠĠĠĠĠĠĠĠĠĠĠĠĠĠĠĠĠĠĠ": 7372,
      "248": 7373,
      "Ġadditional": 7374,
      "ough": 7375,
      "ĠTEXT": 7376,
      "Prod": 7377,
      "COLOR": 7378,
      "(['": 7379,
      ":\\\"\\\";": 7380,
      "ories": 7381,
      "Linear": 7382,
      "erature": 7383,
      "WOR": 7384,
      "Exit": 7385,
      "aid": 7386,
      "Ġnorm": 7387,
      "655": 7388,
      "hide": 7389,
      "rosoft": 7390,
      "Shared": 7391,
      "ĠUNIQUE": 7392,
      "&&": 7393,
      "ĠÐ´": 7394,
      "ĠNe": 7395,
      "CLUD": 7396,
      "Ġduration": 7397,
      "Ġextra": 7398,
      "łģ": 7399,
      "152": 7400,
      "ĠiNdEx": 7401,
      "ience": 7402,
      "177": 7403,
      "ĠLIMIT": 7404,
      "ĠFB": 7405,
      "fac": 7406,
      "Speed": 7407,
      "Unmarshal": 7408,
      "schedule": 7409,
      "ĠEnt": 7410,
      "igrations": 7411,
      "mid": 7412,
      "Ġforce": 7413,
      "identity": 7414,
      "Elem": 7415,
      "ĠâĢ": 7416,
      "Ġ}.": 7417,
      "nx": 7418,
      "/.": 7419,
      "Put": 7420,
      "cop": 7421,
      "Ġrgb": 7422,
      "topic": 7423,
      "Fail": 7424,
      "activ": 7425,
      "alyt": 7426,
      "except": 7427,
      "MC": 7428,
      "correct": 7429,
      "Ġng": 7430,
      "çĶ¨æĪ·": 7431,
      "pet": 7432,
      "195": 7433,
      "floor": 7434,
      "Scan": 7435,
      "series": 7436,
      "ĠINTE": 7437,
      "quote": 7438,
      "REF": 7439,
      ";</": 7440,
      "Side": 7441,
      "anced": 7442,
      "dy": 7443,
      "cpy": 7444,
      "Ð°ÑĤ": 7445,
      "actual": 7446,
      "ĠDIS": 7447,
      "ĠModule": 7448,
      "Ġrc": 7449,
      "227": 7450,
      "æı": 7451,
      "Animation": 7452,
      "===": 7453,
      "Ġcondition": 7454,
      "NONE": 7455,
      "Ġ).": 7456,
      "/(": 7457,
      "Contact": 7458,
      "vari": 7459,
      "levels": 7460,
      "Span": 7461,
      "Metric": 7462,
      "ADER": 7463,
      "Ġcost": 7464,
      "']);": 7465,
      "Ġcos": 7466,
      "scroll": 7467,
      "Ġ\"--": 7468,
      "Execution": 7469,
      "percent": 7470,
      "Ġ\";": 7471,
      "resses": 7472,
      "194": 7473,
      "åĿ": 7474,
      "ĉĉĉĉĉ": 7475,
      "\\\":[": 7476,
      "ĠGroup": 7477,
      "Ġinterval": 7478,
      "ĠBe": 7479,
      "relude": 7480,
      "extra": 7481,
      ":\",": 7482,
      "::::": 7483,
      "`))": 7484,
      "backend": 7485,
      "formed": 7486,
      ",(": 7487,
      "756": 7488,
      "une": 7489,
      "crete": 7490,
      "ĠTensor": 7491,
      "Ġindic": 7492,
      "Ġzip": 7493,
      "unsafe": 7494,
      "Ġpc": 7495,
      "ĠMax": 7496,
      "DELETE": 7497,
      "Annotation": 7498,
      "čĊĠĠĠĠĠĠĠĠ": 7499,
      "328": 7500,
      "uro": 7501,
      "atis": 7502,
      "Ġdecimal": 7503,
      "Ident": 7504,
      "}{": 7505,
      "GT": 7506,
      "uda": 7507,
      "etter": 7508,
      "like": 7509,
      "definition": 7510,
      "Cost": 7511,
      "wrapper": 7512,
      "jet": 7513,
      "Ġoptim": 7514,
      "original": 7515,
      "Ġtick": 7516,
      "states": 7517,
      "Shift": 7518,
      "Ġ\"'": 7519,
      "Ġseed": 7520,
      "ĠTask": 7521,
      "Ġplugin": 7522,
      "ĠBl": 7523,
      "Ġzone": 7524,
      "yes": 7525,
      "compute": 7526,
      "sent": 7527,
      "010": 7528,
      "stmt": 7529,
      "lik": 7530,
      "142": 7531,
      "Ġhel": 7532,
      "åĨħ": 7533,
      "Segment": 7534,
      "åī": 7535,
      "Done": 7536,
      "Ġ'{": 7537,
      "vl": 7538,
      "Ġ199": 7539,
      "mouse": 7540,
      "rupt": 7541,
      "ä¸Ĭ": 7542,
      "Ġ([]": 7543,
      "Fix": 7544,
      "trigger": 7545,
      "toggle": 7546,
      "ĠElement": 7547,
      "Ġfixed": 7548,
      "anaged": 7549,
      "LP": 7550,
      "?)": 7551,
      "Wr": 7552,
      "Ġface": 7553,
      "ogram": 7554,
      "Ġorigin": 7555,
      "azon": 7556,
      "302": 7557,
      "Ġchanged": 7558,
      "Ġrate": 7559,
      "789": 7560,
      "PARAM": 7561,
      "Ġkwargs": 7562,
      "LEFT": 7563,
      "Ġreceive": 7564,
      "Ġprec": 7565,
      "CLUDING": 7566,
      "Mapper": 7567,
      "40000": 7568,
      "Vert": 7569,
      "ÑĪ": 7570,
      "čĊčĊĉ": 7571,
      "Ġreceived": 7572,
      "forward": 7573,
      "LIN": 7574,
      "Ġer": 7575,
      "undef": 7576,
      "pear": 7577,
      "identifier": 7578,
      "Ġtt": 7579,
      "Ġvolupt": 7580,
      "Ġfac": 7581,
      "Male": 7582,
      "legend": 7583,
      "Snapshot": 7584,
      "uby": 7585,
      "notification": 7586,
      "Ġshared": 7587,
      "Chunk": 7588,
      ")\")": 7589,
      "Dispatch": 7590,
      "ceed": 7591,
      "Summary": 7592,
      "Ġprice": 7593,
      "DECL": 7594,
      "ĠPART": 7595,
      "Rules": 7596,
      ",]": 7597,
      "router": 7598,
      "FIELD": 7599,
      "tar": 7600,
      "blog": 7601,
      "alette": 7602,
      "redit": 7603,
      "ðŁ": 7604,
      "Ġdistribution": 7605,
      "QUEST": 7606,
      "Ġ59": 7607,
      "èĩª": 7608,
      "ãĥ¼": 7609,
      "ĠRGB": 7610,
      "ĠDep": 7611,
      "eth": 7612,
      "construct": 7613,
      "assertEqual": 7614,
      "Ġbelow": 7615,
      "ABLES": 7616,
      "Pipeline": 7617,
      "Errors": 7618,
      "å»": 7619,
      "-(": 7620,
      "Ġvertex": 7621,
      "\"][": 7622,
      "LU": 7623,
      "ç®¡": 7624,
      "Ġconstruct": 7625,
      "sleep": 7626,
      "220": 7627,
      "Ġlow": 7628,
      "186": 7629,
      "Ġrect": 7630,
      "Ġsepar": 7631,
      "ĠUI": 7632,
      "emo": 7633,
      "vertex": 7634,
      "Trigger": 7635,
      "progress": 7636,
      "RECT": 7637,
      "lished": 7638,
      "Ġ\"../": 7639,
      "'=>": 7640,
      "Hand": 7641,
      "ali": 7642,
      "327": 7643,
      "energy": 7644,
      "Ãª": 7645,
      "compare": 7646,
      "åı¯": 7647,
      "åĬł": 7648,
      "radius": 7649,
      "ĠshouldBe": 7650,
      "Ġrs": 7651,
      "365": 7652,
      "ipher": 7653,
      "inputs": 7654,
      "UDE": 7655,
      "ĠCreated": 7656,
      "permission": 7657,
      "Ġseconds": 7658,
      "}>": 7659,
      "ecess": 7660,
      "Ġadmin": 7661,
      "poch": 7662,
      "Renderer": 7663,
      "?(": 7664,
      "\\/": 7665,
      "hello": 7666,
      "texture": 7667,
      "176": 7668,
      "509": 7669,
      "dialog": 7670,
      "LENG": 7671,
      "aking": 7672,
      "checked": 7673,
      "368": 7674,
      "åıĳ": 7675,
      "Ġsync": 7676,
      "sb": 7677,
      "GROUP": 7678,
      "Other": 7679,
      "Expected": 7680,
      "rier": 7681,
      "Align": 7682,
      "Coefficient": 7683,
      "ond": 7684,
      "EVENT": 7685,
      "ernet": 7686,
      "eration": 7687,
      "=\"<?": 7688,
      "ĠINTEGER": 7689,
      "Ġrequests": 7690,
      "grpc": 7691,
      "Ġchanges": 7692,
      "Ġ>>=": 7693,
      "Ġpermission": 7694,
      "dims": 7695,
      "FP": 7696,
      "Center": 7697,
      "mployee": 7698,
      "Scalar": 7699,
      "Resources": 7700,
      "eries": 7701,
      "Begin": 7702,
      "Ġconstraint": 7703,
      "codes": 7704,
      "ĠNetwork": 7705,
      "servable": 7706,
      "æķ°æį®": 7707,
      "Uri": 7708,
      "Ġtuple": 7709,
      "ores": 7710,
      "Ġnav": 7711,
      "Secret": 7712,
      "Permission": 7713,
      "Children": 7714,
      "zer": 7715,
      "åĴ": 7716,
      "__,": 7717,
      "mitted": 7718,
      "Ġstandard": 7719,
      "GS": 7720,
      "Exist": 7721,
      "nr": 7722,
      "verify": 7723,
      "ascript": 7724,
      "\".\"": 7725,
      "generic": 7726,
      "306": 7727,
      "Vars": 7728,
      "384": 7729,
      "ULAR": 7730,
      "products": 7731,
      "ìĿ": 7732,
      "Ð³": 7733,
      "ifec": 7734,
      "spr": 7735,
      "LATION": 7736,
      "->_": 7737,
      "Ġupper": 7738,
      "signal": 7739,
      "changed": 7740,
      "ORDER": 7741,
      "å¥": 7742,
      "627": 7743,
      "ĠPO": 7744,
      "odo": 7745,
      "amazon": 7746,
      "ĠCor": 7747,
      "modified": 7748,
      "Ġ300": 7749,
      "Integral": 7750,
      "Ġanother": 7751,
      "]='": 7752,
      "TABLE": 7753,
      "ĠCC": 7754,
      "Delay": 7755,
      "atan": 7756,
      "Ġvia": 7757,
      "ATOR": 7758,
      "ĠSimple": 7759,
      "aran": 7760,
      "ara": 7761,
      "blob": 7762,
      "239": 7763,
      "CONT": 7764,
      "Ġprofile": 7765,
      "scripts": 7766,
      "190": 7767,
      "Win": 7768,
      "Ġendl": 7769,
      "Ġuri": 7770,
      "avg": 7771,
      "ployment": 7772,
      "ifecycle": 7773,
      "wordpress": 7774,
      "FW": 7775,
      "Rows": 7776,
      "Ġscan": 7777,
      "bucket": 7778,
      "åĩº": 7779,
      "à¸£": 7780,
      ")>": 7781,
      "Ġinputs": 7782,
      "jac": 7783,
      "Ġverbose": 7784,
      "Ġentries": 7785,
      "payment": 7786,
      "Ġwx": 7787,
      "Ġmapping": 7788,
      "chart": 7789,
      "Ġaccept": 7790,
      "Cast": 7791,
      "aren": 7792,
      "blocks": 7793,
      "033": 7794,
      "ti": 7795,
      "\")),": 7796,
      "packages": 7797,
      "mutex": 7798,
      "Ġtermin": 7799,
      "187": 7800,
      "omial": 7801,
      "Setting": 7802,
      "XXX": 7803,
      "Cancel": 7804,
      "ĠwireType": 7805,
      "Proc": 7806,
      "latest": 7807,
      "Ġ...)": 7808,
      "Ġchain": 7809,
      "Push": 7810,
      "anspose": 7811,
      "two": 7812,
      "Sys": 7813,
      "Ñĸ": 7814,
      "Med": 7815,
      "ANGE": 7816,
      "zen": 7817,
      "umpy": 7818,
      "Ġ>>>": 7819,
      "Ġallowed": 7820,
      "197": 7821,
      "ĠMan": 7822,
      "weights": 7823,
      "editor": 7824,
      "quires": 7825,
      "getString": 7826,
      "Fill": 7827,
      "isk": 7828,
      "ĠStream": 7829,
      "aves": 7830,
      "ĠHH": 7831,
      "Ġlogging": 7832,
      "Ġtinyint": 7833,
      "Ġtrigger": 7834,
      "counts": 7835,
      "][\"": 7836,
      "Println": 7837,
      "linear": 7838,
      "Ġlazy": 7839,
      "TRAN": 7840,
      "Ġmesh": 7841,
      "ĠWork": 7842,
      "Qual": 7843,
      "ople": 7844,
      "ighbor": 7845,
      "initions": 7846,
      "stage": 7847,
      "ĠCOLUMN": 7848,
      "Platform": 7849,
      "COMM": 7850,
      "============": 7851,
      "esis": 7852,
      "Ġowner": 7853,
      "Generated": 7854,
      "Ġextension": 7855,
      "setting": 7856,
      "153": 7857,
      "ĠWhen": 7858,
      "emy": 7859,
      "Month": 7860,
      "Ġdetermin": 7861,
      "Home": 7862,
      "ĠApplication": 7863,
      "CV": 7864,
      "constraint": 7865,
      "nothing": 7866,
      "Driver": 7867,
      "curr": 7868,
      "fm": 7869,
      "FRA": 7870,
      "psum": 7871,
      "Strategy": 7872,
      "utdown": 7873,
      "èµ": 7874,
      "LENGTH": 7875,
      "ste": 7876,
      "Ġ}),": 7877,
      "Ġà¤": 7878,
      "888": 7879,
      "accept": 7880,
      "Ġcomplete": 7881,
      "237": 7882,
      "sem": 7883,
      "åĬ¡": 7884,
      "linux": 7885,
      "','','','": 7886,
      "ctl": 7887,
      "ĠSc": 7888,
      "Cr": 7889,
      "ĊĉĉĠĠĠ": 7890,
      "gi": 7891,
      "Ġ85": 7892,
      "Ġ70": 7893,
      "amet": 7894,
      "Formatter": 7895,
      "ĠFuture": 7896,
      "hh": 7897,
      "726": 7898,
      "yr": 7899,
      "orrow": 7900,
      "Ġ58": 7901,
      "233": 7902,
      "ustr": 7903,
      "interpret": 7904,
      "æĽ": 7905,
      "ä½ľ": 7906,
      "ĠPlayer": 7907,
      "Ġcast": 7908,
      "æĭ": 7909,
      "cx": 7910,
      "ĠGr": 7911,
      "Machine": 7912,
      "dep": 7913,
      "MON": 7914,
      "yaml": 7915,
      "segment": 7916,
      "uck": 7917,
      "Ġangle": 7918,
      "equ": 7919,
      "war": 7920,
      "307": 7921,
      "BUFFER": 7922,
      "ĠDet": 7923,
      "Actions": 7924,
      "Ġsetting": 7925,
      "factory": 7926,
      "ĠPartialEq": 7927,
      "\"+": 7928,
      "Origin": 7929,
      "Female": 7930,
      "Hook": 7931,
      "oi": 7932,
      "POSE": 7933,
      "Î±": 7934,
      "icture": 7935,
      "ç¤": 7936,
      "Ġbg": 7937,
      "share": 7938,
      "Ġlookup": 7939,
      "alled": 7940,
      "Information": 7941,
      "Ð¾Ð´": 7942,
      "Variant": 7943,
      "hl": 7944,
      "Ġmost": 7945,
      "2009": 7946,
      "kotlin": 7947,
      "Throw": 7948,
      "RESULTS": 7949,
      "Missing": 7950,
      "ads": 7951,
      "Ġspecify": 7952,
      "HashMap": 7953,
      "Repo": 7954,
      "ĠCAST": 7955,
      "GA": 7956,
      "Ġcontroller": 7957,
      "Export": 7958,
      "PLAY": 7959,
      "æľ¬": 7960,
      "iso": 7961,
      "Ġbus": 7962,
      "Ġstats": 7963,
      "dark": 7964,
      "Ġforeach": 7965,
      "Ġkotlin": 7966,
      "Ġtimer": 7967,
      "############": 7968,
      "654": 7969,
      "IMP": 7970,
      "direct": 7971,
      "Ġbranch": 7972,
      "360": 7973,
      "ĠConst": 7974,
      "Lat": 7975,
      "Dist": 7976,
      "olved": 7977,
      "ĠHashMap": 7978,
      "Bottom": 7979,
      "cape": 7980,
      "Fixed": 7981,
      "por": 7982,
      "riteria": 7983,
      "LAY": 7984,
      "çĻ": 7985,
      "ymm": 7986,
      "329": 7987,
      "EXEC": 7988,
      "steps": 7989,
      "bum": 7990,
      "ĊĠĠĠĠĠĠĠĠĠĠĠĠĠĠĠĠĠĠĠĠĠĠĠĠĠĠĠĠĠĠĠĠĠĠĠĠ": 7991,
      "ĠConvert": 7992,
      "bank": 7993,
      "aN": 7994,
      "Ġiss": 7995,
      "Ġutils": 7996,
      "Ġ51": 7997,
      "=@@": 7998,
      "ifference": 7999,
      "è®¾": 8000,
      "ulator": 8001,
      "union": 8002,
      "Ġë": 8003,
      "uced": 8004,
      "descriptor": 8005,
      "Ġtbl": 8006,
      "Decimal": 8007,
      "ĠVer": 8008,
      "ĠFind": 8009,
      "Ġpick": 8010,
      "652": 8011,
      "=\"/": 8012,
      "æĸ¹": 8013,
      "ĠĠĠĠĠĠĠĠĠĠĠĠĠĠĠĠĠĠĠĠĠĠ": 8014,
      "Ġbs": 8015,
      "scene": 8016,
      "Ġ(((": 8017,
      "Ġspecial": 8018,
      "paths": 8019,
      "Ġlang": 8020,
      "}'": 8021,
      "mooth": 8022,
      "icode": 8023,
      "Complete": 8024,
      "pf": 8025,
      "Øª": 8026,
      "usage": 8027,
      ".','": 8028,
      "Ġresolve": 8029,
      "rgb": 8030,
      "unpack": 8031,
      "Ġmeans": 8032,
      "syn": 8033,
      "Ġsz": 8034,
      "encoding": 8035,
      "translate": 8036,
      "chor": 8037,
      "eno": 8038,
      "Complex": 8039,
      "entries": 8040,
      "fol": 8041,
      "TRIB": 8042,
      "watch": 8043,
      "Ġ105": 8044,
      "avor": 8045,
      "=\"$": 8046,
      "Ġcar": 8047,
      "osite": 8048,
      "ocial": 8049,
      "za": 8050,
      "lr": 8051,
      "644": 8052,
      "sop": 8053,
      "extend": 8054,
      "Library": 8055,
      "Ġdolor": 8056,
      "Ġindices": 8057,
      "216": 8058,
      "645": 8059,
      "240": 8060,
      "WH": 8061,
      "WHERE": 8062,
      "ĠÃ": 8063,
      "uplicate": 8064,
      "Ġcontents": 8065,
      "ĠInto": 8066,
      "idad": 8067,
      "Objects": 8068,
      "213": 8069,
      "freq": 8070,
      "ĠCCC": 8071,
      "Depth": 8072,
      "Ġsur": 8073,
      "ĠÑĤ": 8074,
      "hat": 8075,
      "elocity": 8076,
      "ĠGlobal": 8077,
      "Tok": 8078,
      "endpoint": 8079,
      "<=": 8080,
      "ĠTree": 8081,
      "gz": 8082,
      "ssl": 8083,
      "245": 8084,
      "NESS": 8085,
      "214": 8086,
      "æģ¯": 8087,
      "ä»¥": 8088,
      "tech": 8089,
      "Printf": 8090,
      "ĠProcess": 8091,
      "external": 8092,
      "categories": 8093,
      "dirname": 8094,
      "Ġds": 8095,
      "ĠRemove": 8096,
      "Ġvolume": 8097,
      "ifies": 8098,
      "embed": 8099,
      "()[": 8100,
      "ici": 8101,
      "scalajs": 8102,
      "MSG": 8103,
      "protected": 8104,
      "Ġsets": 8105,
      "Ġresources": 8106,
      "cart": 8107,
      "ĊĠĠĠĠĠĠĠĠĠĠĠĠĠĠĠĠĠĠĠĠĠĠĠĠĠĠĠĠĠĠĠĠĠĠĠĠĠĠĠĠ": 8108,
      "Ġcls": 8109,
      "Ġ43": 8110,
      "Est": 8111,
      "ko": 8112,
      "cu": 8113,
      "hw": 8114,
      "packet": 8115,
      "123456": 8116,
      "Ġlab": 8117,
      "lems": 8118,
      "Destroy": 8119,
      "ĠLL": 8120,
      "Ġ75": 8121,
      "Ġfolder": 8122,
      "Wire": 8123,
      "Ġclick": 8124,
      "ç®¡çĲĨ": 8125,
      "TAR": 8126,
      "UBLE": 8127,
      "atalog": 8128,
      "Ġsqrt": 8129,
      "ĠLanguage": 8130,
      "ä¾": 8131,
      "Ġ46": 8132,
      "Jo": 8133,
      "repository": 8134,
      "Ð½Ñĭ": 8135,
      "ampler": 8136,
      "DY": 8137,
      "ITH": 8138,
      "ili": 8139,
      "å¯¹": 8140,
      "'re": 8141,
      "Metrics": 8142,
      "ĠBuffer": 8143,
      "resize": 8144,
      "Ġtypeof": 8145,
      "optim": 8146,
      "trl": 8147,
      "warning": 8148,
      "ifact": 8149,
      "SN": 8150,
      "GU": 8151,
      "Exists": 8152,
      "VEL": 8153,
      "Ġconcat": 8154,
      "181": 8155,
      "AWS": 8156,
      "Ġrm": 8157,
      "ĠLink": 8158,
      "ĠLIC": 8159,
      "Optional": 8160,
      "publish": 8161,
      "UNIT": 8162,
      "è¦ģ": 8163,
      "259": 8164,
      "best": 8165,
      "ĠRuntime": 8166,
      "Ġtoo": 8167,
      "Ġreason": 8168,
      "Rep": 8169,
      "646": 8170,
      "fake": 8171,
      "ĠOb": 8172,
      "ToString": 8173,
      "Ġdelay": 8174,
      "gc": 8175,
      "ivery": 8176,
      "Ġmaterial": 8177,
      "Ġboost": 8178,
      "ĠArrayList": 8179,
      "MESS": 8180,
      "]).": 8181,
      "pulumi": 8182,
      "Face": 8183,
      "audio": 8184,
      "missions": 8185,
      "metrics": 8186,
      "Ġcalcul": 8187,
      "units": 8188,
      "gene": 8189,
      "moe": 8190,
      "Room": 8191,
      ";\">": 8192,
      "çĤ": 8193,
      "Ġpanel": 8194,
      "288": 8195,
      "ĠFD": 8196,
      "\")))": 8197,
      "MU": 8198,
      "________________": 8199,
      "Health": 8200,
      "Encode": 8201,
      "Ġdump": 8202,
      "Sem": 8203,
      "otes": 8204,
      "selection": 8205,
      "HOME": 8206,
      "eded": 8207,
      "ĠâīĪ": 8208,
      "åŀ": 8209,
      "zon": 8210,
      "demo": 8211,
      "Ġcharacters": 8212,
      "ipped": 8213,
      "ĠNUM": 8214,
      "Encoder": 8215,
      "ĠExp": 8216,
      "acer": 8217,
      "Ġlambda": 8218,
      "Ġ54": 8219,
      "tang": 8220,
      "Ġgit": 8221,
      "Ġendpoint": 8222,
      "228": 8223,
      "Ġ\"@": 8224,
      "HAND": 8225,
      "ROOT": 8226,
      "]['": 8227,
      "294": 8228,
      "Ġnumbers": 8229,
      "Router": 8230,
      ")$": 8231,
      "ĊĠĠĠĠĠĠĠĠĠĠĠĠĠĠĠĠĠĠĠĠĠĠĠĠĠĠĠĠĠĠĠĠĠĠĠĠĠ": 8232,
      "Ġpublish": 8233,
      "logs": 8234,
      "äºĨ": 8235,
      "=\"\"": 8236,
      "Ġwrong": 8237,
      "[_": 8238,
      "ryption": 8239,
      "CHE": 8240,
      "LOB": 8241,
      "ffffff": 8242,
      "Validator": 8243,
      "iltin": 8244,
      "Schedule": 8245,
      "Arch": 8246,
      "Ġcolors": 8247,
      "Axis": 8248,
      "StrLn": 8249,
      "Stage": 8250,
      "ĠĠĠĠĠĠĠĠĠĠĠĠĠĠĠĠĠĠĠĠĠĠĠĠĠ": 8251,
      "æĹ¶éĹ´": 8252,
      "Ġprogress": 8253,
      "Ġcalculate": 8254,
      "182": 8255,
      "ĠLay": 8256,
      "latin": 8257,
      "raise": 8258,
      "Ġalias": 8259,
      "ONT": 8260,
      "Ġcout": 8261,
      "'',": 8262,
      "Anim": 8263,
      "Extra": 8264,
      "Ġlogin": 8265,
      "ĠSec": 8266,
      "Theme": 8267,
      "Ġstored": 8268,
      "Ġ!(": 8269,
      "integr": 8270,
      "errupt": 8271,
      "astic": 8272,
      "ĠSelect": 8273,
      "Ġboard": 8274,
      "Ġcompare": 8275,
      "bootstrap": 8276,
      "229": 8277,
      "2006": 8278,
      "RP": 8279,
      "Undefined": 8280,
      "ĠPage": 8281,
      "ĠPre": 8282,
      "ĊĠĠĠĠĠĠĠĠĠĠĠĠĠĠĠĠĠĠĠĠĠĠĠĠĠĠĠĠĠĠĠĠĠĠĠĠĠĠĠĠĠĠĠĠĠĠĠĠĠĠĠ": 8283,
      "NotNull": 8284,
      "Bean": 8285,
      "ĠCE": 8286,
      "BOOL": 8287,
      "ading": 8288,
      "402": 8289,
      "ĠImp": 8290,
      "å»º": 8291,
      "spawn": 8292,
      "reply": 8293,
      "ados": 8294,
      "Ġmeasure": 8295,
      "Void": 8296,
      "Else": 8297,
      "Ġrank": 8298,
      "Ġam": 8299,
      "::_": 8300,
      "HS": 8301,
      "owned": 8302,
      "sq": 8303,
      "345": 8304,
      "uses": 8305,
      "gsub": 8306,
      "Ġintegr": 8307,
      "Ġretrie": 8308,
      "Ġbottom": 8309,
      "KEN": 8310,
      "Ġpower": 8311,
      "Alpha": 8312,
      "Family": 8313,
      "çŃ": 8314,
      "ĠGen": 8315,
      "Ġsignal": 8316,
      "åħ¥": 8317,
      "Sig": 8318,
      "Ġ``": 8319,
      "cycl": 8320,
      "Rest": 8321,
      "Describe": 8322,
      "ĠÏĢ": 8323,
      "Ġll": 8324,
      "illis": 8325,
      "Ġmb": 8326,
      "193": 8327,
      "'\\": 8328,
      "examples": 8329,
      "CPU": 8330,
      "HOST": 8331,
      "ita": 8332,
      "ä¸ĭ": 8333,
      "Ġreadonly": 8334,
      "Ġneeds": 8335,
      "cursive": 8336,
      ">=": 8337,
      "stone": 8338,
      "initialize": 8339,
      "AUTO": 8340,
      "stdout": 8341,
      "æ¬": 8342,
      "VK": 8343,
      "gnore": 8344,
      "133": 8345,
      "Ġtables": 8346,
      "subscribe": 8347,
      "Ġspan": 8348,
      "tection": 8349,
      "threshold": 8350,
      "Ġ[-": 8351,
      "ibr": 8352,
      "uv": 8353,
      "Ġplatform": 8354,
      "009": 8355,
      "onal": 8356,
      "Ġreflect": 8357,
      "åĪ°": 8358,
      "Ġ000": 8359,
      "043": 8360,
      "..\"": 8361,
      "agrave": 8362,
      "ĠLICENSE": 8363,
      "Equ": 8364,
      "Ġ52": 8365,
      "244": 8366,
      "èĥ½": 8367,
      "Ġmaybe": 8368,
      "SImport": 8369,
      "outine": 8370,
      "Ġfailure": 8371,
      "Services": 8372,
      "FLOAT": 8373,
      "Make": 8374,
      "reater": 8375,
      "Ġdid": 8376,
      "ErrUnexpected": 8377,
      "ĠFe": 8378,
      "Used": 8379,
      "Ġdot": 8380,
      "~~~~~~~~": 8381,
      "surface": 8382,
      "Ġpretty": 8383,
      "ĠSize": 8384,
      "Signature": 8385,
      "Ġproblem": 8386,
      "ipping": 8387,
      "Ġencoding": 8388,
      "åĴĮ": 8389,
      "TM": 8390,
      "pped": 8391,
      "icles": 8392,
      "Ġpredict": 8393,
      "Ġvariant": 8394,
      "ĠAddress": 8395,
      "outh": 8396,
      "ĠGET": 8397,
      "Æ°á»": 8398,
      "(\"[": 8399,
      "Ġpol": 8400,
      "mv": 8401,
      "dispatch": 8402,
      "clock": 8403,
      "Variables": 8404,
      "atable": 8405,
      "Ġduring": 8406,
      "ĠUINT": 8407,
      "implicit": 8408,
      "Modal": 8409,
      "Fire": 8410,
      "anger": 8411,
      "IB": 8412,
      "arrow": 8413,
      "æĹ¥": 8414,
      "Ġpg": 8415,
      "Customer": 8416,
      "ErrUnexpectedEOF": 8417,
      "409": 8418,
      "369": 8419,
      "arguments": 8420,
      "<<<<": 8421,
      "vendor": 8422,
      "uploads": 8423,
      "anded": 8424,
      "ĠFilter": 8425,
      "So": 8426,
      "Ġuses": 8427,
      "Upload": 8428,
      "{}\",": 8429,
      "æ°": 8430,
      "alytics": 8431,
      "vk": 8432,
      "irth": 8433,
      "ĠPUR": 8434,
      "aring": 8435,
      "rypto": 8436,
      "INVALID": 8437,
      "Ġpt": 8438,
      "ĠEntity": 8439,
      "Lookup": 8440,
      "Site": 8441,
      "Ġipairs": 8442,
      "VA": 8443,
      "Ġflow": 8444,
      "ĠMER": 8445,
      "Ġ'../../": 8446,
      "ï¼ī": 8447,
      "DK": 8448,
      "åľ°": 8449,
      "ever": 8450,
      "Ġsteps": 8451,
      "Ġpacket": 8452,
      ".`": 8453,
      "Apply": 8454,
      "precated": 8455,
      "ĠBUT": 8456,
      "388": 8457,
      "âĸĪ": 8458,
      "Bounds": 8459,
      "Ġrelative": 8460,
      "Ġplaceholder": 8461,
      "prov": 8462,
      "ĠPrint": 8463,
      "Native": 8464,
      "Accept": 8465,
      "Ġil": 8466,
      "roles": 8467,
      "Mic": 8468,
      "arison": 8469,
      "åı·": 8470,
      "ĠĊĉĉ": 8471,
      "ping": 8472,
      "BACK": 8473,
      "FX": 8474,
      "zeros": 8475,
      "Ġpur": 8476,
      "ĠĊĠĠĠĠ": 8477,
      "211": 8478,
      "Ġ41": 8479,
      "ĠExample": 8480,
      "wall": 8481,
      "ĠSC": 8482,
      "173": 8483,
      "ĠRoute": 8484,
      "Ġensure": 8485,
      "ATED": 8486,
      "Example": 8487,
      "]\",": 8488,
      "ä¼ļ": 8489,
      "Ġrepo": 8490,
      ")],": 8491,
      "Bel": 8492,
      "Ð¾ÑĤ": 8493,
      "partment": 8494,
      "Ġbad": 8495,
      "Hello": 8496,
      "ĠInstance": 8497,
      "Ġ256": 8498,
      "VIS": 8499,
      "Assign": 8500,
      "Ġincluded": 8501,
      "ãĤĴ": 8502,
      "FAIL": 8503,
      "inator": 8504,
      "163": 8505,
      "éĥ": 8506,
      ">>,": 8507,
      "áº£": 8508,
      "boost": 8509,
      "Ġcommit": 8510,
      "2008": 8511,
      "julia": 8512,
      "ASK": 8513,
      "Instances": 8514,
      "NET": 8515,
      "afka": 8516,
      "Mag": 8517,
      "AW": 8518,
      "generated": 8519,
      "Bot": 8520,
      "toList": 8521,
      "Convert": 8522,
      "aving": 8523,
      "Ġsaved": 8524,
      "ellow": 8525,
      "Ġsamples": 8526,
      "Ġ68": 8527,
      "Ġev": 8528,
      "746": 8529,
      "Ġpolicy": 8530,
      "course": 8531,
      "444": 8532,
      "ityEngine": 8533,
      "á»ĩ": 8534,
      "Tip": 8535,
      "653": 8536,
      "é»": 8537,
      "ĠCOP": 8538,
      "ç³": 8539,
      "Ġmutate": 8540,
      "Ġhappy": 8541,
      "ĠKEYS": 8542,
      "Ġgrep": 8543,
      "Js": 8544,
      "ï¼Ī": 8545,
      "valuation": 8546,
      "Ð¾Ð±": 8547,
      "ERO": 8548,
      "hit": 8549,
      "CHANT": 8550,
      "ĊĊĊĠ": 8551,
      "Border": 8552,
      "Ġnom": 8553,
      "Bucket": 8554,
      "VSOP": 8555,
      "Ġasset": 8556,
      "contents": 8557,
      "Columns": 8558,
      "ĠFree": 8559,
      "Now": 8560,
      "Ġblocks": 8561,
      ",$": 8562,
      "jni": 8563,
      "-%": 8564,
      "Ġparsed": 8565,
      "tempt": 8566,
      "ç¼": 8567,
      "(.": 8568,
      "(\".": 8569,
      "concurrent": 8570,
      "cancel": 8571,
      "CPP": 8572,
      "lict": 8573,
      "Radius": 8574,
      "Ġslice": 8575,
      "Ġtc": 8576,
      "ador": 8577,
      "DataType": 8578,
      "åĬ¨": 8579,
      "åĽŀ": 8580,
      "rees": 8581,
      "Ġwere": 8582,
      "ĠDescription": 8583,
      "Ġ101": 8584,
      "141": 8585,
      "258": 8586,
      "=&": 8587,
      "ggreg": 8588,
      "persist": 8589,
      "Two": 8590,
      "Alert": 8591,
      "brid": 8592,
      "ĠĠĠĠĠĠĠĠĠĠĠĠĠĠĠĠĠĠĠĠĠĠĠĠ": 8593,
      "Ġinstanceof": 8594,
      "151": 8595,
      "inuous": 8596,
      "Ġpp": 8597,
      "ini": 8598,
      "Ġ102": 8599,
      "('\\": 8600,
      "bul": 8601,
      ">:": 8602,
      "currency": 8603,
      "avsop": 8604,
      "aur": 8605,
      "Ġbinding": 8606,
      "Processor": 8607,
      "ĠLogger": 8608,
      "Ġprotocol": 8609,
      "Named": 8610,
      "Setup": 8611,
      "Ġ----------------------------------------------------------------": 8612,
      "ĠCA": 8613,
      "atom": 8614,
      "mobile": 8615,
      "pace": 8616,
      "Ġengine": 8617,
      "Present": 8618,
      "706": 8619,
      "Dev": 8620,
      "otor": 8621,
      "partition": 8622,
      "ida": 8623,
      "}</": 8624,
      "Constructor": 8625,
      "ceptions": 8626,
      "variables": 8627,
      "éĽ": 8628,
      "colnames": 8629,
      ")])": 8630,
      "Ġcity": 8631,
      "Master": 8632,
      "slug": 8633,
      "Ġaavsop": 8634,
      "Ġinstruction": 8635,
      "(%": 8636,
      "ĠDr": 8637,
      "ĠDec": 8638,
      "Ui": 8639,
      "*,": 8640,
      "OBJECT": 8641,
      "Ġusage": 8642,
      "Ġisa": 8643,
      "thumb": 8644,
      "Ġquote": 8645,
      "lon": 8646,
      "Ġdu": 8647,
      "jango": 8648,
      "ĠMar": 8649,
      "Ġ57": 8650,
      "Ġexecution": 8651,
      "]-": 8652,
      "ĠassertThat": 8653,
      "ĠGNU": 8654,
      "Peer": 8655,
      "Ġlater": 8656,
      "åŀĭ": 8657,
      ":'": 8658,
      "(&(": 8659,
      "parts": 8660,
      "ViewModel": 8661,
      "Ġsin": 8662,
      "ĠHandle": 8663,
      "æ¯": 8664,
      "Ġplan": 8665,
      "Ġunknown": 8666,
      "Ġcid": 8667,
      "ĠDocument": 8668,
      "Ġnumeric": 8669,
      "Ġdriver": 8670,
      "sound": 8671,
      "aily": 8672,
      "ĠMock": 8673,
      "Ġuuid": 8674,
      "Ġstatement": 8675,
      "ÏĢ": 8676,
      "/%": 8677,
      "LIED": 8678,
      "ĠCreates": 8679,
      "veh": 8680,
      "=\"${": 8681,
      "249": 8682,
      "Ġmd": 8683,
      "LEN": 8684,
      "functions": 8685,
      "Decode": 8686,
      "notify": 8687,
      "Ġbasic": 8688,
      "727": 8689,
      "ĠAnd": 8690,
      "Ġtexture": 8691,
      "ZZ": 8692,
      "Ġproxy": 8693,
      "spl": 8694,
      "FUNCTION": 8695,
      "Ðļ": 8696,
      "hu": 8697,
      "ĠStruct": 8698,
      "commands": 8699,
      "ampling": 8700,
      "ĠParameters": 8701,
      "cam": 8702,
      "Ġ400": 8703,
      "ĠFIT": 8704,
      "Ġsym": 8705,
      "403": 8706,
      "ratio": 8707,
      "Ġ({": 8708,
      "Ġgroups": 8709,
      "atter": 8710,
      "Ġ107": 8711,
      "GG": 8712,
      "bp": 8713,
      "âĪ": 8714,
      "Uniform": 8715,
      "Ð¡": 8716,
      "Ġ120": 8717,
      "ĠEVENT": 8718,
      "usters": 8719,
      "wards": 8720,
      "ido": 8721,
      "Ġsegment": 8722,
      "Ã¢": 8723,
      "////////////////////////////////////////////////////////////////": 8724,
      "Ġleast": 8725,
      ";/": 8726,
      "Lua": 8727,
      "Ġdx": 8728,
      "ĠOrd": 8729,
      "lies": 8730,
      "308": 8731,
      "Termin": 8732,
      "Ġdescri": 8733,
      "Ġxxx": 8734,
      "WT": 8735,
      "reverse": 8736,
      "crease": 8737,
      "ãĤĭ": 8738,
      "Ġ\"*": 8739,
      "æ¸": 8740,
      "ima": 8741,
      "131": 8742,
      "Ġhold": 8743,
      "Ġ\"\";": 8744,
      "UINT": 8745,
      "starts": 8746,
      "èİ": 8747,
      "ĠPARTIC": 8748,
      "cedure": 8749,
      "ĠFoundation": 8750,
      "TERN": 8751,
      "]][": 8752,
      "mf": 8753,
      "çĶŁ": 8754,
      "212": 8755,
      "\"][\"": 8756,
      "()>": 8757,
      "ned": 8758,
      "WORK": 8759,
      "mapping": 8760,
      "rp": 8761,
      "Percent": 8762,
      "]',": 8763,
      "ĠIlluminate": 8764,
      "ceptor": 8765,
      "555": 8766,
      "Ġknow": 8767,
      "must": 8768,
      "NUMBER": 8769,
      "ibus": 8770,
      "Ð½Ð¾": 8771,
      "Transfer": 8772,
      "Ġdolo": 8773,
      "CHANTABILITY": 8774,
      "ĠReal": 8775,
      "atial": 8776,
      "Branch": 8777,
      "maps": 8778,
      "Ġpartition": 8779,
      "gray": 8780,
      "ĠPURPOSE": 8781,
      "Ġpo": 8782,
      "(_)": 8783,
      "Ġfmap": 8784,
      "news": 8785,
      "refs": 8786,
      "Ġless": 8787,
      "]\"": 8788,
      "344": 8789,
      "Ġart": 8790,
      "ager": 8791,
      "tex": 8792,
      ")^": 8793,
      "Virtual": 8794,
      "Connector": 8795,
      "iq": 8796,
      "Sym": 8797,
      "Ġdownload": 8798,
      "setText": 8799,
      "acle": 8800,
      "implement": 8801,
      "Ġcurr": 8802,
      "648": 8803,
      "Ġwidget": 8804,
      "cheduler": 8805,
      "Ġtw": 8806,
      "Ġnn": 8807,
      "orders": 8808,
      "232": 8809,
      "serve": 8810,
      "edges": 8811,
      "337": 8812,
      "ained": 8813,
      "Ġselection": 8814,
      "uario": 8815,
      "Ġtempor": 8816,
      "ĠCOPY": 8817,
      "Inject": 8818,
      "183": 8819,
      "Diag": 8820,
      "Country": 8821,
      "links": 8822,
      "Ġsubst": 8823,
      "gal": 8824,
      "__)": 8825,
      "289": 8826,
      "Fac": 8827,
      "MAN": 8828,
      "}),": 8829,
      "ality": 8830,
      "expand": 8831,
      "Ġwritten": 8832,
      "#,": 8833,
      "ĠBack": 8834,
      "flex": 8835,
      "Ġ[]*": 8836,
      "camera": 8837,
      "ĊĊĠĠĠĠĠĠĠĠĠĠĠĠĠĠĠĠĠĠĠĠĠĠĠ": 8838,
      "members": 8839,
      "IDE": 8840,
      "nama": 8841,
      "abstract": 8842,
      "383": 8843,
      "Html": 8844,
      "Ġpoly": 8845,
      "Ġlin": 8846,
      "reduce": 8847,
      "Angle": 8848,
      "Ġenter": 8849,
      "gebra": 8850,
      "defs": 8851,
      "striction": 8852,
      "days": 8853,
      "ĠWith": 8854,
      "Ġcommands": 8855,
      "162": 8856,
      "shouldBe": 8857,
      "Ġlistener": 8858,
      "stock": 8859,
      "cls": 8860,
      "246": 8861,
      "Ġ]];": 8862,
      "åŃĺ": 8863,
      "ARCH": 8864,
      "munity": 8865,
      "Pol": 8866,
      "Ġabstract": 8867,
      "plyr": 8868,
      "Ġ104": 8869,
      "RX": 8870,
      "ĠRender": 8871,
      "Ġdeleted": 8872,
      "ĠDATA": 8873,
      "Ġ78": 8874,
      "1007": 8875,
      "VT": 8876,
      "footer": 8877,
      "ostream": 8878,
      "295": 8879,
      "éĢļ": 8880,
      "359": 8881,
      "coming": 8882,
      "Ġsummary": 8883,
      "RG": 8884,
      "pts": 8885,
      "Classes": 8886,
      "Ġincluding": 8887,
      "Switch": 8888,
      "ÑĢÐ°Ð": 8889,
      "Ġdimension": 8890,
      "Ġ127": 8891,
      "adr": 8892,
      "week": 8893,
      "ĠNon": 8894,
      "Lit": 8895,
      "predict": 8896,
      "Ġunits": 8897,
      "Ġwin": 8898,
      "Ġdestination": 8899,
      "Ġreverse": 8900,
      "Ġlevels": 8901,
      "Fetch": 8902,
      "station": 8903,
      "ĠPARTICULAR": 8904,
      "Board": 8905,
      "channels": 8906,
      "Install": 8907,
      "veloper": 8908,
      "Delta": 8909,
      "CMD": 8910,
      "want": 8911,
      "calc": 8912,
      "Mail": 8913,
      "METHOD": 8914,
      "/${": 8915,
      "Ġgeneric": 8916,
      "anim": 8917,
      "rpc": 8918,
      "since": 8919,
      "Ġimages": 8920,
      "tasks": 8921,
      "finish": 8922,
      "health": 8923,
      "ÑĢÐµ": 8924,
      "Loading": 8925,
      "*>(": 8926,
      "ĠBr": 8927,
      "Stmt": 8928,
      "servation": 8929,
      "atype": 8930,
      "tur": 8931,
      "orph": 8932,
      "Ġremoved": 8933,
      "house": 8934,
      "Ùĩ": 8935,
      "Worker": 8936,
      "getElement": 8937,
      "unce": 8938,
      "Ġcause": 8939,
      "Ġnrow": 8940,
      "incip": 8941,
      "Ġ*=": 8942,
      "cod": 8943,
      "Ġemit": 8944,
      "logging": 8945,
      "Arc": 8946,
      "Ġconstant": 8947,
      "ĠMe": 8948,
      "ĠColumn": 8949,
      "els": 8950,
      "Warn": 8951,
      "Answ": 8952,
      "ĠCF": 8953,
      "*-": 8954,
      "erator": 8955,
      "ĠJava": 8956,
      "Ġactions": 8957,
      "dn": 8958,
      "2007": 8959,
      "299": 8960,
      "PRI": 8961,
      "Ġpi": 8962,
      "Ġggplot": 8963,
      "ĠSte": 8964,
      "Ġ\":": 8965,
      "layers": 8966,
      "obile": 8967,
      "Ġminimum": 8968,
      "RPC": 8969,
      "deleted": 8970,
      "ĠMERCHANTABILITY": 8971,
      "TOM": 8972,
      "ecessary": 8973,
      "Ġden": 8974,
      "+=": 8975,
      "relative": 8976,
      "ĠNull": 8977,
      "298": 8978,
      "Returns": 8979,
      "Writ": 8980,
      "ĠAuthor": 8981,
      "ĠTABLES": 8982,
      "å½ķ": 8983,
      "ably": 8984,
      "yper": 8985,
      "Ġ--------": 8986,
      "}:": 8987,
      "PRESS": 8988,
      "èī": 8989,
      "ĠMOI": 8990,
      "orem": 8991,
      "rhs": 8992,
      "Backend": 8993,
      "named": 8994,
      "MAND": 8995,
      "GC": 8996,
      "Ċĉĉĉĉĉĉĉĉĉĉ": 8997,
      "\"):": 8998,
      "Ġserde": 8999,
      "ya": 9000,
      "&#": 9001,
      "éķ": 9002,
      "izable": 9003,
      "((:": 9004,
      "generator": 9005,
      "Ġ150": 9006,
      "ĠORDER": 9007,
      "IMAGE": 9008,
      "Tools": 9009,
      "lb": 9010,
      "illing": 9011,
      "020": 9012,
      "same": 9013,
      "ĠReset": 9014,
      "Pat": 9015,
      "NAMES": 9016,
      "BI": 9017,
      "Ġ$_": 9018,
      "Ġ79": 9019,
      "667": 9020,
      "Standard": 9021,
      "Alias": 9022,
      "Ð¸ÑĤ": 9023,
      "refresh": 9024,
      "ÐĲ": 9025,
      "Geometry": 9026,
      "UTHOR": 9027,
      "ĠLib": 9028,
      "Ġtabel": 9029,
      "Ġ82": 9030,
      "cycle": 9031,
      "Ġspeed": 9032,
      "Structure": 9033,
      "Ġalert": 9034,
      "Ð¾Ð¼": 9035,
      "Ġ!!": 9036,
      "TEMP": 9037,
      "When": 9038,
      "ĠInvalid": 9039,
      "Ġcy": 9040,
      "unn": 9041,
      "Ġlight": 9042,
      "Ġcompile": 9043,
      "Ġmutable": 9044,
      "BLOCK": 9045,
      "Ġtail": 9046,
      "Arrays": 9047,
      "subset": 9048,
      "454": 9049,
      "Ġdan": 9050,
      ";}": 9051,
      "áº¡": 9052,
      "Ġbook": 9053,
      "386": 9054,
      "ç¨": 9055,
      "Payment": 9056,
      "Ð»ÑĮ": 9057,
      "Signal": 9058,
      "prot": 9059,
      "379": 9060,
      "Ġfig": 9061,
      "ç³»": 9062,
      "ĠGeneric": 9063,
      "Ð¸Ðµ": 9064,
      "INDEX": 9065,
      "sudo": 9066,
      "Vehicle": 9067,
      "askell": 9068,
      "bined": 9069,
      "Filename": 9070,
      "invoke": 9071,
      "456": 9072,
      "Intent": 9073,
      "Ġsf": 9074,
      "ĠPack": 9075,
      "cycler": 9076,
      "urchase": 9077,
      "Sdk": 9078,
      "334": 9079,
      "99999999": 9080,
      "Ġelem": 9081,
      "247": 9082,
      "Pin": 9083,
      "ĠTIM": 9084,
      "Ñİ": 9085,
      "styles": 9086,
      "Ġvideo": 9087,
      "Ġoccur": 9088,
      "_{": 9089,
      "âĤģ": 9090,
      "Serv": 9091,
      "lint": 9092,
      "ĊĠĠĠĠĠĠĠĠĠĠĠĠĠĠĠĠĠĠĠĠĠĠĠĠĠĠĠĠĠĠĠĠĠĠĠĠĠĠ": 9093,
      "Ġoperations": 9094,
      "geom": 9095,
      "Ġ*,": 9096,
      "repeat": 9097,
      "ĠLIMITED": 9098,
      "[],": 9099,
      "swap": 9100,
      "nome": 9101,
      "Ġcurrently": 9102,
      "EventListener": 9103,
      "ĠUSING": 9104,
      "Ġcontrib": 9105,
      "389": 9106,
      "(/": 9107,
      "Ġvel": 9108,
      "External": 9109,
      "vest": 9110,
      "gov": 9111,
      "ĠSearch": 9112,
      "REQUEST": 9113,
      "Serializer": 9114,
      "ming": 9115,
      "arp": 9116,
      "ARRAY": 9117,
      "-+": 9118,
      "Rank": 9119,
      "MESSAGE": 9120,
      "à¦°": 9121,
      "balance": 9122,
      "ĠInd": 9123,
      "],\\\"": 9124,
      "Ġpython": 9125,
      "Ġcamera": 9126,
      "æŁ¥": 9127,
      "Functions": 9128,
      "269": 9129,
      "åĲİ": 9130,
      "special": 9131,
      "PACE": 9132,
      "curacy": 9133,
      "Ġdisabled": 9134,
      "ĠFITNESS": 9135,
      "Ġclasses": 9136,
      "posts": 9137,
      "DES": 9138,
      "ENABLE": 9139,
      "NODE": 9140,
      "ĠMulti": 9141,
      "approx": 9142,
      "SERVER": 9143,
      "('<": 9144,
      "ĠSession": 9145,
      "Ġcd": 9146,
      "Ġtra": 9147,
      "constant": 9148,
      "Ġpd": 9149,
      "Ġ())": 9150,
      "Iss": 9151,
      "Replace": 9152,
      "projects": 9153,
      "Ġconstexpr": 9154,
      ",',": 9155,
      "Series": 9156,
      "\\\":\\\"\\\",\\\"": 9157,
      "ĠOver": 9158,
      "265": 9159,
      "ato": 9160,
      "Ġroom": 9161,
      "windows": 9162,
      "perm": 9163,
      "å¼Ģ": 9164,
      "bas": 9165,
      "adj": 9166,
      "åŃ¦": 9167,
      "Focus": 9168,
      "Ġ84": 9169,
      "Ġprovider": 9170,
      "dummy": 9171,
      "{<:": 9172,
      "redirect": 9173,
      "future": 9174,
      "getValue": 9175,
      "Ġclock": 9176,
      "strument": 9177,
      "Ġrules": 9178,
      "VP": 9179,
      "uan": 9180,
      "Ø¯": 9181,
      "Available": 9182,
      "Topic": 9183,
      "Ġfprintf": 9184,
      "Ġcancel": 9185,
      "Ġ]]": 9186,
      "JA": 9187,
      "orig": 9188,
      "Der": 9189,
      "POINT": 9190,
      "Ġfuture": 9191,
      "dividual": 9192,
      "ĠRet": 9193,
      "ĠÂ": 9194,
      "ĠMIT": 9195,
      "rase": 9196,
      "Resolver": 9197,
      "Ġyet": 9198,
      "040": 9199,
      "Monitor": 9200,
      "Hex": 9201,
      "nm": 9202,
      "Ġdispatch": 9203,
      "under": 9204,
      "Ġlegend": 9205,
      "'>": 9206,
      "Tex": 9207,
      "ĠOP": 9208,
      "ĠApi": 9209,
      "marker": 9210,
      "Ġimplemented": 9211,
      "640": 9212,
      "FilePath": 9213,
      "FFFFFFFF": 9214,
      "Ġforward": 9215,
      "NEL": 9216,
      "venue": 9217,
      "Watch": 9218,
      "11111111": 9219,
      "Ġwell": 9220,
      "Ð±": 9221,
      "FN": 9222,
      "fw": 9223,
      "ĠIMPLIED": 9224,
      "geo": 9225,
      "comments": 9226,
      "compat": 9227,
      "Ġwords": 9228,
      "Ġradius": 9229,
      "hot": 9230,
      "Ġum": 9231,
      "Ġ(%": 9232,
      "Ġturn": 9233,
      "Ġast": 9234,
      "030": 9235,
      "Lazy": 9236,
      "Ġ$('#": 9237,
      "Ġprior": 9238,
      "Final": 9239,
      "CheckBox": 9240,
      "hold": 9241,
      "Ġ110": 9242,
      "Ġ10000": 9243,
      "INGS": 9244,
      "EPSG": 9245,
      "keep": 9246,
      "Neg": 9247,
      "Phone": 9248,
      "auss": 9249,
      "IFT": 9250,
      "verbose": 9251,
      "VI": 9252,
      "MG": 9253,
      "capacity": 9254,
      "Ġage": 9255,
      "ggplot": 9256,
      "ÐºÐ°": 9257,
      "339": 9258,
      "ï¿½ï¿½": 9259,
      "ĠUtil": 9260,
      "Ġ.*": 9261,
      "BT": 9262,
      "ĠCURRENT": 9263,
      "ridge": 9264,
      "éħ": 9265,
      "ala": 9266,
      ")?": 9267,
      "isset": 9268,
      "ĠSerial": 9269,
      "ĉĉĉĉĉĉ": 9270,
      "<!--": 9271,
      "æ³ķ": 9272,
      "(\\": 9273,
      ":?}\",": 9274,
      "ĠFUNCTION": 9275,
      "TRACT": 9276,
      "ĠINLINE": 9277,
      "peer": 9278,
      "contract": 9279,
      "Download": 9280,
      "!\"": 9281,
      "cov": 9282,
      "ients": 9283,
      "adv": 9284,
      "(((": 9285,
      "OFFSET": 9286,
      "RF": 9287,
      "Measure": 9288,
      "Ġcalls": 9289,
      "Ġtensor": 9290,
      "Into": 9291,
      "Collect": 9292,
      "ĠRandom": 9293,
      "ĠPROC": 9294,
      "Ġfd": 9295,
      "320": 9296,
      "SED": 9297,
      "Ġcod": 9298,
      "|>": 9299,
      "NEW": 9300,
      "039": 9301,
      "hc": 9302,
      "student": 9303,
      "eli": 9304,
      "stub": 9305,
      "argo": 9306,
      "ozilla": 9307,
      "Ġ69": 9308,
      "Ġsorted": 9309,
      "posal": 9310,
      "iation": 9311,
      "INPUT": 9312,
      "Ġplt": 9313,
      "Ġvalidation": 9314,
      "215": 9315,
      "279": 9316,
      "ĠBO": 9317,
      "PREFIX": 9318,
      "isters": 9319,
      "pipe": 9320,
      "DED": 9321,
      "Ġlove": 9322,
      "544": 9323,
      "è·": 9324,
      "Google": 9325,
      "iding": 9326,
      "Ġmanager": 9327,
      "StatusCode": 9328,
      "Ġstill": 9329,
      "Ġtol": 9330,
      "Ġbeta": 9331,
      "Console": 9332,
      "407": 9333,
      "Vk": 9334,
      "ĠSER": 9335,
      "Sets": 9336,
      "Ġ;;": 9337,
      "(\"<": 9338,
      "Ġsignature": 9339,
      "signature": 9340,
      "adapter": 9341,
      "Ġ63": 9342,
      "Ġmer": 9343,
      "350": 9344,
      "Ġseg": 9345,
      "áº¿": 9346,
      "ĠVariable": 9347,
      "Ġdescriptor": 9348,
      "280": 9349,
      "TestCase": 9350,
      "Ã¶": 9351,
      "water": 9352,
      "HA": 9353,
      "å¦": 9354,
      "0100": 9355,
      "}()": 9356,
      "ðĿ": 9357,
      "ĠThread": 9358,
      "antic": 9359,
      "bal": 9360,
      "flush": 9361,
      "volatile": 9362,
      "Ġ---": 9363,
      "ĠDisplay": 9364,
      "322": 9365,
      "focus": 9366,
      "ĠDateTime": 9367,
      "Ġpat": 9368,
      "WM": 9369,
      "Grad": 9370,
      "aption": 9371,
      "ĠlocalVar": 9372,
      "RD": 9373,
      "çĤ¹": 9374,
      "udy": 9375,
      "registry": 9376,
      "257": 9377,
      "closed": 9378,
      "å°ı": 9379,
      "worker": 9380,
      "à¸Ń": 9381,
      "override": 9382,
      "ĠMark": 9383,
      "Ġaria": 9384,
      "FIN": 9385,
      "Ġcountry": 9386,
      ",'','": 9387,
      "098": 9388,
      "ĠSerialize": 9389,
      "Primary": 9390,
      "Relation": 9391,
      "346": 9392,
      "isi": 9393,
      "049": 9394,
      "cross": 9395,
      "Ord": 9396,
      "Ġcorresponding": 9397,
      "Kernel": 9398,
      "Ġvm": 9399,
      "Ġins": 9400,
      "Ġls": 9401,
      "ĠALL": 9402,
      "aken": 9403,
      "KET": 9404,
      "åĢ¼": 9405,
      "ple": 9406,
      "649": 9407,
      "phere": 9408,
      "Contents": 9409,
      "CENT": 9410,
      "Ġcases": 9411,
      "Ġdisable": 9412,
      "Ġtypedef": 9413,
      "xt": 9414,
      "ProtoLens": 9415,
      "Ġhist": 9416,
      "998": 9417,
      "693": 9418,
      "åĬŁ": 9419,
      "Commit": 9420,
      "alleng": 9421,
      "Ġfp": 9422,
      "ĠTarget": 9423,
      "è¯·": 9424,
      "lying": 9425,
      "mbed": 9426,
      "æłĩ": 9427,
      "WID": 9428,
      "^^": 9429,
      "Ġ53": 9430,
      "Ops": 9431,
      "ĠCore": 9432,
      "CONST": 9433,
      "fv": 9434,
      "Ġ'''": 9435,
      "erved": 9436,
      "General": 9437,
      "Hit": 9438,
      "ivation": 9439,
      "deep": 9440,
      "ĠProperty": 9441,
      "ãģĻ": 9442,
      "397": 9443,
      "Seconds": 9444,
      "Dataset": 9445,
      "Ġweights": 9446,
      "Ġ1024": 9447,
      "sal": 9448,
      "sender": 9449,
      "659": 9450,
      "KS": 9451,
      "ulo": 9452,
      "217": 9453,
      "sell": 9454,
      "PROTO": 9455,
      "ysics": 9456,
      "394": 9457,
      "697": 9458,
      "CHECKS": 9459,
      "ides": 9460,
      "QUIRE": 9461,
      "ĠOther": 9462,
      "Ã´": 9463,
      "reason": 9464,
      "Mutex": 9465,
      "CASE": 9466,
      "IDENT": 9467,
      "mazon": 9468,
      "disabled": 9469,
      "Ġpad": 9470,
      "Ġnotification": 9471,
      "Ġtesting": 9472,
      "čĊĉčĊ": 9473,
      "278": 9474,
      "å§": 9475,
      "aps": 9476,
      "QtQt": 9477,
      "Ġavoid": 9478,
      "ĠGHC": 9479,
      "Ġextern": 9480,
      "2001": 9481,
      ".[": 9482,
      "itation": 9483,
      "epoch": 9484,
      "2004": 9485,
      "nostic": 9486,
      "SCH": 9487,
      "Feed": 9488,
      "tor": 9489,
      "Ġbounds": 9490,
      "Ġcontact": 9491,
      "roker": 9492,
      "luid": 9493,
      "viders": 9494,
      "Buff": 9495,
      "aux": 9496,
      "Ġamet": 9497,
      "iam": 9498,
      "hm": 9499,
      "irror": 9500,
      "usion": 9501,
      "qr": 9502,
      "348": 9503,
      "ĠAccount": 9504,
      "åķ": 9505,
      "Ġsubset": 9506,
      "Mix": 9507,
      "Ġ62": 9508,
      "velopment": 9509,
      "028": 9510,
      "Decoder": 9511,
      "(\"./": 9512,
      "Append": 9513,
      "\"=>\"": 9514,
      "getInstance": 9515,
      "shadow": 9516,
      "ĠEng": 9517,
      "åīį": 9518,
      "Subject": 9519,
      "dynamic": 9520,
      "ENV": 9521,
      "gregate": 9522,
      "Special": 9523,
      "Ġsb": 9524,
      "ĠRel": 9525,
      "Ġcomponents": 9526,
      "Sheet": 9527,
      "335": 9528,
      "Black": 9529,
      "à¦¿": 9530,
      "242": 9531,
      "Ġloss": 9532,
      "274": 9533,
      "ised": 9534,
      "ĠContent": 9535,
      "Mutable": 9536,
      "`(`": 9537,
      "Ġargv": 9538,
      "Ġsd": 9539,
      "ĠINSERT": 9540,
      "314": 9541,
      "nombre": 9542,
      "ĠDATE": 9543,
      "Certificate": 9544,
      "åĽ½": 9545,
      "Own": 9546,
      "Implement": 9547,
      "((*": 9548,
      "--[[": 9549,
      "mysql": 9550,
      "Extract": 9551,
      ".)": 9552,
      "378": 9553,
      "669": 9554,
      "Ġmouse": 9555,
      "Ġipsum": 9556,
      "tables": 9557,
      "ĠâĶ": 9558,
      "Ġsecret": 9559,
      "dv": 9560,
      "ĠNT": 9561,
      "spaces": 9562,
      "plain": 9563,
      "Ġ'';": 9564,
      "theta": 9565,
      "attle": 9566,
      "NOW": 9567,
      "Ġ77": 9568,
      ":-": 9569,
      "Ġstarting": 9570,
      "Ġstrict": 9571,
      "NER": 9572,
      "Ġlean": 9573,
      "WRITE": 9574,
      "circle": 9575,
      "Ġ'');": 9576,
      "extensions": 9577,
      ".<": 9578,
      "oa": 9579,
      "oggle": 9580,
      "Ship": 9581,
      "MY": 9582,
      "Ġcert": 9583,
      "Blue": 9584,
      "ĠputStrLn": 9585,
      "Paths": 9586,
      "268": 9587,
      "ĠRO": 9588,
      "InputStream": 9589,
      "Marker": 9590,
      "RW": 9591,
      "apis": 9592,
      "çľģ": 9593,
      "Ġflat": 9594,
      "Same": 9595,
      "à¸ĩ": 9596,
      "ĠØ§ÙĦ": 9597,
      "Many": 9598,
      "ĠĠĠĠĠĠĠĠĠĠĠĠĠĠĠĠĠĠĠĠĠĠĠĠĠĠĠ": 9599,
      "Ġalgorithm": 9600,
      "Ġpaths": 9601,
      "ĠEnv": 9602,
      "xxx": 9603,
      "UST": 9604,
      "Dao": 9605,
      "),('": 9606,
      "istributions": 9607,
      "iÃ³n": 9608,
      "inject": 9609,
      "cached": 9610,
      "078": 9611,
      "Ratio": 9612,
      "arb": 9613,
      "Ġvarying": 9614,
      "PLACE": 9615,
      "Ġ\");": 9616,
      "environment": 9617,
      "bold": 9618,
      "AAAAAAAA": 9619,
      "221": 9620,
      "coords": 9621,
      "pipeline": 9622,
      "parator": 9623,
      "275": 9624,
      "ivo": 9625,
      "297": 9626,
      "ively": 9627,
      "ç¤º": 9628,
      "Î¸": 9629,
      "mkdir": 9630,
      "ĠDevice": 9631,
      "ĠCL": 9632,
      "asing": 9633,
      "scriber": 9634,
      "Ð¾Ð½": 9635,
      "uggest": 9636,
      "WARN": 9637,
      "čĊĠĠĠĠčĊĠĠĠ": 9638,
      "Ġseries": 9639,
      "isation": 9640,
      "686": 9641,
      "Prec": 9642,
      "Ġmaster": 9643,
      "Ãº": 9644,
      "ighbors": 9645,
      "Ready": 9646,
      "Refresh": 9647,
      "large": 9648,
      "Ġsus": 9649,
      "coped": 9650,
      "336": 9651,
      "PROPER": 9652,
      "monitor": 9653,
      "Codec": 9654,
      "Ġinside": 9655,
      "rime": 9656,
      "Ġ));": 9657,
      "Ġnh": 9658,
      "Ġ86": 9659,
      "tri": 9660,
      "ley": 9661,
      "pw": 9662,
      "Ġpercent": 9663,
      "ĠUUID": 9664,
      "ares": 9665,
      "Ġetc": 9666,
      "Ġiterator": 9667,
      "Ġcopies": 9668,
      "kn": 9669,
      "Dimension": 9670,
      "Ġrepository": 9671,
      "267": 9672,
      "Times": 9673,
      "0707": 9674,
      "Arguments": 9675,
      "Unique": 9676,
      "åħ³": 9677,
      "onical": 9678,
      "STRU": 9679,
      "cker": 9680,
      "Ġmight": 9681,
      "(\"-": 9682,
      "\\\"},": 9683,
      "Ctrl": 9684,
[...]
