{
  "version": "1.0",
  "truncation": null,
  "padding": null,
  "added_tokens": [
    {
      "id": 0,
      "content": "</s>",
      "single_word": false,
      "lstrip": false,
      "rstrip": false,
      "normalized": false,
      "special": true
    },
    {
      "id": 1,
      "content": "<pad>",
      "single_word": false,
      "lstrip": false,
      "rstrip": false,
      "normalized": false,
      "special": true
    },
    {
      "id": 2,
      "content": "<s>",
      "single_word": false,
      "lstrip": false,
      "rstrip": false,
      "normalized": false,
      "special": true
    },
    {
      "id": 3,
      "content": "<unk>",
      "single_word": false,
      "lstrip": false,
      "rstrip": false,
      "normalized": false,
      "special": true
    }
  ],
  "normalizer": {
    "type": "Sequence",
    "normalizers": [
      {
        "type": "NFC"
      }
    ]
  },
  "pre_tokenizer": {
    "type": "ByteLevel",
    "add_prefix_space": false,
    "trim_offsets": true,
    "use_regex": true
  },
  "post_processor": null,
  "decoder": {
    "type": "ByteLevel",
    "add_prefix_space": true,
    "trim_offsets": true,
    "use_regex": true
  },
  "model": {
    "type": "BPE",
    "dropout": null,
    "unk_token": "<unk>",
    "continuing_subword_prefix": null,
    "end_of_word_suffix": null,
    "fuse_unk": false,
    "byte_fallback": false,
    "ignore_merges": false,
    "vocab": {
      "</s>": 0,
      "<pad>": 1,
      "<s>": 2,
      "<unk>": 3,
      "!": 4,
      "\"": 5,
      "#": 6,
      "$": 7,
      "%": 8,
      "&": 9,
      "'": 10,
      "(": 11,
      ")": 12,
      "*": 13,
      "+": 14,
      ",": 15,
      "-": 16,
      ".": 17,
      "/": 18,
      "0": 19,
      "1": 20,
      "2": 21,
      "3": 22,
      "4": 23,
      "5": 24,
      "6": 25,
      "7": 26,
      "8": 27,
      "9": 28,
      ":": 29,
      ";": 30,
      "<": 31,
      "=": 32,
      ">": 33,
      "?": 34,
      "@": 35,
      "A": 36,
      "B": 37,
      "C": 38,
      "D": 39,
      "E": 40,
      "F": 41,
      "G": 42,
      "H": 43,
      "I": 44,
      "J": 45,
      "K": 46,
      "L": 47,
      "M": 48,
      "N": 49,
      "O": 50,
      "P": 51,
      "Q": 52,
      "R": 53,
      "S": 54,
      "T": 55,
      "U": 56,
      "V": 57,
      "W": 58,
      "X": 59,
      "Y": 60,
      "Z": 61,
      "[": 62,
      "\\": 63,
      "]": 64,
      "^": 65,
      "_": 66,
      "`": 67,
      "a": 68,
      "b": 69,
      "c": 70,
      "d": 71,
      "e": 72,
      "f": 73,
      "g": 74,
      "h": 75,
      "i": 76,
      "j": 77,
      "k": 78,
      "l": 79,
      "m": 80,
      "n": 81,
      "o": 82,
      "p": 83,
      "q": 84,
      "r": 85,
      "s": 86,
      "t": 87,
      "u": 88,
      "v": 89,
      "w": 90,
      "x": 91,
      "y": 92,
      "z": 93,
      "{": 94,
      "|": 95,
      "}": 96,
      "~": 97,
      "¡": 98,
      "¢": 99,
      "£": 100,
      "¤": 101,
      "¥": 102,
      "¦": 103,
      "§": 104,
      "¨": 105,
      "©": 106,
      "ª": 107,
      "«": 108,
      "¬": 109,
      "®": 110,
      "¯": 111,
      "°": 112,
      "±": 113,
      "²": 114,
      "³": 115,
      "´": 116,
      "µ": 117,
      "¶": 118,
      "·": 119,
      "¸": 120,
      "¹": 121,
      "º": 122,
      "»": 123,
      "¼": 124,
      "½": 125,
      "¾": 126,
      "¿": 127,
      "À": 128,
      "Á": 129,
      "Â": 130,
      "Ã": 131,
      "Ä": 132,
      "Å": 133,
      "Æ": 134,
      "Ç": 135,
      "È": 136,
      "É": 137,
      "Ê": 138,
      "Ë": 139,
      "Ì": 140,
      "Í": 141,
      "Î": 142,
      "Ï": 143,
      "Ð": 144,
      "Ñ": 145,
      "Ò": 146,
      "Ó": 147,
      "Ô": 148,
      "Õ": 149,
      "Ö": 150,
      "×": 151,
      "Ø": 152,
      "Ù": 153,
      "Ú": 154,
      "Û": 155,
      "Ü": 156,
      "Ý": 157,
      "Þ": 158,
      "ß": 159,
      "à": 160,
      "á": 161,
      "â": 162,
      "ã": 163,
      "ä": 164,
      "å": 165,
      "æ": 166,
      "ç": 167,
      "è": 168,
      "é": 169,
      "ê": 170,
      "ë": 171,
      "ì": 172,
      "í": 173,
      "î": 174,
      "ï": 175,
      "ð": 176,
      "ñ": 177,
      "ò": 178,
      "ó": 179,
      "ô": 180,
      "õ": 181,
      "ö": 182,
      "÷": 183,
      "ø": 184,
      "ù": 185,
      "ú": 186,
      "û": 187,
      "ü": 188,
      "ý": 189,
      "þ": 190,
      "ÿ": 191,
      "Ā": 192,
      "ā": 193,
      "Ă": 194,
      "ă": 195,
      "Ą": 196,
      "ą": 197,
      "Ć": 198,
      "ć": 199,
      "Ĉ": 200,
      "ĉ": 201,
      "Ċ": 202,
      "ċ": 203,
      "Č": 204,
      "č": 205,
      "Ď": 206,
      "ď": 207,
      "Đ": 208,
      "đ": 209,
      "Ē": 210,
      "ē": 211,
      "Ĕ": 212,
      "ĕ": 213,
      "Ė": 214,
      "ė": 215,
      "Ę": 216,
      "ę": 217,
      "Ě": 218,
      "ě": 219,
      "Ĝ": 220,
      "ĝ": 221,
      "Ğ": 222,
      "ğ": 223,
      "Ġ": 224,
      "ġ": 225,
      "Ģ": 226,
      "ģ": 227,
      "Ĥ": 228,
      "ĥ": 229,
      "Ħ": 230,
      "ħ": 231,
      "Ĩ": 232,
      "ĩ": 233,
      "Ī": 234,
      "ī": 235,
      "Ĭ": 236,
      "ĭ": 237,
      "Į": 238,
      "į": 239,
      "İ": 240,
      "ı": 241,
      "Ĳ": 242,
      "ĳ": 243,
      "Ĵ": 244,
      "ĵ": 245,
      "Ķ": 246,
      "ķ": 247,
      "ĸ": 248,
      "Ĺ": 249,
      "ĺ": 250,
      "Ļ": 251,
      "ļ": 252,
      "Ľ": 253,
      "ľ": 254,
      "Ŀ": 255,
      "ŀ": 256,
      "Ł": 257,
      "ł": 258,
      "Ń": 259,
      "Ġt": 260,
      "Ġa": 261,
      "he": 262,
      "in": 263,
      "re": 264,
      "Ġthe": 265,
      "on": 266,
      "er": 267,
      "Ġo": 268,
      "at": 269,
      "Ġs": 270,
      "en": 271,
      "Ġc": 272,
      "es": 273,
      "Ġw": 274,
      "is": 275,
      "nd": 276,
      "or": 277,
      "it": 278,
      "Ġp": 279,
      "Ġof": 280,
      "al": 281,
      "ed": 282,
      "Ġb": 283,
      "Ġf": 284,
      "an": 285,
      "Ġin": 286,
      "ar": 287,
      "ing": 288,
      "ou": 289,
      "Ġm": 290,
      "Ġand": 291,
      "ic": 292,
      "Ġto": 293,
      "ion": 294,
      "Ġd": 295,
      "ro": 296,
      "le": 297,
      "as": 298,
      "Ġh": 299,
      "ent": 300,
      "Ġth": 301,
      "il": 302,
      "ct": 303,
      "Ġe": 304,
      "Ġre": 305,
      "om": 306,
      "st": 307,
      "Ġl": 308,
      "Ġn": 309,
      "ve": 310,
      "ly": 311,
      "Ġbe": 312,
      "ĠT": 313,
      "Ġis": 314,
      "ol": 315,
      "se": 316,
      "ation": 317,
      "Ġg": 318,
      "im": 319,
      "id": 320,
      "ce": 321,
      "ut": 322,
      "ĠA": 323,
      "ra": 324,
      "et": 325,
      "ot": 326,
      "ur": 327,
      "ch": 328,
      "ĠS": 329,
      "Ġfor": 330,
      "ow": 331,
      "ig": 332,
      "ĠC": 333,
      "Ġon": 334,
      "Ġthat": 335,
      "âĢ": 336,
      "Ġu": 337,
      "ver": 338,
      "Ġst": 339,
      "ĠI": 340,
      "ir": 341,
      "am": 342,
      "ul": 343,
      "ad": 344,
      "ay": 345,
      "el": 346,
      "Ġas": 347,
      "her": 348,
      "ith": 349,
      "Ġpro": 350,
      "Ġ1": 351,
      "Ġcon": 352,
      "ĠM": 353,
      "Ġy": 354,
      "Ġ(": 355,
      "Ġan": 356,
      "Ġare": 357,
      "Ġwith": 358,
      "Ġwh": 359,
      "ter": 360,
      "if": 361,
      "Ġor": 362,
      "ĠThe": 363,
      "ĠP": 364,
      "Ġit": 365,
      "Ġal": 366,
      "od": 367,
      "ment": 368,
      "ist": 369,
      "ge": 370,
      "th": 371,
      "op": 372,
      "ĠB": 373,
      "ate": 374,
      "ers": 375,
      "Ġde": 376,
      "ies": 377,
      "ill": 378,
      "ab": 379,
      "ere": 380,
      "us": 381,
      "Ġex": 382,
      "ĠH": 383,
      "res": 384,
      "Ġhe": 385,
      "um": 386,
      "Ġby": 387,
      "ess": 388,
      "ect": 389,
      "est": 390,
      "Ġcom": 391,
      "and": 392,
      "ity": 393,
      "rom": 394,
      "ld": 395,
      "ore": 396,
      "ac": 397,
      "os": 398,
      "Ġsu": 399,
      "our": 400,
      "Ġwas": 401,
      "ĠW": 402,
      "Ġat": 403,
      "em": 404,
      "ri": 405,
      "Ġv": 406,
      "ĠD": 407,
      "ive": 408,
      "qu": 409,
      "ĠR": 410,
      "ĠE": 411,
      "nt": 412,
      "ain": 413,
      "ant": 414,
      "Ġfrom": 415,
      "pp": 416,
      "igh": 417,
      "ĠF": 418,
      "ud": 419,
      "ke": 420,
      "Ġha": 421,
      "oc": 422,
      "ĠN": 423,
      "ort": 424,
      "iv": 425,
      "Ġ2": 426,
      "Ġse": 427,
      "Ġch": 428,
      "ĠG": 429,
      "Ġne": 430,
      "Ġr": 431,
      "Ġnot": 432,
      "ĠL": 433,
      "00": 434,
      "un": 435,
      "ure": 436,
      "ical": 437,
      "art": 438,
      "ial": 439,
      "Ġcan": 440,
      "Ġhave": 441,
      "og": 442,
      "Ġle": 443,
      "Ġsh": 444,
      "Ġsp": 445,
      "ich": 446,
      "âĢĻ": 447,
      "Ġen": 448,
      "Ġthis": 449,
      "all": 450,
      "ight": 451,
      "ap": 452,
      "Ġyou": 453,
      "rou": 454,
      "ould": 455,
      "ther": 456,
      "The": 457,
      "Ġab": 458,
      "gh": 459,
      "ated": 460,
      "ost": 461,
      "ions": 462,
      "'s": 463,
      "Ġwor": 464,
      "ear": 465,
      "ĠJ": 466,
      "du": 467,
      "ĠO": 468,
      "ome": 469,
      "ard": 470,
      "ine": 471,
      "ag": 472,
      "out": 473,
      "Ġwe": 474,
      "pt": 475,
      "ĠU": 476,
      "ast": 477,
      "ff": 478,
      "ans": 479,
      "Ġim": 480,
      "ell": 481,
      "Ġpl": 482,
      "Ġint": 483,
      "Ġwhich": 484,
      "ĠâĢ": 485,
      "ec": 486,
      "Ġus": 487,
      "pl": 488,
      "age": 489,
      "Ġtheir": 490,
      "act": 491,
      "ust": 492,
      "ous": 493,
      "ew": 494,
      "ĠIn": 495,
      "ak": 496,
      "per": 497,
      "iz": 498,
      "ide": 499,
      "are": 500,
      "Ġ19": 501,
      "Ġ\"": 502,
      "Ġk": 503,
      "Ġcont": 504,
      "ib": 505,
      "Ġwhe": 506,
      "ary": 507,
      "ia": 508,
      "end": 509,
      "cc": 510,
      "ult": 511,
      "ong": 512,
      "Ġall": 513,
      "Ġthey": 514,
      "Ġad": 515,
      "ru": 516,
      "Ġdis": 517,
      "ations": 518,
      "Ġinc": 519,
      "Ġres": 520,
      "Ġwere": 521,
      "ood": 522,
      "Ġhas": 523,
      "ip": 524,
      "vel": 525,
      "orm": 526,
      "Ġcomp": 527,
      "Ġwill": 528,
      "ater": 529,
      "Ġmore": 530,
      "ire": 531,
      "ence": 532,
      "Ġother": 533,
      "Ġbut": 534,
      "Ġcl": 535,
      "ual": 536,
      "able": 537,
      "Ġman": 538,
      "so": 539,
      "Ġper": 540,
      "ild": 541,
      "ks": 542,
      "Ġdo": 543,
      "ry": 544,
      "ĠTh": 545,
      "Ġone": 546,
      "ind": 547,
      "ose": 548,
      "ass": 549,
      "ber": 550,
      "Ġhis": 551,
      "ĠSt": 552,
      "ance": 553,
      "ach": 554,
      "Ġme": 555,
      "ents": 556,
      "ep": 557,
      "ign": 558,
      "av": 559,
      "Ġar": 560,
      "ish": 561,
      "au": 562,
      "ress": 563,
      "Ġte": 564,
      "Ġun": 565,
      "ction": 566,
      "ase": 567,
      "ice": 568,
      ").": 569,
      "ount": 570,
      "ord": 571,
      "ame": 572,
      "ition": 573,
      "reat": 574,
      "ory": 575,
      "ub": 576,
      "Ġalso": 577,
      "Ġpart": 578,
      "âĢĿ": 579,
      "Ġso": 580,
      "Ġimp": 581,
      "Ġapp": 582,
      "ace": 583,
      "Ġj": 584,
      "Ġpre": 585,
      "Ġwho": 586,
      "Ġout": 587,
      "Ġyour": 588,
      "Ġev": 589,
      "ĠK": 590,
      "mer": 591,
      "ens": 592,
      "ake": 593,
      "ok": 594,
      "Ġabout": 595,
      "ci": 596,
      "one": 597,
      "ime": 598,
      "very": 599,
      "ite": 600,
      "Ġinf": 601,
      "Ġstud": 602,
      "ound": 603,
      "ack": 604,
      "ree": 605,
      "olog": 606,
      "ces": 607,
      "ian": 608,
      "ors": 609,
      "ĠCh": 610,
      "ric": 611,
      "ang": 612,
      "Ġthan": 613,
      "Ġyear": 614,
      "ie": 615,
      "ue": 616,
      "Ġbeen": 617,
      "ates": 618,
      "Ġsy": 619,
      "Ġpe": 620,
      "Ġup": 621,
      "low": 622,
      "Ġcomm": 623,
      "Ġbec": 624,
      "Ġmay": 625,
      "Ġthem": 626,
      "now": 627,
      "Ġhad": 628,
      "ail": 629,
      "Ġits": 630,
      "Ġrec": 631,
      "Ġag": 632,
      "erv": 633,
      "ph": 634,
      "ĠâĢľ": 635,
      "vers": 636,
      "ile": 637,
      "Ġqu": 638,
      "Ġsome": 639,
      "ĠV": 640,
      "ike": 641,
      "ĠIt": 642,
      "ays": 643,
      "nder": 644,
      "ough": 645,
      "ons": 646,
      "Ġthere": 647,
      "ings": 648,
      "Ġinto": 649,
      "tern": 650,
      "Ġra": 651,
      "Ġ3": 652,
      "rit": 653,
      "iff": 654,
      "ond": 655,
      "Ġgo": 656,
      "Ġ-": 657,
      "ren": 658,
      "ople": 659,
      "Ġtra": 660,
      "Ġwhen": 661,
      "lic": 662,
      "ational": 663,
      "Ġover": 664,
      "Ġwould": 665,
      "lud": 666,
      "ms": 667,
      "irst": 668,
      "ll": 669,
      "Ġthese": 670,
      "rough": 671,
      "int": 672,
      "Ġtw": 673,
      "Ġtime": 674,
      "Ġcol": 675,
      "ject": 676,
      "ally": 677,
      "ove": 678,
      "red": 679,
      "Ġ200": 680,
      "Ġro": 681,
      "te": 682,
      "Ġcons": 683,
      "ific": 684,
      "Ġwork": 685,
      "lect": 686,
      "Ġsa": 687,
      "Ġdes": 688,
      "Ġnew": 689,
      "Ġrep": 690,
      "ments": 691,
      "hed": 692,
      "Ġmost": 693,
      "ause": 694,
      "we": 695,
      "Ġuse": 696,
      "ĠThis": 697,
      "Ġunder": 698,
      "ĠUn": 699,
      "ities": 700,
      "les": 701,
      "ys": 702,
      "Ġbet": 703,
      "Ġpeople": 704,
      "Ġgen": 705,
      "wn": 706,
      "Ġdiff": 707,
      "velop": 708,
      "Ġact": 709,
      "Ġrel": 710,
      "Ġacc": 711,
      "Ġhow": 712,
      "stem": 713,
      "ook": 714,
      "),": 715,
      "Ġno": 716,
      "Ġsuch": 717,
      "ĠY": 718,
      "Ġknow": 719,
      "Ġbl": 720,
      "Ġonly": 721,
      "Ġtr": 722,
      "ced": 723,
      "Ġfirst": 724,
      "ool": 725,
      "Ġinclud": 726,
      "ious": 727,
      "ative": 728,
      "Ġany": 729,
      "Ġeff": 730,
      "Ġoff": 731,
      "ning": 732,
      "Ġspec": 733,
      "ob": 734,
      "Ġlike": 735,
      "iss": 736,
      "Ġprov": 737,
      "ple": 738,
      "rib": 739,
      "Ġif": 740,
      "Ġph": 741,
      "ov": 742,
      "Ġtwo": 743,
      "Ġour": 744,
      "Ġind": 745,
      "Ġchild": 746,
      "Ġam": 747,
      "ied": 748,
      "ular": 749,
      "alth": 750,
      "fter": 751,
      "Ġprodu": 752,
      "Ġused": 753,
      "ark": 754,
      "erm": 755,
      "Ġ20": 756,
      "Ġmany": 757,
      "Ġdevelop": 758,
      "ath": 759,
      "ating": 760,
      "cess": 761,
      "Ġob": 762,
      "Ġpo": 763,
      "rop": 764,
      "Ġwhat": 765,
      "ts": 766,
      "ics": 767,
      "Ġexp": 768,
      "Ġreg": 769,
      "uc": 770,
      "..": 771,
      "Ġthrough": 772,
      "ĠHe": 773,
      "Ġsc": 774,
      "oss": 775,
      "als": 776,
      "uring": 777,
      "ise": 778,
      "Ġneed": 779,
      "round": 780,
      "yp": 781,
      "ne": 782,
      "old": 783,
      "arch": 784,
      "Ġac": 785,
      "Ġsystem": 786,
      "Ġsur": 787,
      "Ġass": 788,
      "Ġpr": 789,
      "Ġatt": 790,
      "ng": 791,
      "Ġfe": 792,
      "Ġem": 793,
      "ram": 794,
      "Ġyears": 795,
      "iet": 796,
      "oth": 797,
      "Ġsub": 798,
      "Ġ4": 799,
      "Ġdec": 800,
      "ble": 801,
      "meric": 802,
      "hen": 803,
      "ade": 804,
      "ible": 805,
      "ution": 806,
      "row": 807,
      "ful": 808,
      "Ġco": 809,
      "ange": 810,
      "ert": 811,
      "ures": 812,
      "land": 813,
      "ink": 814,
      "Ġ18": 815,
      "ased": 816,
      "ited": 817,
      "cy": 818,
      "ten": 819,
      "Ġfl": 820,
      "ower": 821,
      "aw": 822,
      "ility": 823,
      "gan": 824,
      "ween": 825,
      "ife": 826,
      "Ġpres": 827,
      "Ġrem": 828,
      "Ġadd": 829,
      "Ġ5": 830,
      "In": 831,
      "fore": 832,
      "own": 833,
      "sel": 834,
      "ered": 835,
      "Ġinv": 836,
      "Ġwater": 837,
      "Ġsupp": 838,
      "Ġshould": 839,
      "eth": 840,
      "Ġdiffere": 841,
      "Ġcould": 842,
      "hes": 843,
      "Ġhel": 844,
      "Ġbetween": 845,
      "ists": 846,
      "Ġear": 847,
      "uch": 848,
      "chool": 849,
      "ĠAmeric": 850,
      "Ġwell": 851,
      "xt": 852,
      "ĠAs": 853,
      "Ġsm": 854,
      "ract": 855,
      "ormation": 856,
      "ident": 857,
      "ology": 858,
      "Ġpol": 859,
      "ily": 860,
      "Ġform": 861,
      "ivers": 862,
      "ural": 863,
      "Ġwhere": 864,
      "Ġrese": 865,
      "ont": 866,
      "Ġhelp": 867,
      "Ġnum": 868,
      "Ġhigh": 869,
      "ick": 870,
      "Ġcent": 871,
      "its": 872,
      "ever": 873,
      "ict": 874,
      "Ġtrans": 875,
      "Ġlar": 876,
      "ants": 877,
      "Ġher": 878,
      "Ġinter": 879,
      "Ġfound": 880,
      "ft": 881,
      "ines": 882,
      "Ġinst": 883,
      "Ġmod": 884,
      "Ġbu": 885,
      "Ġref": 886,
      "chn": 887,
      "Ġed": 888,
      "Ġcount": 889,
      "ins": 890,
      "ism": 891,
      "urn": 892,
      "Ġafter": 893,
      "Ġsaid": 894,
      "Ġpub": 895,
      "cept": 896,
      "Ġpers": 897,
      "gy": 898,
      "ually": 899,
      "eral": 900,
      "Ġprog": 901,
      "the": 902,
      "itt": 903,
      "iew": 904,
      "ature": 905,
      "Ġlong": 906,
      "Ġthen": 907,
      "other": 908,
      "vern": 909,
      "Ġexam": 910,
      "ef": 911,
      "Ġcar": 912,
      "Ġvery": 913,
      "Ġbecause": 914,
      ".\"": 915,
      "Ġsim": 916,
      "oy": 917,
      "Ġdet": 918,
      "cent": 919,
      "Ġcall": 920,
      "ved": 921,
      "Ġdisc": 922,
      "omm": 923,
      "Ġworld": 924,
      "Ġthose": 925,
      "Ġmake": 926,
      "Ġimport": 927,
      "Th": 928,
      "ollow": 929,
      "Ġeffect": 930,
      "roup": 931,
      "Ġext": 932,
      "vent": 933,
      "Ġhum": 934,
      "Ġloc": 935,
      "cer": 936,
      "ds": 937,
      "Ġeven": 938,
      "ically": 939,
      "ĠAl": 940,
      "Ġjust": 941,
      "ness": 942,
      "Ġincre": 943,
      "Ġresp": 944,
      "Ġinformation": 945,
      "Ġsee": 946,
      "ĠPro": 947,
      "Ġdist": 948,
      "ork": 949,
      "Ġgra": 950,
      "led": 951,
      "||": 952,
      "ather": 953,
      "get": 954,
      "Ġvar": 955,
      "19": 956,
      "Ġsec": 957,
      "Ġeach": 958,
      "ives": 959,
      "Ġsign": 960,
      "Ġhealth": 961,
      "Ġget": 962,
      "arm": 963,
      "Ġpartic": 964,
      "ata": 965,
      "ĠWh": 966,
      "Ġdef": 967,
      "ues": 968,
      "io": 969,
      "ages": 970,
      "Ġresult": 971,
      "ĠNew": 972,
      "iron": 973,
      "Ġset": 974,
      "Ġ201": 975,
      "Ġmed": 976,
      "Ġ6": 977,
      "Ġent": 978,
      "Ġbeing": 979,
      "Ġmade": 980,
      "Ġsci": 981,
      "Ġway": 982,
      "Ġdifferent": 983,
      "Ġmon": 984,
      "ck": 985,
      "Ġexper": 986,
      "Ġshe": 987,
      "ros": 988,
      ".,": 989,
      "ized": 990,
      "Ġchildren": 991,
      "Ġfact": 992,
      "Ġpat": 993,
      "ases": 994,
      "ex": 995,
      "ward": 996,
      "orn": 997,
      "aking": 998,
      "Ġ199": 999,
      "Ġmuch": 1000,
      "Ġart": 1001,
      "ĠAr": 1002,
      "Ġtyp": 1003,
      "Ġfam": 1004,
      "imes": 1005,
      "Ġrequ": 1006,
      "iversity": 1007,
      "Ġduring": 1008,
      "ruct": 1009,
      "eg": 1010,
      "Ġfollow": 1011,
      "und": 1012,
      "ĠWe": 1013,
      "Ġsame": 1014,
      "Ġcommun": 1015,
      "000": 1016,
      "Ġdep": 1017,
      "Ġown": 1018,
      "Ġright": 1019,
      "iel": 1020,
      "any": 1021,
      "onom": 1022,
      "Ġaut": 1023,
      "Ġke": 1024,
      "ale": 1025,
      "ished": 1026,
      "Ġsoc": 1027,
      "Ġevery": 1028,
      "ince": 1029,
      "Ġhist": 1030,
      "Ġschool": 1031,
      "ĠAn": 1032,
      "ection": 1033,
      "Ġtechn": 1034,
      "Ġlife": 1035,
      "Ġprocess": 1036,
      "Ġgroup": 1037,
      "Ġhim": 1038,
      "gg": 1039,
      "Ġmy": 1040,
      "ars": 1041,
      "Ġend": 1042,
      "Ġcre": 1043,
      "Ġpop": 1044,
      "Ġread": 1045,
      "hip": 1046,
      "Ġstudy": 1047,
      "ined": 1048,
      "Ġcur": 1049,
      "Ġsmall": 1050,
      "Ġstate": 1051,
      "Ġboth": 1052,
      "ĠFor": 1053,
      "Ġav": 1054,
      "Ġstudents": 1055,
      "Ġagain": 1056,
      "ĠSp": 1057,
      "hem": 1058,
      "Ġlear": 1059,
      "ices": 1060,
      "Ġproble": 1061,
      "ĠâĢĵ": 1062,
      "Ġlevel": 1063,
      "ize": 1064,
      "viron": 1065,
      "ĠThey": 1066,
      "Ġlead": 1067,
      "ix": 1068,
      "ran": 1069,
      "oh": 1070,
      "ting": 1071,
      "Ġocc": 1072,
      "Ġdoes": 1073,
      "Ġfind": 1074,
      "ah": 1075,
      "Ġbefore": 1076,
      "Ġshow": 1077,
      "omen": 1078,
      "ury": 1079,
      "ty": 1080,
      "Ġnow": 1081,
      "Ġmin": 1082,
      "Ġback": 1083,
      "read": 1084,
      "ute": 1085,
      "Ġimportant": 1086,
      "ĠInd": 1087,
      "Ġexpl": 1088,
      "up": 1089,
      "ody": 1090,
      "ral": 1091,
      "Ġbo": 1092,
      "inal": 1093,
      "nce": 1094,
      "irect": 1095,
      "Ġstr": 1096,
      "ven": 1097,
      "Ġcap": 1098,
      "form": 1099,
      "Ġest": 1100,
      "ax": 1101,
      "Ġec": 1102,
      "imate": 1103,
      "Ġnumber": 1104,
      "rol": 1105,
      "Ġmem": 1106,
      "Ġcomple": 1107,
      "ergy": 1108,
      "ially": 1109,
      "Ġins": 1110,
      "ient": 1111,
      "Ġgovern": 1112,
      "ock": 1113,
      "ters": 1114,
      "Ġ10": 1115,
      "ier": 1116,
      "Ġthree": 1117,
      "Ġgl": 1118,
      ",\"": 1119,
      "Ġfood": 1120,
      "Ġserv": 1121,
      "Ġtest": 1122,
      "ĠIf": 1123,
      "Ġgood": 1124,
      "Ġdi": 1125,
      "Ġposs": 1126,
      "ands": 1127,
      "der": 1128,
      "'t": 1129,
      "air": 1130,
      "ides": 1131,
      "Ġperson": 1132,
      "ave": 1133,
      "Ġreport": 1134,
      "Ġ7": 1135,
      "Ġless": 1136,
      "Ġval": 1137,
      ".âĢĿ": 1138,
      "ulation": 1139,
      "vironment": 1140,
      "Ġpower": 1141,
      "Ġresearch": 1142,
      "ving": 1143,
      "aj": 1144,
      "ected": 1145,
      "ivid": 1146,
      "ves": 1147,
      "Ġchar": 1148,
      "outh": 1149,
      "hers": 1150,
      "cl": 1151,
      "Ġorgan": 1152,
      "Ġmust": 1153,
      "Ġsk": 1154,
      "Ġlarge": 1155,
      "Ġoften": 1156,
      "Ġdata": 1157,
      "Ġbel": 1158,
      "Ġmain": 1159,
      "ee": 1160,
      "uss": 1161,
      "Ġdid": 1162,
      "Ġhuman": 1163,
      "ouse": 1164,
      "Ġprot": 1165,
      "ality": 1166,
      "Ġ8": 1167,
      "rent": 1168,
      "Ġclass": 1169,
      "Ġconf": 1170,
      "Ġday": 1171,
      "Ġdesign": 1172,
      "ĠIs": 1173,
      "âĢĶ": 1174,
      "ĠRe": 1175,
      "ĠHow": 1176,
      "Ġpublic": 1177,
      "ains": 1178,
      "Ġvis": 1179,
      "Ġwhile": 1180,
      "Ġpoint": 1181,
      "ĠBut": 1182,
      "Ġgreat": 1183,
      "Ġusing": 1184,
      "ted": 1185,
      "ron": 1186,
      "Ġplan": 1187,
      "Ġdown": 1188,
      "ton": 1189,
      "akes": 1190,
      "Ġsol": 1191,
      "Ġcontin": 1192,
      "Ġelect": 1193,
      "Ġgrow": 1194,
      "ency": 1195,
      "day": 1196,
      "ash": 1197,
      "Ġser": 1198,
      "Ġtreat": 1199,
      "Ġcell": 1200,
      "Ġret": 1201,
      "ull": 1202,
      "Ġcalled": 1203,
      "Ġdise": 1204,
      "Ġgener": 1205,
      "iqu": 1206,
      "iety": 1207,
      "com": 1208,
      "orth": 1209,
      "dition": 1210,
      "Ġconst": 1211,
      "Ġ9": 1212,
      "ĠAmerican": 1213,
      "aus": 1214,
      "man": 1215,
      "ared": 1216,
      "stand": 1217,
      "Ġsupport": 1218,
      "self": 1219,
      "Ġtake": 1220,
      "ring": 1221,
      "Ġconsid": 1222,
      "Ġactiv": 1223,
      "ĠUniversity": 1224,
      "raph": 1225,
      "This": 1226,
      "itions": 1227,
      "Ġop": 1228,
      "osed": 1229,
      "ger": 1230,
      "bers": 1231,
      "way": 1232,
      "Ġcour": 1233,
      "Ġris": 1234,
      "Ġcor": 1235,
      "amp": 1236,
      "Ġthough": 1237,
      "aterial": 1238,
      "ital": 1239,
      "Ġcommon": 1240,
      "Ġequ": 1241,
      "ross": 1242,
      "ional": 1243,
      "Ġaround": 1244,
      "Ġcle": 1245,
      "iod": 1246,
      "oci": 1247,
      "Ġknown": 1248,
      "lish": 1249,
      "Ġexample": 1250,
      "oun": 1251,
      "Ġincluding": 1252,
      "Ġfun": 1253,
      "ources": 1254,
      "Ġeduc": 1255,
      "ians": 1256,
      "Ġredu": 1257,
      "acter": 1258,
      "ĠEng": 1259,
      "reen": 1260,
      "Ġmet": 1261,
      "ĠDe": 1262,
      "de": 1263,
      "ired": 1264,
      "Ġpresent": 1265,
      "Ġlook": 1266,
      "Ġwrit": 1267,
      "ium": 1268,
      "els": 1269,
      "Ġadv": 1270,
      "10": 1271,
      "ug": 1272,
      "Ġstill": 1273,
      "ries": 1274,
      "ĠCon": 1275,
      "illion": 1276,
      "Ġmat": 1277,
      "ĠAnd": 1278,
      "Ġappro": 1279,
      "ained": 1280,
      "erest": 1281,
      "Ġaff": 1282,
      "to": 1283,
      "Ġbuild": 1284,
      "ĠRes": 1285,
      "ield": 1286,
      "Ġplace": 1287,
      "ĠThere": 1288,
      "Ġdirect": 1289,
      "Ġallow": 1290,
      "Ġsl": 1291,
      "Ġquest": 1292,
      "Wh": 1293,
      "ration": 1294,
      "Ġarea": 1295,
      "Ġfew": 1296,
      "Ġcare": 1297,
      "ense": 1298,
      "Ġdem": 1299,
      "Ġbody": 1300,
      "ization": 1301,
      "iven": 1302,
      "ĠUnited": 1303,
      "ination": 1304,
      "rain": 1305,
      "Ġgu": 1306,
      "Ġsom": 1307,
      "ajor": 1308,
      "20": 1309,
      "Ġgovernment": 1310,
      "Ġmil": 1311,
      "ission": 1312,
      "iving": 1313,
      "lished": 1314,
      "Ġpercent": 1315,
      "ris": 1316,
      "Ġwithin": 1317,
      "Ġair": 1318,
      "ĠPh": 1319,
      "ior": 1320,
      "ason": 1321,
      "Ġpur": 1322,
      "Ġdesc": 1323,
      "ner": 1324,
      "Ġmaterial": 1325,
      "Ġprogram": 1326,
      "Ġland": 1327,
      "Ġenergy": 1328,
      "ividual": 1329,
      "Ġstart": 1330,
      "Ġproject": 1331,
      "hor": 1332,
      "ological": 1333,
      "Ġdevelopment": 1334,
      "ified": 1335,
      "Ġtem": 1336,
      "Ġmight": 1337,
      "ording": 1338,
      "Ġchang": 1339,
      "Ġenvironment": 1340,
      "Ġlaw": 1341,
      "Ġbeh": 1342,
      "angu": 1343,
      "arent": 1344,
      "Ġpass": 1345,
      "Ġiss": 1346,
      "Ġide": 1347,
      "att": 1348,
      "rist": 1349,
      "Ġwithout": 1350,
      "Ġlight": 1351,
      "Ġpract": 1352,
      "ering": 1353,
      "Ġwar": 1354,
      "Ġanother": 1355,
      "ertain": 1356,
      "less": 1357,
      "Ġ'": 1358,
      "ĠCol": 1359,
      "Ġstand": 1360,
      "eng": 1361,
      "az": 1362,
      "iver": 1363,
      "ĠThese": 1364,
      "rodu": 1365,
      "tt": 1366,
      "agn": 1367,
      "ision": 1368,
      "Ġwomen": 1369,
      "Ġthink": 1370,
      "Ġnear": 1371,
      "Ġfore": 1372,
      "Ġbelie": 1373,
      "Ġearly": 1374,
      "ĠStates": 1375,
      "atural": 1376,
      "ource": 1377,
      "ograph": 1378,
      "bs": 1379,
      "here": 1380,
      "ets": 1381,
      "ern": 1382,
      "Ġsever": 1383,
      "Ġmeas": 1384,
      "ption": 1385,
      "gin": 1386,
      "of": 1387,
      "Ġchange": 1388,
      "Ġ&": 1389,
      "line": 1390,
      "Ġold": 1391,
      "Ġ15": 1392,
      "Ġlast": 1393,
      "Ġphys": 1394,
      "Ġ[": 1395,
      "Ġeconom": 1396,
      "Ġbas": 1397,
      "ids": 1398,
      "ĠSe": 1399,
      "atic": 1400,
      "Ġinterest": 1401,
      "ently": 1402,
      "ived": 1403,
      "Ġspecies": 1404,
      "Ġsecond": 1405,
      "Ġcaus": 1406,
      "Ġprof": 1407,
      "Ġoper": 1408,
      "ĠAd": 1409,
      "Ġimm": 1410,
      "Ġagainst": 1411,
      "ĠSh": 1412,
      "Ġindividual": 1413,
      "Ġscient": 1414,
      "inc": 1415,
      "me": 1416,
      "Ġeas": 1417,
      "Ġavail": 1418,
      "ccess": 1419,
      "Ġrest": 1420,
      "Ġident": 1421,
      "arc": 1422,
      "Ġmajor": 1423,
      "Ġleg": 1424,
      "ww": 1425,
      "Ġanim": 1426,
      "oms": 1427,
      "Ġter": 1428,
      "Ġbre": 1429,
      "Ġunderstand": 1430,
      ",âĢĿ": 1431,
      "ĠCl": 1432,
      "Ġbro": 1433,
      "Ġmen": 1434,
      "...": 1435,
      "Ġeng": 1436,
      "ethod": 1437,
      "Ġhistory": 1438,
      "ik": 1439,
      "Ġ17": 1440,
      "Ġhand": 1441,
      "ential": 1442,
      "Ġcontrol": 1443,
      "ards": 1444,
      "ats": 1445,
      "Ġsays": 1446,
      "use": 1447,
      "Ġunt": 1448,
      "Ġpos": 1449,
      "ĠComm": 1450,
      "ĠNational": 1451,
      "ites": 1452,
      "Ġcult": 1453,
      "itive": 1454,
      "Ġhere": 1455,
      "Ġopp": 1456,
      "ator": 1457,
      "Ġpar": 1458,
      "Ġ.": 1459,
      "Ġve": 1460,
      "Ġdisease": 1461,
      "lement": 1462,
      "omp": 1463,
      "Ġoccur": 1464,
      "alk": 1465,
      "view": 1466,
      "Ġinclude": 1467,
      "Ġseveral": 1468,
      "Ġproduct": 1469,
      "Ġplay": 1470,
      "ote": 1471,
      "sy": 1472,
      "Ġorig": 1473,
      "Ġparticular": 1474,
      "Ġwant": 1475,
      "Ġmark": 1476,
      "Ġexperi": 1477,
      "Ġprop": 1478,
      "osp": 1479,
      "though": 1480,
      "Ġsay": 1481,
      "Ġlow": 1482,
      "ability": 1483,
      "ret": 1484,
      "Ġtre": 1485,
      "Ġperiod": 1486,
      "ĠCent": 1487,
      "Ġcurrent": 1488,
      "Ġpot": 1489,
      "ina": 1490,
      "ned": 1491,
      "ided": 1492,
      "lu": 1493,
      "esp": 1494,
      "ittle": 1495,
      "ĠYou": 1496,
      "sp": 1497,
      "icle": 1498,
      "Ġant": 1499,
      "Ġfour": 1500,
      "Ġbecome": 1501,
      "Ġ0": 1502,
      "ank": 1503,
      "Ġsym": 1504,
      "Ġamong": 1505,
      "ames": 1506,
      "ify": 1507,
      "ining": 1508,
      "ĠCan": 1509,
      "Ġsince": 1510,
      "urop": 1511,
      "Ġmar": 1512,
      "Ġmove": 1513,
      "ĠGod": 1514,
      "It": 1515,
      "ĠAt": 1516,
      "Ġsocial": 1517,
      "Ġavailable": 1518,
      "Ġet": 1519,
      "eed": 1520,
      "ĠEn": 1521,
      "Ġfamily": 1522,
      "Ġdon": 1523,
      "âĢľ": 1524,
      "Ġareas": 1525,
      "ably": 1526,
      "Ġname": 1527,
      "Ġimpro": 1528,
      "Ġorder": 1529,
      "min": 1530,
      "ead": 1531,
      "cing": 1532,
      "Ġhome": 1533,
      "olution": 1534,
      "ended": 1535,
      "Ġreal": 1536,
      "par": 1537,
      "idence": 1538,
      "ĠPl": 1539,
      "ention": 1540,
      "Ġanal": 1541,
      "ences": 1542,
      "Ġblood": 1543,
      "irc": 1544,
      "Ġproper": 1545,
      "Ġview": 1546,
      "Ġ198": 1547,
      "âĢĵ": 1548,
      "abor": 1549,
      "Ġprovide": 1550,
      "ĠQ": 1551,
      "ĠEx": 1552,
      "Ġpri": 1553,
      "Ġben": 1554,
      "ole": 1555,
      "Ġcountry": 1556,
      "Ġopen": 1557,
      "Ġmus": 1558,
      "stit": 1559,
      "Ġlim": 1560,
      "ohn": 1561,
      "Ġinvol": 1562,
      "ĠZ": 1563,
      "Ġ12": 1564,
      "Ġnon": 1565,
      "Ġel": 1566,
      "Ġpossible": 1567,
      "Ġindu": 1568,
      "Ġlangu": 1569,
      "Ġtop": 1570,
      "ways": 1571,
      "Ġaddition": 1572,
      "gen": 1573,
      "ories": 1574,
      "Ġmethod": 1575,
      "18": 1576,
      "Ġtoo": 1577,
      "Ġrisk": 1578,
      "ples": 1579,
      "urope": 1580,
      "12": 1581,
      "iness": 1582,
      "Ġobject": 1583,
      "Ġhead": 1584,
      "Ġrece": 1585,
      "Ġfollowing": 1586,
      "Ġhig": 1587,
      "resent": 1588,
      "Ġmeans": 1589,
      "Ġbest": 1590,
      "rid": 1591,
      "ilar": 1592,
      "Ġfre": 1593,
      "Ġlocal": 1594,
      "Ġdev": 1595,
      "ĠChrist": 1596,
      "ental": 1597,
      "Ġcost": 1598,
      "Ġlater": 1599,
      "une": 1600,
      "Ġrad": 1601,
      "ĠHowever": 1602,
      "iter": 1603,
      "Ġbi": 1604,
      "ged": 1605,
      "Ġvol": 1606,
      "rap": 1607,
      "ĠAf": 1608,
      "Ġbetter": 1609,
      "Ġbir": 1610,
      "Ġperform": 1611,
      "Ġ16": 1612,
      "Ġfar": 1613,
      "ling": 1614,
      "ither": 1615,
      "Ġobs": 1616,
      "Ġuntil": 1617,
      "ills": 1618,
      "Ġfin": 1619,
      "ĠWhen": 1620,
      "ope": 1621,
      "Ġpolit": 1622,
      "ternational": 1623,
      "Ġgiven": 1624,
      "Ġmean": 1625,
      "Ġmonth": 1626,
      "ggest": 1627,
      "Ġtimes": 1628,
      "Ġfac": 1629,
      "ogn": 1630,
      "--": 1631,
      "ĠâĢĶ": 1632,
      "ients": 1633,
      "Ġlist": 1634,
      "not": 1635,
      "Ġothers": 1636,
      "Ġbook": 1637,
      "oint": 1638,
      "ware": 1639,
      "Ġsignific": 1640,
      "ĠTo": 1641,
      "ends": 1642,
      "Ġlittle": 1643,
      "urther": 1644,
      "ĠEurope": 1645,
      "ĠTe": 1646,
      "Ġcase": 1647,
      "ised": 1648,
      "Ġ$": 1649,
      "Ġcal": 1650,
      "Ġpain": 1651,
      "Ġcause": 1652,
      "aps": 1653,
      "Ġbased": 1654,
      "be": 1655,
      "ĠOr": 1656,
      "pr": 1657,
      "orld": 1658,
      "Ġdel": 1659,
      "Ġnatural": 1660,
      "Ġrun": 1661,
      "Ġtri": 1662,
      "face": 1663,
      "Ġ|": 1664,
      "ĠOn": 1665,
      "Ġauthor": 1666,
      "aken": 1667,
      "oks": 1668,
      "Ġsuccess": 1669,
      "Ġseem": 1670,
      "Ġcertain": 1671,
      "por": 1672,
      "Ġcond": 1673,
      "Ġwee": 1674,
      "cial": 1675,
      "oph": 1676,
      "Ġplant": 1677,
      "Ġappear": 1678,
      "Ġsuggest": 1679,
      "Ġcomput": 1680,
      "ĠAll": 1681,
      "Ġlo": 1682,
      "Ġche": 1683,
      "Ġfree": 1684,
      "Ġage": 1685,
      "Ġcome": 1686,
      "Ġcentury": 1687,
      "ĠSci": 1688,
      "Ġproblem": 1689,
      "50": 1690,
      "Ġmillion": 1691,
      "__": 1692,
      "Ġrecord": 1693,
      "atory": 1694,
      "aper": 1695,
      "Ġpost": 1696,
      "Ġable": 1697,
      "ured": 1698,
      "ploy": 1699,
      "Ġkeep": 1700,
      "Ġput": 1701,
      "ots": 1702,
      "Ġstruct": 1703,
      "Ġassoci": 1704,
      "ances": 1705,
      "ĠJohn": 1706,
      "Ġproblems": 1707,
      "Ġpress": 1708,
      "Ġsaf": 1709,
      "Ġestab": 1710,
      "Ġpopulation": 1711,
      "orts": 1712,
      "Ġthings": 1713,
      "Ġyoung": 1714,
      "ately": 1715,
      "Ġhowever": 1716,
      "Ġdeterm": 1717,
      "ĠBrit": 1718,
      "Ġturn": 1719,
      "lection": 1720,
      "eb": 1721,
      "ĠUS": 1722,
      "pect": 1723,
      "11": 1724,
      "Ġdeath": 1725,
      "ones": 1726,
      "Ġexist": 1727,
      "Ġalong": 1728,
      "Ġaccess": 1729,
      "ĠEar": 1730,
      "elf": 1731,
      "200": 1732,
      "Ġfil": 1733,
      "Ġbus": 1734,
      "ley": 1735,
      "ĠâĢĺ": 1736,
      "Ġshort": 1737,
      "Ġhapp": 1738,
      "app": 1739,
      "Ġprevent": 1740,
      "Ġdays": 1741,
      "ĠMed": 1742,
      "Ġtreatment": 1743,
      "Ġflow": 1744,
      "by": 1745,
      "Ġlet": 1746,
      "icult": 1747,
      "Ġprom": 1748,
      "Ġcommunity": 1749,
      "ĠWar": 1750,
      "Ġindust": 1751,
      "Ġsw": 1752,
      "Ġpast": 1753,
      "vious": 1754,
      "ane": 1755,
      "af": 1756,
      "Ġabove": 1757,
      "Ġhard": 1758,
      "Ġcells": 1759,
      "Ġdescrib": 1760,
      "ĠSc": 1761,
      "Ġdra": 1762,
      "isc": 1763,
      "over": 1764,
      "Ġspace": 1765,
      "Ġcirc": 1766,
      "Ġsing": 1767,
      "Ġeducation": 1768,
      "ĠAfric": 1769,
      "ruction": 1770,
      "Ġcomb": 1771,
      "ember": 1772,
      "ators": 1773,
      "ĠBe": 1774,
      "ler": 1775,
      "idd": 1776,
      "Ġsystems": 1777,
      "Ġamount": 1778,
      "Ġill": 1779,
      "Ġlevels": 1780,
      "Ġusually": 1781,
      "work": 1782,
      "ression": 1783,
      "Ġcharacter": 1784,
      "Ġsite": 1785,
      "aster": 1786,
      "most": 1787,
      "ape": 1788,
      "ored": 1789,
      "Ġbecame": 1790,
      "lo": 1791,
      "ray": 1792,
      "Ġleft": 1793,
      "Ġvir": 1794,
      "ribut": 1795,
      "Ġsignificant": 1796,
      "Ġdiscuss": 1797,
      "ledge": 1798,
      "ott": 1799,
      "Ġgeneral": 1800,
      "etic": 1801,
      "str": 1802,
      "wh": 1803,
      "As": 1804,
      "ued": 1805,
      "Ġbenef": 1806,
      "Ġrele": 1807,
      "Ġcourse": 1808,
      "alf": 1809,
      "Ġsimilar": 1810,
      "uture": 1811,
      "Ġleast": 1812,
      "Ġmult": 1813,
      "ĠGerm": 1814,
      "Ġtype": 1815,
      "Ġclear": 1816,
      "ocus": 1817,
      "Ġspecial": 1818,
      "ument": 1819,
      "urch": 1820,
      "Ġer": 1821,
      "yd": 1822,
      "We": 1823,
      "Ġteac": 1824,
      "mber": 1825,
      "for": 1826,
      "Ġmov": 1827,
      "ĠGen": 1828,
      "Ġgre": 1829,
      "aim": 1830,
      "ox": 1831,
      "Ġ--": 1832,
      "ortun": 1833,
      "rug": 1834,
      "Ġnever": 1835,
      "nal": 1836,
      "Ġoffic": 1837,
      "Ġresults": 1838,
      "Ġ197": 1839,
      "Ġlikely": 1840,
      "oman": 1841,
      "Ġlanguage": 1842,
      "Ġcancer": 1843,
      "val": 1844,
      "aining": 1845,
      "Ġinvest": 1846,
      "oid": 1847,
      "Ġbegin": 1848,
      "Ġnext": 1849,
      "ending": 1850,
      "Ġheart": 1851,
      "Ġcountries": 1852,
      "ĠWhat": 1853,
      "ales": 1854,
      "Ġdri": 1855,
      "ae": 1856,
      "erc": 1857,
      "ĠGe": 1858,
      "Ġcrit": 1859,
      "agement": 1860,
      "ode": 1861,
      "Ġtemper": 1862,
      "ething": 1863,
      "ilt": 1864,
      "ĠWorld": 1865,
      "ours": 1866,
      "erence": 1867,
      "Ġwords": 1868,
      "Ġconn": 1869,
      "ym": 1870,
      "enn": 1871,
      "ecially": 1872,
      "iam": 1873,
      "Ġgr": 1874,
      "Ġnational": 1875,
      "Ġnecess": 1876,
      "Ġresearc": 1877,
      "right": 1878,
      "ges": 1879,
      "obal": 1880,
      "Ġrepresent": 1881,
      "Ġenc": 1882,
      "ively": 1883,
      "Ġprim": 1884,
      "port": 1885,
      "ĠNorth": 1886,
      "sw": 1887,
      "cle": 1888,
      "Ġdifficult": 1889,
      "Ġtoday": 1890,
      "ilities": 1891,
      "Ġterm": 1892,
      "Ġplac": 1893,
      "Ġsubject": 1894,
      "Ġmaking": 1895,
      "Ġparent": 1896,
      "ublic": 1897,
      "Ġindic": 1898,
      "Ġcity": 1899,
      "asing": 1900,
      "ĠCar": 1901,
      "ĠMay": 1902,
      "Ġcreat": 1903,
      "30": 1904,
      "Ġ14": 1905,
      "let": 1906,
      "Ġincrease": 1907,
      "Ġbehav": 1908,
      "duct": 1909,
      "ĠMar": 1910,
      "Ġlearn": 1911,
      "ffic": 1912,
      "edi": 1913,
      "Ġscience": 1914,
      "Ġsum": 1915,
      "ery": 1916,
      "Ġground": 1917,
      "especially": 1918,
      "Ġchem": 1919,
      "selves": 1920,
      "Ġside": 1921,
      "earch": 1922,
      "Ġgive": 1923,
      "If": 1924,
      "Ġupon": 1925,
      "ĠYork": 1926,
      "Ġconditions": 1927,
      "Ġfunction": 1928,
      "Ġtru": 1929,
      "Ġstrong": 1930,
      "ann": 1931,
      "ĠCal": 1932,
      "Ġ30": 1933,
      "ober": 1934,
      "ĠLe": 1935,
      "Ġprofess": 1936,
      "Ġline": 1937,
      "Ġconcer": 1938,
      "AS": 1939,
      "Ġspecific": 1940,
      "Ġalways": 1941,
      "Ġchanges": 1942,
      "Ġdue": 1943,
      "St": 1944,
      "Ġask": 1945,
      "Ġlearning": 1946,
      "Ġcho": 1947,
      "Ġtoget": 1948,
      "Ġtogether": 1949,
      "ird": 1950,
      "Ġkind": 1951,
      ".)": 1952,
      "aves": 1953,
      "Ġcr": 1954,
      "Ġfull": 1955,
      "rams": 1956,
      "istic": 1957,
      "Ġhigher": 1958,
      "ipp": 1959,
      "Ġrespons": 1960,
      "itor": 1961,
      "ĠAmerica": 1962,
      "Ġapplic": 1963,
      "Ġfocus": 1964,
      "Ġpolic": 1965,
      "Ġinflu": 1966,
      "artment": 1967,
      "Ġvarious": 1968,
      "esc": 1969,
      "Ġsomething": 1970,
      "Ġgroups": 1971,
      "ĠEnglish": 1972,
      "Ġfeel": 1973,
      "ivil": 1974,
      "Ġfund": 1975,
      "atch": 1976,
      "Ġfuture": 1977,
      "ĠSouth": 1978,
      "Ġdr": 1979,
      "Ġstudies": 1980,
      "Ġtechnology": 1981,
      "Ġimpact": 1982,
      "iation": 1983,
      "unt": 1984,
      "ibr": 1985,
      "Ġtext": 1986,
      "Ġwind": 1987,
      "ĠBl": 1988,
      "itu": 1989,
      "Ġcomplete": 1990,
      "Ġaway": 1991,
      "oot": 1992,
      "aut": 1993,
      "son": 1994,
      "ateg": 1995,
      "Ġrelig": 1996,
      "Ġwhether": 1997,
      "Ġz": 1998,
      "ĠGo": 1999,
      "Ġplants": 2000,
      "ER": 2001,
      "Ġdam": 2002,
      "Ġconsum": 2003,
      "augh": 2004,
      "aching": 2005,
      "Ġrequire": 2006,
      "Ġ11": 2007,
      "There": 2008,
      "omes": 2009,
      "Ġworks": 2010,
      "\".": 2011,
      "Ġenough": 2012,
      "Ġacross": 2013,
      "Ġdeveloped": 2014,
      "overed": 2015,
      "ream": 2016,
      "Ġpred": 2017,
      "Ġfurther": 2018,
      "Ġmembers": 2019,
      "sh": 2020,
      "Ġeffects": 2021,
      "Ġconsider": 2022,
      "ique": 2023,
      "iting": 2024,
      "ison": 2025,
      "Ġcases": 2026,
      "ĠState": 2027,
      "ĠSo": 2028,
      "Ġhouse": 2029,
      "What": 2030,
      "Ġespecially": 2031,
      "ush": 2032,
      "Ġann": 2033,
      "Ġhaving": 2034,
      "Ġfield": 2035,
      "An": 2036,
      "Ġprob": 2037,
      "oney": 2038,
      "ĠHealth": 2039,
      "ung": 2040,
      "ĠSome": 2041,
      "yn": 2042,
      "Ġrather": 2043,
      "Ġquestion": 2044,
      "ification": 2045,
      "ĠRep": 2046,
      "Ġele": 2047,
      "Ġeither": 2048,
      "ication": 2049,
      "Ġmot": 2050,
      "ormal": 2051,
      "Ġey": 2052,
      "ĠOne": 2053,
      "Ġseen": 2054,
      "Ġphot": 2055,
      "Ġcame": 2056,
      "ĠJew": 2057,
      "For": 2058,
      "side": 2059,
      "Ġsurface": 2060,
      "ĠAb": 2061,
      "rict": 2062,
      "Ġstat": 2063,
      "ĠDep": 2064,
      "acc": 2065,
      "Ġreason": 2066,
      "ready": 2067,
      "Ġobserv": 2068,
      "amm": 2069,
      "verage": 2070,
      "Ġfive": 2071,
      "ĠAm": 2072,
      "Ġtaken": 2073,
      "//": 2074,
      "yl": 2075,
      "Ġworking": 2076,
      "Ġclose": 2077,
      "eter": 2078,
      "ires": 2079,
      "ches": 2080,
      "Ġaccount": 2081,
      "atures": 2082,
      "Ġ13": 2083,
      "Ġpolitical": 2084,
      "Ġproduction": 2085,
      "Ġri": 2086,
      "sych": 2087,
      "Ġword": 2088,
      "Ġbrain": 2089,
      "Ġreturn": 2090,
      "Ġur": 2091,
      "Ġ196": 2092,
      "iol": 2093,
      "Ġresources": 2094,
      "ysis": 2095,
      "Ġtry": 2096,
      "bon": 2097,
      "reg": 2098,
      "Ġmass": 2099,
      "Ġrelations": 2100,
      "rel": 2101,
      "Ġdeg": 2102,
      "ĠMan": 2103,
      "org": 2104,
      "Ġfall": 2105,
      "Ġneeds": 2106,
      "Ġpatients": 2107,
      "ĠAss": 2108,
      "Ġdest": 2109,
      "Ġwhy": 2110,
      "13": 2111,
      "thing": 2112,
      "rown": 2113,
      "Ġlower": 2114,
      "ĠHist": 2115,
      "Ġmeet": 2116,
      "ibility": 2117,
      "Ġnet": 2118,
      "Ġaccording": 2119,
      "etimes": 2120,
      "chie": 2121,
      "itary": 2122,
      "Ġhistor": 2123,
      "Ġknowledge": 2124,
      "Ġtot": 2125,
      "Ġess": 2126,
      "Ġcreate": 2127,
      "Ġsingle": 2128,
      "Ġtoward": 2129,
      "15": 2130,
      "ttp": 2131,
      "my": 2132,
      "ĠSoc": 2133,
      "uel": 2134,
      "ules": 2135,
      "Ġrange": 2136,
      "Ġteam": 2137,
      "Ġparticip": 2138,
      "Ġsource": 2139,
      "Ġalready": 2140,
      "Ġtool": 2141,
      "Ġexperience": 2142,
      "Ġarticle": 2143,
      "Ġevidence": 2144,
      "Ġresearchers": 2145,
      "put": 2146,
      "Ġdom": 2147,
      "ried": 2148,
      "ĠEarth": 2149,
      "Ġrights": 2150,
      "Ġkey": 2151,
      "oon": 2152,
      "Ġevent": 2153,
      "Ġtradition": 2154,
      "://": 2155,
      "Ġsens": 2156,
      "NA": 2157,
      "Ġdoc": 2158,
      "Ġvalue": 2159,
      "Ġrecogn": 2160,
      "Ġinit": 2161,
      "Ġcollect": 2162,
      "ournal": 2163,
      "Ġdone": 2164,
      "illed": 2165,
      "ĠX": 2166,
      "Ġgoing": 2167,
      "Ġoil": 2168,
      "itud": 2169,
      "ĠAust": 2170,
      "Ġbegan": 2171,
      "Ġsent": 2172,
      "Ġrole": 2173,
      "ĠStud": 2174,
      "ĠThat": 2175,
      "ask": 2176,
      "Ġdrug": 2177,
      "ĠDr": 2178,
      "Ġbelow": 2179,
      "Ġpublished": 2180,
      "Ġmodel": 2181,
      "opy": 2182,
      "ule": 2183,
      "Ġstates": 2184,
      "ĠBy": 2185,
      "ront": 2186,
      "Ġabs": 2187,
      "Ġways": 2188,
      "ĠHis": 2189,
      "Ġla": 2190,
      "16": 2191,
      "estern": 2192,
      "Ġlive": 2193,
      "Ġfail": 2194,
      "Ġonce": 2195,
      "Ġprotect": 2196,
      "Ġport": 2197,
      "ĠShe": 2198,
      "ps": 2199,
      "olic": 2200,
      "ederal": 2201,
      "Ġwhole": 2202,
      "Ġimprove": 2203,
      "oura": 2204,
      "Ġactivities": 2205,
      "Ġdetail": 2206,
      "17": 2207,
      "ĠWith": 2208,
      "Ġred": 2209,
      "Ġfish": 2210,
      "epend": 2211,
      "Ġrate": 2212,
      "ĠComp": 2213,
      "Ġgrowth": 2214,
      "roll": 2215,
      "Ġwhite": 2216,
      "Ch": 2217,
      "Ġbuilding": 2218,
      "Ġthemselves": 2219,
      "Ġthought": 2220,
      "Ġemploy": 2221,
      "Ġaddress": 2222,
      "sc": 2223,
      "Ġ194": 2224,
      "Ġeconomic": 2225,
      "Ġfrequ": 2226,
      "ĠAg": 2227,
      "ĠGu": 2228,
      "Ġarg": 2229,
      "Ġsize": 2230,
      "Ġflu": 2231,
      "Ġanimals": 2232,
      "gest": 2233,
      "Ġactivity": 2234,
      "Ġnature": 2235,
      "like": 2236,
      "ĠCo": 2237,
      "Ġstory": 2238,
      "rad": 2239,
      "Ġyet": 2240,
      "Ġbig": 2241,
      "Ġpaper": 2242,
      "fact": 2243,
      "Ġhalf": 2244,
      "ened": 2245,
      "fer": 2246,
      "Ġintrodu": 2247,
      "Ġbusiness": 2248,
      "Ġwr": 2249,
      "Ġphysical": 2250,
      "sequ": 2251,
      "Ġwide": 2252,
      "Ġitself": 2253,
      "Ġtook": 2254,
      "Ġhold": 2255,
      "Ġalmost": 2256,
      "cient": 2257,
      "Ġself": 2258,
      "14": 2259,
      "reme": 2260,
      "Ġreally": 2261,
      "ai": 2262,
      "iple": 2263,
      "hib": 2264,
      "Ġcannot": 2265,
      "ĠAct": 2266,
      "Ġconsidered": 2267,
      "pro": 2268,
      "aff": 2269,
      "ĠIm": 2270,
      "Ġpage": 2271,
      "Ġmakes": 2272,
      "ables": 2273,
      "Ġge": 2274,
      "Ġconcept": 2275,
      "ume": 2276,
      "aring": 2277,
      "Ġcut": 2278,
      "Ġcreated": 2279,
      "Ġblack": 2280,
      "Ġcamp": 2281,
      "Ġengine": 2282,
      "ES": 2283,
      "Ġver": 2284,
      "apt": 2285,
      "mb": 2286,
      "Ġclimate": 2287,
      "ulations": 2288,
      "Ġliving": 2289,
      "Ġgas": 2290,
      "Ġentire": 2291,
      "apan": 2292,
      "rect": 2293,
      "Ġrelated": 2294,
      "Ġmic": 2295,
      "Ġpotential": 2296,
      "oll": 2297,
      "Ġincreased": 2298,
      "acy": 2299,
      "Ġrepl": 2300,
      "ĠII": 2301,
      "Ġsun": 2302,
      "itted": 2303,
      "Ġregion": 2304,
      "empt": 2305,
      "ene": 2306,
      "alt": 2307,
      "Ġdoct": 2308,
      "Ġtypes": 2309,
      "ptoms": 2310,
      "Ġfamil": 2311,
      "ington": 2312,
      "oses": 2313,
      "ĠBritish": 2314,
      "Ġvers": 2315,
      "Ġsitu": 2316,
      "ights": 2317,
      "osis": 2318,
      "Ġstep": 2319,
      "Ġarch": 2320,
      "minist": 2321,
      "Ġachie": 2322,
      "Ġmodern": 2323,
      "acks": 2324,
      "ystem": 2325,
      "Ġtell": 2326,
      "Ġmor": 2327,
      "Ġansw": 2328,
      "abit": 2329,
      "Ġrequired": 2330,
      "Ġpurp": 2331,
      "Ġclaim": 2332,
      "Ġassociated": 2333,
      "go": 2334,
      "Ġloss": 2335,
      "Ġquality": 2336,
      "Ġsix": 2337,
      "):": 2338,
      "lands": 2339,
      "Ġopt": 2340,
      "Ġsuper": 2341,
      "Ġlay": 2342,
      "Ġmedical": 2343,
      "ĠCanad": 2344,
      "Ġmind": 2345,
      "ese": 2346,
      "attle": 2347,
      "lor": 2348,
      "Ġquestions": 2349,
      "Ġbar": 2350,
      "Ġfri": 2351,
      "Ã©": 2352,
      "ĠInstit": 2353,
      "ĠPr": 2354,
      "Ġsound": 2355,
      "bo": 2356,
      "Ġpriv": 2357,
      "Ġcomputer": 2358,
      "Ġ=": 2359,
      "ips": 2360,
      "Ġproducts": 2361,
      "Al": 2362,
      "Ġsepar": 2363,
      "Ġweek": 2364,
      "Ġneg": 2365,
      "Ġprovides": 2366,
      "iddle": 2367,
      "ĠResearch": 2368,
      "Ġ100": 2369,
      "ĠPres": 2370,
      "Ġprovided": 2371,
      "Ġneeded": 2372,
      "Ġsoil": 2373,
      "Ġ25": 2374,
      "ensive": 2375,
      "ĠTr": 2376,
      "ster": 2377,
      "atter": 2378,
      "Ġcy": 2379,
      "ĠNo": 2380,
      "Ġconduct": 2381,
      "iment": 2382,
      "icles": 2383,
      "Ġissues": 2384,
      "AT": 2385,
      "ĠSchool": 2386,
      "Ġmeasure": 2387,
      "Ġstudent": 2388,
      "Ġliter": 2389,
      "erve": 2390,
      "ops": 2391,
      "Ġprograms": 2392,
      "Ġearth": 2393,
      "ications": 2394,
      "pid": 2395,
      "AR": 2396,
      "Ġmonths": 2397,
      "ricult": 2398,
      "Ġglobal": 2399,
      "Ġparts": 2400,
      "eds": 2401,
      "Ġmaterials": 2402,
      "Ġfire": 2403,
      "ĠCount": 2404,
      "Ġ2010": 2405,
      "ĠÂ": 2406,
      "How": 2407,
      "inter": 2408,
      "vey": 2409,
      "ĠCont": 2410,
      "aged": 2411,
      "ety": 2412,
      "ript": 2413,
      "Ġscientists": 2414,
      "Ġ50": 2415,
      "ival": 2416,
      "urs": 2417,
      "Ġaffect": 2418,
      "rated": 2419,
      "Ġlab": 2420,
      "iding": 2421,
      "iction": 2422,
      "chan": 2423,
      "amin": 2424,
      "Ġever": 2425,
      "Ġschools": 2426,
      "ĠCenter": 2427,
      "Ġproduce": 2428,
      "Ġsett": 2429,
      "Ġrecomm": 2430,
      "Ġactually": 2431,
      "Ġtotal": 2432,
      "Ġenvironmental": 2433,
      "Ġspe": 2434,
      "Ġrecent": 2435,
      "vere": 2436,
      "ĠJapan": 2437,
      "Ġbuilt": 2438,
      "ivity": 2439,
      "igure": 2440,
      "urity": 2441,
      "rought": 2442,
      "Ġgreen": 2443,
      "Ġfarm": 2444,
      "irm": 2445,
      "Ġlink": 2446,
      "Ġadult": 2447,
      "Ġpay": 2448,
      "Ġchall": 2449,
      "ister": 2450,
      "Ġsure": 2451,
      "Ġidea": 2452,
      "Ġ2012": 2453,
      "ney": 2454,
      "ervation": 2455,
      "Ġpressure": 2456,
      "Ġbur": 2457,
      "aries": 2458,
      "ze": 2459,
      "ĠWill": 2460,
      "hing": 2461,
      "Ġcomplex": 2462,
      "Ġreact": 2463,
      "ging": 2464,
      "Ġdeb": 2465,
      "Ġnecessary": 2466,
      "Ġregard": 2467,
      "ply": 2468,
      "ucle": 2469,
      "Ġsimple": 2470,
      "rench": 2471,
      "Ġmaint": 2472,
      "Ġservices": 2473,
      "Ġ2011": 2474,
      "ma": 2475,
      "Ġcoll": 2476,
      "Ġmarket": 2477,
      "nces": 2478,
      "Ġsam": 2479,
      "cil": 2480,
      "ows": 2481,
      "Ġrev": 2482,
      "lying": 2483,
      "uck": 2484,
      "duc": 2485,
      "ony": 2486,
      "Ġchemical": 2487,
      "To": 2488,
      "Ġsat": 2489,
      "ĠNe": 2490,
      "Ġemer": 2491,
      "Ġreduce": 2492,
      "Ġshows": 2493,
      "Ġheav": 2494,
      "lege": 2495,
      "ĠPar": 2496,
      "Ġposition": 2497,
      "ched": 2498,
      "Ġparents": 2499,
      "Ġmoney": 2500,
      "Ġnut": 2501,
      "ief": 2502,
      "Ġservice": 2503,
      "Ġaction": 2504,
      "Ġforest": 2505,
      "ores": 2506,
      "Ġterms": 2507,
      "het": 2508,
      "Ġsymptoms": 2509,
      "When": 2510,
      "ĠAfter": 2511,
      "Ġpattern": 2512,
      "Ġdig": 2513,
      "ĠScience": 2514,
      "utes": 2515,
      "Ġunderstanding": 2516,
      "Ġrelative": 2517,
      "ĠKing": 2518,
      "onse": 2519,
      "Ġaccept": 2520,
      "Ġreported": 2521,
      "Ġsurv": 2522,
      "Ġopportun": 2523,
      "Ġhttp": 2524,
      "Ġmanagement": 2525,
      "ternal": 2526,
      "Ġeffective": 2527,
      "Ġpractice": 2528,
      "Ġsense": 2529,
      "utions": 2530,
      "ĠMin": 2531,
      "inary": 2532,
      "amed": 2533,
      "ropri": 2534,
      "Ġhours": 2535,
      "Ġsex": 2536,
      "usion": 2537,
      "Ġrelationship": 2538,
      "ĠSec": 2539,
      "ĠEd": 2540,
      "Ġprevious": 2541,
      "Ġassess": 2542,
      "ĠJan": 2543,
      "ON": 2544,
      "Ġorigin": 2545,
      "ĠDepartment": 2546,
      "Ġthroughout": 2547,
      "osition": 2548,
      "Ġsuff": 2549,
      "Ġmatter": 2550,
      "atives": 2551,
      "Ġtravel": 2552,
      "imately": 2553,
      "Ġtrue": 2554,
      "Ġago": 2555,
      "umb": 2556,
      "izing": 2557,
      "ĠPe": 2558,
      "IN": 2559,
      "Ġlot": 2560,
      "Ġtown": 2561,
      "Ġwild": 2562,
      "Ġability": 2563,
      "Ġquick": 2564,
      "Ġled": 2565,
      "Ġ2009": 2566,
      "Ġstandard": 2567,
      "Ġincreasing": 2568,
      "ening": 2569,
      "Ġconc": 2570,
      "arily": 2571,
      "Ġcontact": 2572,
      "rate": 2573,
      "Ġlate": 2574,
      "cies": 2575,
      "ĠEm": 2576,
      "ength": 2577,
      "ĠHar": 2578,
      "ump": 2579,
      "Ġfeet": 2580,
      "Ġgreater": 2581,
      "ached": 2582,
      "raft": 2583,
      "Ġtar": 2584,
      "erous": 2585,
      "Ġaverage": 2586,
      "Ġoriginal": 2587,
      "ĠSu": 2588,
      "itation": 2589,
      "lt": 2590,
      "uary": 2591,
      "ĠJu": 2592,
      "Ġapproach": 2593,
      "25": 2594,
      "hold": 2595,
      "Ġwritten": 2596,
      "Ġattempt": 2597,
      "iforn": 2598,
      "Ġfeed": 2599,
      "Ġissue": 2600,
      "ĠAug": 2601,
      "based": 2602,
      "Ġforce": 2603,
      "Ġlonger": 2604,
      "Ġanalysis": 2605,
      "Ġpopular": 2606,
      "Ġens": 2607,
      "Ġproduced": 2608,
      "Ġshown": 2609,
      "Ġinternational": 2610,
      "dom": 2611,
      "ections": 2612,
      "ĠInf": 2613,
      "Ġgenerally": 2614,
      "Ġtax": 2615,
      "Ġstructure": 2616,
      "Ġpath": 2617,
      "Ġviol": 2618,
      "adem": 2619,
      "istics": 2620,
      "Ġ2008": 2621,
      "Ġimage": 2622,
      "Ġdiet": 2623,
      "Ġsometimes": 2624,
      "eration": 2625,
      "Ġdesigned": 2626,
      "Ġreading": 2627,
      "Ġeffic": 2628,
      "Ġcondition": 2629,
      "Ġsociety": 2630,
      "fully": 2631,
      "Ġ/": 2632,
      "Ġprote": 2633,
      "know": 2634,
      "Ġprobably": 2635,
      "Ġcolor": 2636,
      "pril": 2637,
      "istance": 2638,
      "new": 2639,
      "hood": 2640,
      "bor": 2641,
      "ns": 2642,
      "Ġweight": 2643,
      "Ġcaused": 2644,
      "Ġ24": 2645,
      "Ġvari": 2646,
      "Ġfat": 2647,
      "Ġindustry": 2648,
      "thern": 2649,
      "But": 2650,
      "lease": 2651,
      "Ġdispl": 2652,
      "ĠBo": 2653,
      "Ġheld": 2654,
      "199": 2655,
      "anced": 2656,
      "IS": 2657,
      "ĠAustral": 2658,
      "Ġsoft": 2659,
      "Ġfactors": 2660,
      "ifornia": 2661,
      "Ġsubst": 2662,
      "Ġbehavior": 2663,
      "oes": 2664,
      "Ġce": 2665,
      "Ġincludes": 2666,
      "Ġpict": 2667,
      "Ġsources": 2668,
      "Ġshall": 2669,
      "Ġcontent": 2670,
      "Ġfem": 2671,
      "Ġthreat": 2672,
      "Ġjob": 2673,
      "Ġsqu": 2674,
      "Ġsou": 2675,
      "ades": 2676,
      "Ġsea": 2677,
      "ccording": 2678,
      "Ġdiv": 2679,
      "ising": 2680,
      "Ġestablished": 2681,
      "Ġtemperature": 2682,
      "ĠFran": 2683,
      "ĠPer": 2684,
      "aging": 2685,
      "ashington": 2686,
      "Ġcarbon": 2687,
      "light": 2688,
      "rew": 2689,
      "Ġpersonal": 2690,
      "Ġreview": 2691,
      "lies": 2692,
      "Ġbelieve": 2693,
      "Ġmilitary": 2694,
      "Ġinvolved": 2695,
      "ille": 2696,
      "OR": 2697,
      "Ġrespect": 2698,
      "www": 2699,
      "order": 2700,
      "Ġdemon": 2701,
      "rial": 2702,
      "ID": 2703,
      "asc": 2704,
      "Ġskin": 2705,
      "ius": 2706,
      "Ġexc": 2707,
      "ĠRiver": 2708,
      "icine": 2709,
      "Ġevents": 2710,
      "Ġscientific": 2711,
      "issions": 2712,
      "Ġincluded": 2713,
      "Ġste": 2714,
      "Ġseries": 2715,
      "ceed": 2716,
      "inks": 2717,
      "haps": 2718,
      "Ġforms": 2719,
      "ography": 2720,
      "ĠWest": 2721,
      "ĠInstitute": 2722,
      "Ġparticularly": 2723,
      "Ġtaking": 2724,
      "Ġlog": 2725,
      "Ġut": 2726,
      "Ġskills": 2727,
      "lex": 2728,
      "Ġindividuals": 2729,
      "amb": 2730,
      "Ġnumbers": 2731,
      "Ġpolicy": 2732,
      "rig": 2733,
      "Ġbring": 2734,
      "aving": 2735,
      "Ġmovement": 2736,
      "ĠFrench": 2737,
      "Ġtheory": 2738,
      "Ġmechan": 2739,
      "Ġdou": 2740,
      "Ġcomes": 2741,
      "Ġofficial": 2742,
      "Ġthus": 2743,
      "ĠEduc": 2744,
      "hern": 2745,
      "Ġcontain": 2746,
      "yle": 2747,
      "see": 2748,
      "Ġheat": 2749,
      "Ġtraining": 2750,
      "Ġmusic": 2751,
      "Ġcoun": 2752,
      "AN": 2753,
      "rie": 2754,
      "ĠPart": 2755,
      "Ġpoor": 2756,
      "IV": 2757,
      "Ġthing": 2758,
      "Ġmeaning": 2759,
      "Ġuses": 2760,
      "ressed": 2761,
      "Ġcivil": 2762,
      "Ġinteract": 2763,
      "Ġestim": 2764,
      "Ġexerc": 2765,
      "Ġinteg": 2766,
      "ĠCalifornia": 2767,
      "Ġsimply": 2768,
      "Ġspread": 2769,
      "mon": 2770,
      "Ġnorth": 2771,
      "Ġvariety": 2772,
      "Ġrefer": 2773,
      "irit": 2774,
      "Ġemb": 2775,
      "Ġfa": 2776,
      "ĠMarch": 2777,
      "alu": 2778,
      "cean": 2779,
      "On": 2780,
      "vention": 2781,
      "ĠOct": 2782,
      "Ġattack": 2783,
      "ibrary": 2784,
      "Ġmagn": 2785,
      "ronic": 2786,
      "ĠQu": 2787,
      "uth": 2788,
      "ift": 2789,
      "Ġslow": 2790,
      "ĠJune": 2791,
      "ban": 2792,
      "Ġwhose": 2793,
      "Ġetc": 2794,
      "Ġdeep": 2795,
      "undred": 2796,
      "Ġprec": 2797,
      "rand": 2798,
      "oly": 2799,
      "ctions": 2800,
      "ĠIndian": 2801,
      "rim": 2802,
      "ulated": 2803,
      "Ġindepend": 2804,
      "Ġtalk": 2805,
      "isions": 2806,
      "Ġresponse": 2807,
      "Ġbasic": 2808,
      "ads": 2809,
      "Ġinstit": 2810,
      "Ġremov": 2811,
      "itude": 2812,
      "Ġonline": 2813,
      "ilos": 2814,
      "Ġselect": 2815,
      "Ġthous": 2816,
      "erson": 2817,
      "Ġoutside": 2818,
      "Ġalthough": 2819,
      "Ġ2007": 2820,
      "verse": 2821,
      "ĠEl": 2822,
      "Ġpoll": 2823,
      "ĠApp": 2824,
      "useum": 2825,
      "Ġnormal": 2826,
      "Ġcompet": 2827,
      "ĠMe": 2828,
      "ĠPress": 2829,
      "Ġdiagn": 2830,
      "Ġlabor": 2831,
      "Ġlives": 2832,
      "Ġvisit": 2833,
      "Ġanimal": 2834,
      "Ġculture": 2835,
      "ribution": 2836,
      "ĠServ": 2837,
      "Ġsold": 2838,
      "ecause": 2839,
      "Ġstri": 2840,
      "Ġbreak": 2841,
      "where": 2842,
      "ĠMany": 2843,
      "Ġdeveloping": 2844,
      "Ġstop": 2845,
      "Ġface": 2846,
      "part": 2847,
      "Ġwood": 2848,
      "Ġnation": 2849,
      "Ġcat": 2850,
      "ufact": 2851,
      "orthern": 2852,
      "ror": 2853,
      "Ġinvestig": 2854,
      "Ġcapt": 2855,
      "reng": 2856,
      "Ġ40": 2857,
      "ulate": 2858,
      "Ġconsist": 2859,
      "Ġmethods": 2860,
      "ground": 2861,
      "Ġcompl": 2862,
      "Ġcauses": 2863,
      "rs": 2864,
      "ĠWhile": 2865,
      "Ġserious": 2866,
      "ĠWashington": 2867,
      "Ġpsych": 2868,
      "Ġsouth": 2869,
      "ĠSept": 2870,
      "rance": 2871,
      "'re": 2872,
      "Ġcompany": 2873,
      "Ġcit": 2874,
      "You": 2875,
      "Ġmach": 2876,
      "Ġmother": 2877,
      "edia": 2878,
      "ĠPre": 2879,
      "Ġteachers": 2880,
      "Ġmiles": 2881,
      "Ġvide": 2882,
      "ternet": 2883,
      "ĠEuropean": 2884,
      "ners": 2885,
      "osure": 2886,
      "ĠHistory": 2887,
      "ĠCons": 2888,
      "leep": 2889,
      "Ġencoura": 2890,
      "rast": 2891,
      "Ġtarget": 2892,
      "Ġdocument": 2893,
      "Ġcross": 2894,
      "reek": 2895,
      "ĠGerman": 2896,
      "Ġtherefore": 2897,
      "pe": 2898,
      "Ġbooks": 2899,
      "Ġinj": 2900,
      "Ġlarger": 2901,
      "ĠAugust": 2902,
      "Ġappropri": 2903,
      "Ġclean": 2904,
      "Ġwarm": 2905,
      "ĠSm": 2906,
      "uge": 2907,
      "ĠApril": 2908,
      "aul": 2909,
      "Ġmount": 2910,
      "Ġwriting": 2911,
      "Ġwent": 2912,
      "oles": 2913,
      "Ġimplement": 2914,
      "ĠCong": 2915,
      "Ġthird": 2916,
      "Ġsil": 2917,
      "Ġnucle": 2918,
      "ĠDav": 2919,
      "hel": 2920,
      "aily": 2921,
      "ĠGovern": 2922,
      "eal": 2923,
      "Ġfru": 2924,
      "Ġi": 2925,
      "Ġconcent": 2926,
      "Ġdecl": 2927,
      "aches": 2928,
      "ĠChar": 2929,
      "Ġmess": 2930,
      "oor": 2931,
      "con": 2932,
      "ĠChina": 2933,
      "Ġlack": 2934,
      "Ġdefin": 2935,
      "ino": 2936,
      "ĠGl": 2937,
      "Ġelectric": 2938,
      "Ġeth": 2939,
      "elt": 2940,
      "ana": 2941,
      "overy": 2942,
      "Ġcentral": 2943,
      "Ġnight": 2944,
      "ĠRec": 2945,
      "ĠPresident": 2946,
      "Ġadded": 2947,
      "Ġir": 2948,
      "iers": 2949,
      "Ġord": 2950,
      "Ġsearch": 2951,
      "ĠInternational": 2952,
      "Ġtur": 2953,
      "IC": 2954,
      "Ġdog": 2955,
      "ĠCounty": 2956,
      "ĠJuly": 2957,
      "Ġcontinue": 2958,
      "Ġbroad": 2959,
      "abet": 2960,
      "Ġhyd": 2961,
      "Ġdraw": 2962,
      "Ġcompon": 2963,
      "\",": 2964,
      "Ġextreme": 2965,
      "Ġfav": 2966,
      "ems": 2967,
      "mit": 2968,
      "Ġbr": 2969,
      "Ġgrowing": 2970,
      "ĠProg": 2971,
      "Ġreceived": 2972,
      "Ġexcept": 2973,
      "rapy": 2974,
      "Ġsites": 2975,
      "ĠBar": 2976,
      "imum": 2977,
      "ĠWilliam": 2978,
      "Ġcover": 2979,
      "Ġhundred": 2980,
      "ension": 2981,
      "ĠMc": 2982,
      "Ġprep": 2983,
      "lied": 2984,
      "ellow": 2985,
      "Ġwebs": 2986,
      "Ġseems": 2987,
      "ĠIndia": 2988,
      "ĠMore": 2989,
      "Ġbirth": 2990,
      "Ġsection": 2991,
      "Ġtend": 2992,
      "olec": 2993,
      "ises": 2994,
      "ls": 2995,
      "ider": 2996,
      "Ġquite": 2997,
      "Ġdoing": 2998,
      "ĠChurch": 2999,
      "Ġprimary": 3000,
      "ĠAfrica": 3001,
      "rael": 3002,
      "22": 3003,
      "Ġattention": 3004,
      "Ġsoon": 3005,
      "Ġcoast": 3006,
      "ĠAc": 3007,
      "40": 3008,
      "astic": 3009,
      "Ġfront": 3010,
      "Ġsal": 3011,
      "Ġobt": 3012,
      "Ġprint": 3013,
      "Ġspeed": 3014,
      "ĠHer": 3015,
      "ĠMost": 3016,
      "Ġx": 3017,
      "ĠReg": 3018,
      "Ġreligious": 3019,
      "Ġreflect": 3020,
      "ext": 3021,
      "Ġcommand": 3022,
      "Ġwall": 3023,
      "enced": 3024,
      "ridge": 3025,
      "room": 3026,
      "ĠEngland": 3027,
      "EN": 3028,
      "Ġleaders": 3029,
      "Ġimmedi": 3030,
      "uman": 3031,
      "Ġshare": 3032,
      "ounds": 3033,
      "ĠCor": 3034,
      "ĠAssoci": 3035,
      "Ġcompan": 3036,
      "Ġevalu": 3037,
      "Ġhimself": 3038,
      "lier": 3039,
      "Ġ,": 3040,
      "omb": 3041,
      "ĠChristian": 3042,
      "Ġstreng": 3043,
      "Ġcheck": 3044,
      "Ġregular": 3045,
      "cember": 3046,
      "Ġnearly": 3047,
      "Ġideas": 3048,
      "Ġcorrect": 3049,
      "Ġeat": 3050,
      "Ġdamage": 3051,
      "ĠChild": 3052,
      "60": 3053,
      "Ġpoints": 3054,
      "Ġbrought": 3055,
      "set": 3056,
      "ĠAfrican": 3057,
      "Ġadminist": 3058,
      "omet": 3059,
      "cell": 3060,
      "Ġinstead": 3061,
      "Ġox": 3062,
      "Ġaltern": 3063,
      "Ġbeginning": 3064,
      "rote": 3065,
      "Ġ21": 3066,
      "Ġadditional": 3067,
      "Ġidentify": 3068,
      "Ġjud": 3069,
      "Ġfamilies": 3070,
      "uk": 3071,
      "He": 3072,
      "che": 3073,
      "den": 3074,
      "Ġavoid": 3075,
      "Ġeasy": 3076,
      "Ġdetermine": 3077,
      "ĠOther": 3078,
      "elling": 3079,
      "Ġdeal": 3080,
      "ĠInt": 3081,
      "Ġhealthy": 3082,
      "Ġhabit": 3083,
      "Ġreve": 3084,
      "ulf": 3085,
      "Ġcommunities": 3086,
      "Ġnetwork": 3087,
      "Ġtakes": 3088,
      "ĠFeb": 3089,
      "gar": 3090,
      "Ġlove": 3091,
      "lation": 3092,
      "Ġdescribed": 3093,
      "Ġmanufact": 3094,
      "Ġsust": 3095,
      "ancy": 3096,
      "year": 3097,
      "80": 3098,
      "Ġfederal": 3099,
      "ondon": 3100,
      "Ġhor": 3101,
      "Ġtraditional": 3102,
      "Ġbase": 3103,
      "ĠAnt": 3104,
      "lim": 3105,
      "ev": 3106,
      "ields": 3107,
      "Ġveget": 3108,
      "na": 3109,
      "osing": 3110,
      "itte": 3111,
      "ĠAlthough": 3112,
      "Ġsafety": 3113,
      "exic": 3114,
      "ĠRuss": 3115,
      "Ġdirectly": 3116,
      "ĠMon": 3117,
      "rab": 3118,
      ");": 3119,
      "Ġtrees": 3120,
      "Ġvirus": 3121,
      "Ġdemonstr": 3122,
      "Ġnews": 3123,
      "ama": 3124,
      "mar": 3125,
      "Ġbacter": 3126,
      "Ġbott": 3127,
      "Ġpositive": 3128,
      "Ġsafe": 3129,
      "inct": 3130,
      "anks": 3131,
      "Ġprivate": 3132,
      "lin": 3133,
      "PA": 3134,
      "Ġlands": 3135,
      "Ġinterp": 3136,
      "Ġsus": 3137,
      "pper": 3138,
      "ription": 3139,
      "____": 3140,
      "Ġlargest": 3141,
      "ha": 3142,
      "Ġsolar": 3143,
      "ĠCity": 3144,
      "Ġvacc": 3145,
      "Ġdisp": 3146,
      "Ġlost": 3147,
      "apter": 3148,
      "Ġhost": 3149,
      "Ġlength": 3150,
      "yond": 3151,
      "ford": 3152,
      "ovember": 3153,
      "Ġefforts": 3154,
      "Ġagricult": 3155,
      "Ġlocated": 3156,
      "Ġson": 3157,
      "Ġlimited": 3158,
      "Ġrout": 3159,
      "Ġestablish": 3160,
      "Ġdied": 3161,
      "Ġhar": 3162,
      "Ġ2006": 3163,
      "isms": 3164,
      "estic": 3165,
      "Ġbab": 3166,
      "âĢ¦": 3167,
      "Ġcommer": 3168,
      "ĠAmericans": 3169,
      "roy": 3170,
      "Ġprior": 3171,
      "24": 3172,
      "Ġimages": 3173,
      "Ġspeak": 3174,
      "ming": 3175,
      "Ġtree": 3176,
      "Ġcapital": 3177,
      "wo": 3178,
      "Ġ2000": 3179,
      "ĠJanuary": 3180,
      "ĠSeptember": 3181,
      "ĠPol": 3182,
      "aly": 3183,
      "Ġdang": 3184,
      "ĠDo": 3185,
      "Ġactive": 3186,
      "ĠWeb": 3187,
      "Ġfuel": 3188,
      "Ġforces": 3189,
      "Ġarri": 3190,
      "mosp": 3191,
      "uments": 3192,
      "wise": 3193,
      "Ġbal": 3194,
      "Ġ193": 3195,
      "urg": 3196,
      "Ġuseful": 3197,
      "term": 3198,
      "23": 3199,
      "ĠCanada": 3200,
      "istry": 3201,
      "life": 3202,
      "ĠMus": 3203,
      "Ġstress": 3204,
      "asons": 3205,
      "Ġjo": 3206,
      "âĢ¢": 3207,
      "Ġder": 3208,
      "Ġfather": 3209,
      "ĠTra": 3210,
      "ĠInc": 3211,
      "Ġhighly": 3212,
      "ĠIsrael": 3213,
      "ham": 3214,
      "ĠSw": 3215,
      "Ġbenefits": 3216,
      "And": 3217,
      "Ġstarted": 3218,
      "Ġcenter": 3219,
      "mission": 3220,
      "encies": 3221,
      "Ġperformance": 3222,
      "men": 3223,
      "Ġborn": 3224,
      "ĠOctober": 3225,
      "Ġprogress": 3226,
      "iles": 3227,
      "Ġancient": 3228,
      "Ġ23": 3229,
      "Ġtransport": 3230,
      "Ġcalc": 3231,
      "aces": 3232,
      "ĠJes": 3233,
      "cks": 3234,
      "ica": 3235,
      "Ġhumans": 3236,
      "rag": 3237,
      "ĠEducation": 3238,
      "oming": 3239,
      "Ġrates": 3240,
      "Ġdifference": 3241,
      "ously": 3242,
      "Ġlaws": 3243,
      "Ġlines": 3244,
      "iency": 3245,
      "leb": 3246,
      "ĠPark": 3247,
      "Ġking": 3248,
      "Ġtools": 3249,
      "Ġprinc": 3250,
      "Ġcontains": 3251,
      "Ġformer": 3252,
      "Ġbehind": 3253,
      "Ġice": 3254,
      "ĠArt": 3255,
      "Ġcontribut": 3256,
      "Ġeasily": 3257,
      "ĠMexic": 3258,
      "erg": 3259,
      "Ġagree": 3260,
      "water": 3261,
      "Ġimpl": 3262,
      "Ġang": 3263,
      "Ġelse": 3264,
      "Ġharm": 3265,
      "Ġrock": 3266,
      "ils": 3267,
      "ĠUs": 3268,
      "fficient": 3269,
      "Ġanswer": 3270,
      "Ġquant": 3271,
      "ĠSan": 3272,
      "aters": 3273,
      "Ġmicro": 3274,
      "Ġaware": 3275,
      "can": 3276,
      "Ġproced": 3277,
      "used": 3278,
      "Ġsevere": 3279,
      "izations": 3280,
      "ED": 3281,
      "hens": 3282,
      "Ġ195": 3283,
      "Ġpurpose": 3284,
      "Ġpp": 3285,
      "Ġproperty": 3286,
      "ĠGeneral": 3287,
      "Ġ2005": 3288,
      "Ġsupply": 3289,
      "Ġdecre": 3290,
      "Ġleading": 3291,
      "Ġcompared": 3292,
      "ruary": 3293,
      "Ġunc": 3294,
      "Ġpan": 3295,
      "Ġrare": 3296,
      "IT": 3297,
      "Ġcarry": 3298,
      "Ġadop": 3299,
      "Ġten": 3300,
      "rogen": 3301,
      "Ġmid": 3302,
      "icated": 3303,
      "orks": 3304,
      "ĠVir": 3305,
      "Ġvalues": 3306,
      "Ġrapid": 3307,
      "bit": 3308,
      "alled": 3309,
      "Ġhot": 3310,
      "Ġmill": 3311,
      "Ġmedia": 3312,
      "ĠNot": 3313,
      "Ġtold": 3314,
      "Ġworkers": 3315,
      "Ġachieve": 3316,
      "Ġlooking": 3317,
      "ĠGreat": 3318,
      "Ġdoesn": 3319,
      "mitted": 3320,
      "Ġhands": 3321,
      "ĠFrom": 3322,
      "Ġpatient": 3323,
      "Ġfoot": 3324,
      "Ġaspect": 3325,
      "Ġinfluence": 3326,
      "Ġsummer": 3327,
      "Ġ22": 3328,
      "ĠOf": 3329,
      "ties": 3330,
      "ĠSch": 3331,
      "ĠIS": 3332,
      "Ġteaching": 3333,
      "ingu": 3334,
      "iques": 3335,
      "Ġvict": 3336,
      "Ġfoods": 3337,
      "Ġbasis": 3338,
      "Ġcust": 3339,
      "Ġremain": 3340,
      "Ġwa": 3341,
      "uries": 3342,
      "ĠFirst": 3343,
      "ĠDecember": 3344,
      "ĠRet": 3345,
      "Ġfeatures": 3346,
      "One": 3347,
      "Ġquickly": 3348,
      "Ġdark": 3349,
      "ĠJewish": 3350,
      "Ġcolon": 3351,
      "Ġinside": 3352,
      "Ġappropriate": 3353,
      "Ġcontinued": 3354,
      "ĠCoun": 3355,
      "itch": 3356,
      "Ġtrade": 3357,
      "Ġfollowed": 3358,
      "Ġsaw": 3359,
      "Ġdry": 3360,
      "Ġwrote": 3361,
      "Ġlif": 3362,
      "Ġexpect": 3363,
      "ĠLondon": 3364,
      "Ġremains": 3365,
      "Ġadj": 3366,
      "ĠSociety": 3367,
      "AC": 3368,
      "ĠCongress": 3369,
      "vest": 3370,
      "Ġfight": 3371,
      "Ġgot": 3372,
      "head": 3373,
      "Ġnothing": 3374,
      "inese": 3375,
      "Ġelements": 3376,
      "Ġprojects": 3377,
      "Ġclin": 3378,
      "Ġplaces": 3379,
      "Ġcritical": 3380,
      "ought": 3381,
      "Ġfram": 3382,
      "inated": 3383,
      "fect": 3384,
      "ĠEast": 3385,
      "king": 3386,
      "Ġhy": 3387,
      "Ġseason": 3388,
      "Ġbit": 3389,
      "Ġcitiz": 3390,
      "Ġdiseases": 3391,
      "Ġtiss": 3392,
      "Ġprotection": 3393,
      "Ġrecently": 3394,
      "Ġcrop": 3395,
      "itting": 3396,
      "Ġsleep": 3397,
      "idents": 3398,
      "Ġgradu": 3399,
      "oke": 3400,
      "Ġunique": 3401,
      "iber": 3402,
      "Ġaud": 3403,
      "Ġapprox": 3404,
      "Ġapplication": 3405,
      "Ġcosts": 3406,
      "Ġsymb": 3407,
      "Ġfinan": 3408,
      "ĠEc": 3409,
      "Ġweb": 3410,
      "Ġsituation": 3411,
      "ura": 3412,
      "ĠJournal": 3413,
      "ittee": 3414,
      "Ġstandards": 3415,
      "Ġdrink": 3416,
      "Ġund": 3417,
      "Ġarm": 3418,
      "Ġfile": 3419,
      "Ġgetting": 3420,
      "Ġoccup": 3421,
      "ĠHouse": 3422,
      "aught": 3423,
      "At": 3424,
      "sect": 3425,
      "Ġep": 3426,
      "Ġoffer": 3427,
      "Ġevolution": 3428,
      "Ġcapac": 3429,
      "Ġdemand": 3430,
      "ĠMy": 3431,
      "ilosoph": 3432,
      "By": 3433,
      "Ġinstru": 3434,
      "Ġdoctor": 3435,
      "iar": 3436,
      "Ġtests": 3437,
      "Ġexpected": 3438,
      "Ġdead": 3439,
      "70": 3440,
      "equ": 3441,
      "AL": 3442,
      "Ġ:": 3443,
      "rees": 3444,
      "ipment": 3445,
      "Ġextra": 3446,
      "Ġfinal": 3447,
      "Ġeight": 3448,
      "Ġcred": 3449,
      "Ġult": 3450,
      "Ġhous": 3451,
      "airs": 3452,
      "anish": 3453,
      "Ġvideo": 3454,
      "Ġbad": 3455,
      "Ġmolec": 3456,
      "Ġcollection": 3457,
      "craft": 3458,
      "ologies": 3459,
      "Ġmember": 3460,
      "Ġexact": 3461,
      "Ġearlier": 3462,
      "off": 3463,
      "Ġnamed": 3464,
      "Ġtit": 3465,
      "Ġ...": 3466,
      "Ġallows": 3467,
      "Ġgard": 3468,
      "orge": 3469,
      "ĠNovember": 3470,
      "ula": 3471,
      "Ġkids": 3472,
      "Ġeye": 3473,
      "arian": 3474,
      "Ġmultiple": 3475,
      "Ġspirit": 3476,
      "Ġobjects": 3477,
      "ying": 3478,
      "Ġweeks": 3479,
      "Ġdaily": 3480,
      "ĠCour": 3481,
      "Ġstra": 3482,
      "aid": 3483,
      "ĠUnion": 3484,
      "Ġcopy": 3485,
      "su": 3486,
      "Ġacid": 3487,
      "Ġcontinu": 3488,
      "Ġcompanies": 3489,
      "Ġformed": 3490,
      "ĠTechn": 3491,
      "Ġpack": 3492,
      "lam": 3493,
      "Ġbirds": 3494,
      "oe": 3495,
      "Ġchalleng": 3496,
      "Ġsurround": 3497,
      "Ġdecision": 3498,
      "Ġwalk": 3499,
      "Ġmiddle": 3500,
      "Ġrain": 3501,
      "Ġasked": 3502,
      "rest": 3503,
      "gn": 3504,
      "Ġcultural": 3505,
      "ira": 3506,
      "Ġpen": 3507,
      "abetes": 3508,
      "Ġchurch": 3509,
      "Ġsomeone": 3510,
      "ype": 3511,
      "ĠRoman": 3512,
      "ocr": 3513,
      "hest": 3514,
      "ĠSystem": 3515,
      "ari": 3516,
      "itect": 3517,
      "Ġnar": 3518,
      "Ġmention": 3519,
      "ĠConf": 3520,
      "Ġmemory": 3521,
      "ĠCommun": 3522,
      "Ġinfection": 3523,
      "Ġdate": 3524,
      "Ġwebsite": 3525,
      "Ġbeg": 3526,
      "Ġconstruction": 3527,
      "reet": 3528,
      "Ġeffort": 3529,
      "ASA": 3530,
      "Ġtable": 3531,
      "hemat": 3532,
      "Ġbillion": 3533,
      "ixed": 3534,
      "Ġsequ": 3535,
      "illing": 3536,
      "nov": 3537,
      "ĠLaw": 3538,
      "II": 3539,
      "inate": 3540,
      "Ġsoftware": 3541,
      "Ġcourt": 3542,
      "Ġimportance": 3543,
      "Ġriver": 3544,
      "Ġsecurity": 3545,
      "unch": 3546,
      "ĠEnvironment": 3547,
      "Ġsch": 3548,
      "ender": 3549,
      "Ġgave": 3550,
      "itis": 3551,
      "Ġrespond": 3552,
      "Ġcool": 3553,
      "Ġ2013": 3554,
      "Ġbeyond": 3555,
      "Ġtele": 3556,
      "Ġbul": 3557,
      "sec": 3558,
      "Ġminutes": 3559,
      "Ġessential": 3560,
      "Ġveh": 3561,
      "Ġperhaps": 3562,
      "ĠDevelop": 3563,
      "29": 3564,
      "Ġatmosp": 3565,
      "Ġmom": 3566,
      "Ġdisplay": 3567,
      "Ġplaced": 3568,
      "Ġcou": 3569,
      "Ġden": 3570,
      "uff": 3571,
      "Ġfast": 3572,
      "ara": 3573,
      "ĠBi": 3574,
      "Ġrequires": 3575,
      "Ġappears": 3576,
      "rition": 3577,
      "ĠHigh": 3578,
      "vant": 3579,
      "Ġpredict": 3580,
      "ĠJesus": 3581,
      "ospital": 3582,
      "Ġbecomes": 3583,
      "izes": 3584,
      "Ġensure": 3585,
      "Ġsn": 3586,
      "Ġones": 3587,
      "ĠDay": 3588,
      "ĠSur": 3589,
      "Ġdiscovered": 3590,
      "ĠVol": 3591,
      "aced": 3592,
      "odies": 3593,
      "Ġmission": 3594,
      "Ġprocesses": 3595,
      "Ġ60": 3596,
      "Ġnames": 3597,
      "ĠAssociation": 3598,
      "Ġsmaller": 3599,
      "wide": 3600,
      "oted": 3601,
      "orders": 3602,
      "Ġcorn": 3603,
      "Ġcurrently": 3604,
      "Ġwrite": 3605,
      "Ġhistorical": 3606,
      "Ġweather": 3607,
      "iece": 3608,
      "oring": 3609,
      "ĠChinese": 3610,
      "Ġstru": 3611,
      "27": 3612,
      "Ġ2004": 3613,
      "Ġdestroy": 3614,
      "Ġresponsible": 3615,
      "joy": 3616,
      "ky": 3617,
      "Ġconstit": 3618,
      "Ġversion": 3619,
      "ords": 3620,
      "ĠArch": 3621,
      "Ġ26": 3622,
      "Ġreceive": 3623,
      "Ġcard": 3624,
      "Ġgame": 3625,
      "Ġgives": 3626,
      "semb": 3627,
      "26": 3628,
      "Ġstrateg": 3629,
      "Ġillust": 3630,
      "Ġteacher": 3631,
      "imal": 3632,
      "Ġexec": 3633,
      "Ġanaly": 3634,
      "Ġlegal": 3635,
      "Ġegg": 3636,
      "Ġwoman": 3637,
      "Ġgenetic": 3638,
      "Ġ28": 3639,
      "Ġ190": 3640,
      "atur": 3641,
      "entially": 3642,
      "resh": 3643,
      "gypt": 3644,
      "Ġhon": 3645,
      "Ġgoal": 3646,
      "28": 3647,
      "Ġadults": 3648,
      "Ġhope": 3649,
      "Ġdepend": 3650,
      "omas": 3651,
      "ĠFebruary": 3652,
      "ciples": 3653,
      "Ġaim": 3654,
      "atin": 3655,
      "ĠCouncil": 3656,
      "ĠVal": 3657,
      "bl": 3658,
      "Ġallowed": 3659,
      "Ġacqu": 3660,
      "ĠRo": 3661,
      "Ġeconomy": 3662,
      "Ġdegree": 3663,
      "edom": 3664,
      "Ġreports": 3665,
      "Ġolder": 3666,
      "Ġexercise": 3667,
      "resp": 3668,
      "come": 3669,
      "Ġexposure": 3670,
      "Ġvill": 3671,
      "Ġvirt": 3672,
      "Ġalone": 3673,
      "HE": 3674,
      "Ġtowards": 3675,
      "Ġanything": 3676,
      "Ġwinter": 3677,
      "Ġ27": 3678,
      "coh": 3679,
      "Ġconsequ": 3680,
      "back": 3681,
      "ĠKe": 3682,
      "Ġcontroll": 3683,
      "Ġball": 3684,
      "udd": 3685,
      "enth": 3686,
      "oration": 3687,
      "ĠPhil": 3688,
      "So": 3689,
      "ĠProgram": 3690,
      "Ġconflic": 3691,
      "Ġneigh": 3692,
      "enty": 3693,
      "nes": 3694,
      "Ġtechniques": 3695,
      "Ġreach": 3696,
      "book": 3697,
      "Ġfriends": 3698,
      "vert": 3699,
      "ĠPat": 3700,
      "ĠDis": 3701,
      "iot": 3702,
      "21": 3703,
      "ĠRed": 3704,
      "aign": 3705,
      "Ġstay": 3706,
      "ully": 3707,
      "irection": 3708,
      "Ġmonitor": 3709,
      "ĠInternet": 3710,
      "Ġprotein": 3711,
      "ĠFrance": 3712,
      "Ġequipment": 3713,
      "amer": 3714,
      "Ġplanet": 3715,
      "Ġcode": 3716,
      "Ġwaste": 3717,
      "Ġ186": 3718,
      "Ġimag": 3719,
      "ĠTrans": 3720,
      "ĠPublic": 3721,
      "ĠProt": 3722,
      "Ġscreen": 3723,
      "Ġemot": 3724,
      "Ġscale": 3725,
      "Ġrise": 3726,
      "Ġlocation": 3727,
      "ĠJames": 3728,
      "ĠDuring": 3729,
      "time": 3730,
      "Ġleaves": 3731,
      "ĠSee": 3732,
      "atab": 3733,
      "Ġrelatively": 3734,
      "Ex": 3735,
      "Ġhyp": 3736,
      "Ġroom": 3737,
      "Ġdrugs": 3738,
      "Ġidentified": 3739,
      "Ġfair": 3740,
      "aint": 3741,
      "Ġadvant": 3742,
      "Ġlegis": 3743,
      "Ġrule": 3744,
      "These": 3745,
      "Ġoccurs": 3746,
      "cious": 3747,
      "Ġbeaut": 3748,
      "olar": 3749,
      "ests": 3750,
      "EC": 3751,
      "ĠGreen": 3752,
      "Ġ2003": 3753,
      "Ġsuccessful": 3754,
      "known": 3755,
      "Ġgold": 3756,
      "Ġassum": 3757,
      "ĠCom": 3758,
      "Ġpeace": 3759,
      "Ġstatus": 3760,
      "Ġstage": 3761,
      "ste": 3762,
      "load": 3763,
      "Ġforeign": 3764,
      "ĠCO": 3765,
      "Ġsustain": 3766,
      "phas": 3767,
      "ĠTex": 3768,
      "ribute": 3769,
      "Ġanti": 3770,
      "Ġuser": 3771,
      "house": 3772,
      "ĠYour": 3773,
      "Ġnuclear": 3774,
      "Ġceleb": 3775,
      "Ġapplications": 3776,
      "Ġcold": 3777,
      "Ġvit": 3778,
      "Ġorganization": 3779,
      "asion": 3780,
      "Ġtesting": 3781,
      "ĠPal": 3782,
      "bre": 3783,
      "itable": 3784,
      "Ġnegative": 3785,
      "ST": 3786,
      "oday": 3787,
      "rieved": 3788,
      "Ġdifferences": 3789,
      "ĠGovernment": 3790,
      "Ġthinking": 3791,
      "oud": 3792,
      "ensity": 3793,
      "Ġstar": 3794,
      "ĠGermany": 3795,
      "Ġapplied": 3796,
      "more": 3797,
      "erved": 3798,
      "Ġcompar": 3799,
      "Ġmajority": 3800,
      "Ġroad": 3801,
      "ĠEgypt": 3802,
      "ĠThen": 3803,
      "Ġ189": 3804,
      "ĠSim": 3805,
      "Ġeyes": 3806,
      "rief": 3807,
      "Ġmeasures": 3808,
      "Ġinteresting": 3809,
      "Ġsolution": 3810,
      "Ġreduced": 3811,
      "Ġmodels": 3812,
      "ocks": 3813,
      "Ġpresident": 3814,
      "Ġwon": 3815,
      "ĠMich": 3816,
      "Ġproviding": 3817,
      "Ġoffice": 3818,
      "ĠDNA": 3819,
      "Ġbound": 3820,
      "ession": 3821,
      "Ġenter": 3822,
      "ament": 3823,
      "ĠEven": 3824,
      "Ġmap": 3825,
      "ographic": 3826,
      "Ġpassed": 3827,
      "Ġcommercial": 3828,
      "ĠSince": 3829,
      "ĠDavid": 3830,
      "Ġenjoy": 3831,
      "Ġsurvey": 3832,
      "igr": 3833,
      "ĠAustralia": 3834,
      "Ġrules": 3835,
      "iments": 3836,
      "Ġhelps": 3837,
      "ĠWater": 3838,
      "ĠSpec": 3839,
      "ĠMary": 3840,
      "osa": 3841,
      "ĠHIV": 3842,
      "Pro": 3843,
      "Ar": 3844,
      "ĠUN": 3845,
      "Ġfear": 3846,
      "Ġcop": 3847,
      "Ġast": 3848,
      "Ġconstruct": 3849,
      "ector": 3850,
      "Ġstaff": 3851,
      "Ġdevice": 3852,
      "Ġ2001": 3853,
      "aled": 3854,
      "Ġpet": 3855,
      "ald": 3856,
      "Ġ+": 3857,
      "ĠAng": 3858,
      "with": 3859,
      "Ġleave": 3860,
      "ĠCath": 3861,
      "Ġaffected": 3862,
      "Ġpurch": 3863,
      "ĠWestern": 3864,
      "Ġblock": 3865,
      "Ġchanged": 3866,
      "Ġmis": 3867,
      "ellig": 3868,
      "DA": 3869,
      "Ġworked": 3870,
      "Ġfinancial": 3871,
      "pris": 3872,
      "cont": 3873,
      "Ġexamples": 3874,
      "ĠProf": 3875,
      "Ġnative": 3876,
      "co": 3877,
      "Ġpractices": 3878,
      "Un": 3879,
      "Ġpow": 3880,
      "Ġunit": 3881,
      "ĠHere": 3882,
      "Ġtypically": 3883,
      "antic": 3884,
      "ĠMod": 3885,
      "Ġeducational": 3886,
      "ĠJews": 3887,
      "ibly": 3888,
      "ĠBecause": 3889,
      "Ġcoming": 3890,
      "ogen": 3891,
      "Ġequal": 3892,
      "Ġelement": 3893,
      "Ġcateg": 3894,
      "Ġreasons": 3895,
      "que": 3896,
      "Ġelectr": 3897,
      "Ġemissions": 3898,
      "Ġbelief": 3899,
      "eech": 3900,
      "rick": 3901,
      "ĠCollege": 3902,
      "ĠAccording": 3903,
      "Ġstream": 3904,
      "Ġrecords": 3905,
      "oma": 3906,
      "Ġopportunity": 3907,
      "Ġmental": 3908,
      "Ġprin": 3909,
      "Ġshowed": 3910,
      "ĠRober": 3911,
      "ĠRepublic": 3912,
      "cohol": 3913,
      "Ġmoved": 3914,
      "Ġseven": 3915,
      "Ġdirection": 3916,
      "Ġexhib": 3917,
      "cast": 3918,
      "Ġconstant": 3919,
      "Ġcarried": 3920,
      "ĠThus": 3921,
      "Ġexisting": 3922,
      "ĠRev": 3923,
      "With": 3924,
      "Ġdistance": 3925,
      "Ġregions": 3926,
      "Ġpresented": 3927,
      "Ġapproximately": 3928,
      "ĠService": 3929,
      "orms": 3930,
      "Ġcompletely": 3931,
      "Ġtox": 3932,
      "Ġpregn": 3933,
      "Ġbenefit": 3934,
      "ĠOff": 3935,
      "Ġpresence": 3936,
      "Ġ2002": 3937,
      "fort": 3938,
      "Ġlat": 3939,
      "wards": 3940,
      "Ġtrying": 3941,
      "Ġrat": 3942,
      "Ġexpand": 3943,
      "Ġiniti": 3944,
      "Ġsac": 3945,
      "Ġseparate": 3946,
      "ĠMor": 3947,
      "pir": 3948,
      "iny": 3949,
      "Ġgoes": 3950,
      "Ġrich": 3951,
      "Ġmut": 3952,
      "Ġbreast": 3953,
      "Ġcommunication": 3954,
      "pped": 3955,
      "Ġradio": 3956,
      "Ġsymbol": 3957,
      "Ġfemale": 3958,
      "ience": 3959,
      "Ġshape": 3960,
      "icip": 3961,
      "Ġcommonly": 3962,
      "Ġmiss": 3963,
      "Ġmax": 3964,
      "odes": 3965,
      "Ġsem": 3966,
      "Ġcities": 3967,
      "Ġpicture": 3968,
      "35": 3969,
      "Ġthousands": 3970,
      "Ġpoly": 3971,
      "bed": 3972,
      "Ġassign": 3973,
      "Ġ29": 3974,
      "Ġnote": 3975,
      "ĠInter": 3976,
      "Ġgir": 3977,
      "ĠNow": 3978,
      "ĠJust": 3979,
      "Some": 3980,
      "ĠAlso": 3981,
      "Ġrecommend": 3982,
      "Ġobserved": 3983,
      "Ġmer": 3984,
      "ects": 3985,
      "Ġassist": 3986,
      "ĠJapanese": 3987,
      "Ġswe": 3988,
      "Ġbelieved": 3989,
      "ĠLord": 3990,
      "Ġcapacity": 3991,
      "ĠMuseum": 3992,
      "Ġlimit": 3993,
      "ĠGeorge": 3994,
      "Ġpowerful": 3995,
      "ĠRead": 3996,
      "Ġeverything": 3997,
      "eared": 3998,
      "ĠPaul": 3999,
      "Ph": 4000,
      "Ġfaith": 4001,
      "ĠTexas": 4002,
      "Ġusers": 4003,
      "Ġwhom": 4004,
      "Ġcitizens": 4005,
      "enge": 4006,
      "ĠBra": 4007,
      "ET": 4008,
      "icate": 4009,
      "Ġtrad": 4010,
      "ht": 4011,
      "ida": 4012,
      "Ġautom": 4013,
      "Ġfindings": 4014,
      "Ġcreating": 4015,
      "isher": 4016,
      "Ġplans": 4017,
      "Ġbacteria": 4018,
      "Ġincor": 4019,
      "Ġmag": 4020,
      "ologists": 4021,
      "apers": 4022,
      "ĠFl": 4023,
      "Ġparty": 4024,
      "Ġspring": 4025,
      "Ġcustom": 4026,
      "raw": 4027,
      "Ġspect": 4028,
      "cles": 4029,
      "orial": 4030,
      "ĠBlack": 4031,
      "Ġenh": 4032,
      "eff": 4033,
      "ett": 4034,
      "ĠAir": 4035,
      "Ġkilled": 4036,
      "lick": 4037,
      "ĠNASA": 4038,
      "Ġwest": 4039,
      "Ġdevices": 4040,
      "Ġdim": 4041,
      "uls": 4042,
      "rehens": 4043,
      "ares": 4044,
      "ĠFin": 4045,
      "Ġstrength": 4046,
      "Ġdoub": 4047,
      "Ġdiscussion": 4048,
      "See": 4049,
      "Ġwond": 4050,
      "pire": 4051,
      "Ġsouthern": 4052,
      "Ġprice": 4053,
      "Ġtrib": 4054,
      "iable": 4055,
      "ĠTheir": 4056,
      "Ġcontext": 4057,
      "Ġvisual": 4058,
      "stitution": 4059,
      "Äģ": 4060,
      "Ġdefined": 4061,
      "ĠProject": 4062,
      "Ġrepe": 4063,
      "hors": 4064,
      "Ġnor": 4065,
      "ĠGreek": 4066,
      "ĠAre": 4067,
      "New": 4068,
      "ologist": 4069,
      "Ġtransfer": 4070,
      "Ġprofessional": 4071,
      "All": 4072,
      "Ġpopulations": 4073,
      "ĠEach": 4074,
      "related": 4075,
      "Ġmoving": 4076,
      "ĠIsland": 4077,
      "Ġvia": 4078,
      "Ġreference": 4079,
      "Ġradiation": 4080,
      "ean": 4081,
      "Ġpatterns": 4082,
      "Ġfilm": 4083,
      "Ġfruit": 4084,
      "Ġfigure": 4085,
      "ĠCourt": 4086,
      "Ġnorthern": 4087,
      "ĠMiss": 4088,
      "Ġnoted": 4089,
      "ĠRetrieved": 4090,
      "Ġestimated": 4091,
      "ĠPlan": 4092,
      "Ġhom": 4093,
      "Ġdidn": 4094,
      "that": 4095,
      "Ġarchitect": 4096,
      "Ġemphas": 4097,
      "Ġsuggests": 4098,
      "force": 4099,
      "ĠFound": 4100,
      "ĠMount": 4101,
      "Ġcontract": 4102,
      "ĠMars": 4103,
      "ĠDec": 4104,
      "ken": 4105,
      "Ġap": 4106,
      "Ġresource": 4107,
      "Ġ1990": 4108,
      "eding": 4109,
      "45": 4110,
      "ĠInst": 4111,
      "Ġfully": 4112,
      "Ġguid": 4113,
      "ĠCur": 4114,
      "ĠOb": 4115,
      "Ġeventually": 4116,
      "Ġtrack": 4117,
      "aling": 4118,
      "uild": 4119,
      "Ġocean": 4120,
      "Ġorganizations": 4121,
      "road": 4122,
      "Ġjournal": 4123,
      "ago": 4124,
      "iant": 4125,
      "ĠFore": 4126,
      "Ġbox": 4127,
      "Ġdiabetes": 4128,
      "Ġexpress": 4129,
      "ĠMexico": 4130,
      "Ġbattle": 4131,
      "Ġeating": 4132,
      "ĠVirgin": 4133,
      "Ad": 4134,
      "ĠHuman": 4135,
      "Ġtruth": 4136,
      "RE": 4137,
      "ii": 4138,
      "ĠRel": 4139,
      "Ġteach": 4140,
      "leg": 4141,
      "Ġrob": 4142,
      "Ġdistribution": 4143,
      "Ġmale": 4144,
      "Ġmaintain": 4145,
      "Ġdetails": 4146,
      "ero": 4147,
      "Ġcru": 4148,
      "ĠDevelopment": 4149,
      "Ġheavy": 4150,
      "west": 4151,
      "Ġbran": 4152,
      "Ġintroduced": 4153,
      "acific": 4154,
      "Ġworth": 4155,
      "ĠRef": 4156,
      "Ġstories": 4157,
      "Ġbra": 4158,
      "Ġfactor": 4159,
      "ĠRich": 4160,
      "Ġfresh": 4161,
      "Ġletter": 4162,
      "Ġmeeting": 4163,
      "Ġtherapy": 4164,
      "ĠLa": 4165,
      "Ġfig": 4166,
      "Ġhighest": 4167,
      "Ġfavor": 4168,
      "abilities": 4169,
      "Ġactual": 4170,
      "char": 4171,
      "Ġconducted": 4172,
      "Ġplanning": 4173,
      "Ġstyle": 4174,
      "Ġfields": 4175,
      "erate": 4176,
      "Ġblue": 4177,
      "Ġfeature": 4178,
      "Ġlived": 4179,
      "Ġgene": 4180,
      "Ġfunctions": 4181,
      "ped": 4182,
      "'ve": 4183,
      "ĠLear": 4184,
      "Ġpiece": 4185,
      "Ġgeneration": 4186,
      "Ġesc": 4187,
      "Ġmoment": 4188,
      "clus": 4189,
      "rupt": 4190,
      "Ġincreases": 4191,
      "Ġindustrial": 4192,
      "Ġalt": 4193,
      "Ġcampaign": 4194,
      "mark": 4195,
      "Ġacadem": 4196,
      "AM": 4197,
      "Americ": 4198,
      "Ġoperations": 4199,
      "Ġreleased": 4200,
      "Ġphen": 4201,
      "Ġslight": 4202,
      "Ġfamous": 4203,
      "rates": 4204,
      "Ġactions": 4205,
      "Ġphysic": 4206,
      "Ġinstruct": 4207,
      "'ll": 4208,
      "Ġflood": 4209,
      "Ġimmediately": 4210,
      "gency": 4211,
      "Ġinsect": 4212,
      "Ġannual": 4213,
      "iance": 4214,
      "Ġgraph": 4215,
      "Â°": 4216,
      "ĠArmy": 4217,
      "Ġminor": 4218,
      "Ġserved": 4219,
      "33": 4220,
      "While": 4221,
      "Ġjoint": 4222,
      "Ġinstance": 4223,
      "Ġincome": 4224,
      "Ġtou": 4225,
      "Ġconservation": 4226,
      "Ġproperties": 4227,
      "Ġoverall": 4228,
      "Ġurban": 4229,
      "Ġgrant": 4230,
      "RO": 4231,
      "essel": 4232,
      "ortion": 4233,
      "ĠDem": 4234,
      "ĠLou": 4235,
      "ĠSen": 4236,
      "Ġserve": 4237,
      "itz": 4238,
      "Ġindependent": 4239,
      "Ġbehavi": 4240,
      "astern": 4241,
      "ander": 4242,
      "Ġturned": 4243,
      "78": 4244,
      "Ġillness": 4245,
      "Ġign": 4246,
      "Ġterrit": 4247,
      "Ġcand": 4248,
      "ĠMr": 4249,
      "ĠOur": 4250,
      "Ġgiving": 4251,
      "Ġ80": 4252,
      "respond": 4253,
      "Ġeast": 4254,
      "Ġrunning": 4255,
      "Ġpages": 4256,
      "ĠPeople": 4257,
      "change": 4258,
      "Ġexplain": 4259,
      "Ġreligion": 4260,
      "Ġfriend": 4261,
      "Ġ1999": 4262,
      "Ġattract": 4263,
      "Ġbaby": 4264,
      "Ġunivers": 4265,
      "Ġarticles": 4266,
      "After": 4267,
      "Ġtro": 4268,
      "Ġboard": 4269,
      "ĠHen": 4270,
      "olved": 4271,
      "gery": 4272,
      "Ġlearned": 4273,
      "ĠChildren": 4274,
      "Ġbreat": 4275,
      "Ġrot": 4276,
      "Ġphilosoph": 4277,
      "porary": 4278,
      "Ġdecades": 4279,
      "Ġperfect": 4280,
      "Ġconv": 4281,
      "Ġopin": 4282,
      "Ġtreated": 4283,
      "Ġvo": 4284,
      "rome": 4285,
      "which": 4286,
      "ĠNet": 4287,
      "iverse": 4288,
      "Ġstructures": 4289,
      "Ġsexual": 4290,
      "ĠChe": 4291,
      "Ġchoice": 4292,
      "ocol": 4293,
      "zz": 4294,
      "Ġiron": 4295,
      "Ġclearly": 4296,
      "Ġwrong": 4297,
      "Ġforward": 4298,
      "Ġcoal": 4299,
      "itness": 4300,
      "ĠJer": 4301,
      "Ġbuildings": 4302,
      "ĠSpanish": 4303,
      "Ġweak": 4304,
      "75": 4305,
      "ygen": 4306,
      "Ġtransl": 4307,
      "Ġoffers": 4308,
      "Ġunits": 4309,
      "Ġwaters": 4310,
      "Ġship": 4311,
      "Ġstim": 4312,
      "Ġliterature": 4313,
      "Ġupper": 4314,
      "Ġeveryone": 4315,
      "Ġchoose": 4316,
      "Sp": 4317,
      "Ġcovered": 4318,
      "Ġcry": 4319,
      "Ġcolle": 4320,
      "Ġqual": 4321,
      "ĠDes": 4322,
      "US": 4323,
      "Ġrelease": 4324,
      "ees": 4325,
      "ĠSun": 4326,
      "Ġdivid": 4327,
      "Ġcreation": 4328,
      "aste": 4329,
      "ager": 4330,
      "win": 4331,
      "Ġmob": 4332,
      "Ġexperiment": 4333,
      "ĠBer": 4334,
      "hy": 4335,
      "Ġtissue": 4336,
      "ĠNews": 4337,
      "Ġdram": 4338,
      "key": 4339,
      "Ġisland": 4340,
      "tical": 4341,
      "Ġaccur": 4342,
      "Ġreprodu": 4343,
      "Ġdegrees": 4344,
      "Ġliqu": 4345,
      "Ġchance": 4346,
      "orage": 4347,
      "ams": 4348,
      "Ġsugar": 4349,
      "Ġpersons": 4350,
      "Ġalternative": 4351,
      "ifically": 4352,
      "ĠMat": 4353,
      "Ġcollabor": 4354,
      "ĠCommission": 4355,
      "Ġbottom": 4356,
      "ample": 4357,
      "gra": 4358,
      "Ġrul": 4359,
      "uit": 4360,
      "Ġdatab": 4361,
      "ĠTur": 4362,
      "Ġdyn": 4363,
      "Ġnotes": 4364,
      "essor": 4365,
      "ingly": 4366,
      "eces": 4367,
      "Ġdistinct": 4368,
      "Ġsand": 4369,
      "ĠBay": 4370,
      "Ġcontrast": 4371,
      "Ġfrequently": 4372,
      "Ġmathemat": 4373,
      "Ġmachine": 4374,
      "Ġtask": 4375,
      "Ġreb": 4376,
      "Ġple": 4377,
      "vision": 4378,
      "ĠThomas": 4379,
      "ocal": 4380,
      "ĠPort": 4381,
      "Ġwatch": 4382,
      "Ġtub": 4383,
      "Ġproposed": 4384,
      "36": 4385,
      "Ġefficient": 4386,
      "Ġarr": 4387,
      "ault": 4388,
      "berg": 4389,
      "Ġfert": 4390,
      "Ġinform": 4391,
      "erences": 4392,
      "uted": 4393,
      "Ġmal": 4394,
      "Ġrace": 4395,
      "ĠAut": 4396,
      "ĠMic": 4397,
      "Ġpric": 4398,
      "Ġelim": 4399,
      "Ġsquare": 4400,
      "ĠUnder": 4401,
      "Is": 4402,
      "ĠUse": 4403,
      "Ġwidely": 4404,
      "Ġsav": 4405,
      "Ġconsumption": 4406,
      "met": 4407,
      "Ġcomponents": 4408,
      "Ġtechnologies": 4409,
      "Ġglass": 4410,
      "aped": 4411,
      "Ġstrugg": 4412,
      "Ġsigns": 4413,
      "Ġremained": 4414,
      "Ġvessel": 4415,
      "za": 4416,
      "Ġabsor": 4417,
      "Ġextremely": 4418,
      "Ġhousehold": 4419,
      "Ġremember": 4420,
      "Ġsteps": 4421,
      "Ġbank": 4422,
      "well": 4423,
      "Ġcircum": 4424,
      "Ġinitial": 4425,
      "Ġrequirements": 4426,
      "Ġreached": 4427,
      "ĠHol": 4428,
      "ĠDon": 4429,
      "Ġmedicine": 4430,
      "PS": 4431,
      "rations": 4432,
      "ux": 4433,
      "Ġdetermined": 4434,
      "Ġmouth": 4435,
      "cers": 4436,
      "Ġarmy": 4437,
      "Ġcook": 4438,
      "Ġnumerous": 4439,
      "iox": 4440,
      "riage": 4441,
      "cipl": 4442,
      "Ġgenes": 4443,
      "ias": 4444,
      "Ġlib": 4445,
      "igen": 4446,
      "ĠCivil": 4447,
      "Ġremoved": 4448,
      "Ġelectricity": 4449,
      "ĠSpace": 4450,
      "Ġresistance": 4451,
      "Ġprofessor": 4452,
      "Ġtemperatures": 4453,
      "otes": 4454,
      "Ġhuge": 4455,
      "oyal": 4456,
      "wood": 4457,
      "Ġauthority": 4458,
      "nam": 4459,
      "ĠAtl": 4460,
      "Ġclinical": 4461,
      "Ġ*": 4462,
      "Ġinh": 4463,
      "gl": 4464,
      "Ġguide": 4465,
      "Ġfreedom": 4466,
      "Ġalcohol": 4467,
      "rows": 4468,
      "ville": 4469,
      "Ġmilk": 4470,
      "Ġspeech": 4471,
      "ĠSocial": 4472,
      "Ġdesp": 4473,
      "bert": 4474,
      "Ġantib": 4475,
      "Ġstation": 4476,
      "Ġatmosphere": 4477,
      "ĠPacific": 4478,
      "Ġvolunt": 4479,
      "Ġisn": 4480,
      "ensus": 4481,
      "Ġauthors": 4482,
      "ĠRobert": 4483,
      "ras": 4484,
      "Ġperformed": 4485,
      "Ġitems": 4486,
      "Ġplease": 4487,
      "ĠWhite": 4488,
      "Ġ1998": 4489,
      "ĠEv": 4490,
      "aughter": 4491,
      "ĠInformation": 4492,
      "nic": 4493,
      "Ġpick": 4494,
      "Ġinterpret": 4495,
      "Ġchief": 4496,
      "ĠIslam": 4497,
      "Ġvary": 4498,
      "ĠLibrary": 4499,
      "Ġapply": 4500,
      "Ġclassroom": 4501,
      "Ġnovel": 4502,
      "ĠEnergy": 4503,
      "iful": 4504,
      "atically": 4505,
      "198": 4506,
      "Ġvision": 4507,
      "Ġsample": 4508,
      "ulum": 4509,
      "Ġhair": 4510,
      "Ġdigital": 4511,
      "Ġgod": 4512,
      "Ġsave": 4513,
      "Be": 4514,
      "ĠSer": 4515,
      "och": 4516,
      "name": 4517,
      "Ġkept": 4518,
      "othes": 4519,
      "alle": 4520,
      "Ġsignificantly": 4521,
      "Ġresulting": 4522,
      "Ġoccurred": 4523,
      "Ġoperation": 4524,
      "Sh": 4525,
      "Ġaspects": 4526,
      "Ġbrother": 4527,
      "Ġpolicies": 4528,
      "ĠCatholic": 4529,
      "Ġcombination": 4530,
      "Ġthick": 4531,
      "Ġvolume": 4532,
      "Ġconclud": 4533,
      "Ġconvers": 4534,
      "Res": 4535,
      "oper": 4536,
      "Ġbodies": 4537,
      "ounced": 4538,
      "ching": 4539,
      "Ġprinciples": 4540,
      "Ġcharacteristics": 4541,
      "Ġwin": 4542,
      "Ġorganic": 4543,
      "Ġopportunities": 4544,
      "Ġdie": 4545,
      "Ġassessment": 4546,
      "rog": 4547,
      "Ġcounter": 4548,
      "Ġfailure": 4549,
      "Ġpartners": 4550,
      "iring": 4551,
      "umn": 4552,
      "ÃŃ": 4553,
      "anging": 4554,
      "Ġfine": 4555,
      "Ġtum": 4556,
      "ĠAsia": 4557,
      "Ġviolence": 4558,
      "Ġreferred": 4559,
      "90": 4560,
      "ĠSub": 4561,
      "Ġprepar": 4562,
      "They": 4563,
      "Ġgrass": 4564,
      "Ġburn": 4565,
      "ĠOver": 4566,
      "Ġtour": 4567,
      "ĠJud": 4568,
      "Ġmessage": 4569,
      "Ġcorrespond": 4570,
      "Ġgain": 4571,
      "rative": 4572,
      "ĠIts": 4573,
      "osystem": 4574,
      "htm": 4575,
      "ĠArab": 4576,
      "Ġwanted": 4577,
      "Ġgarden": 4578,
      "Ġtrou": 4579,
      "Ġdisorder": 4580,
      "Ġround": 4581,
      "stronom": 4582,
      "Ġstrategies": 4583,
      "Ġappoint": 4584,
      "field": 4585,
      "Ġenem": 4586,
      "Ġcollege": 4587,
      "Ġclick": 4588,
      "Ġapparent": 4589,
      "Ġcra": 4590,
      "ĠTest": 4591,
      "raction": 4592,
      "ributed": 4593,
      "Ġwear": 4594,
      "ĠSmith": 4595,
      "BN": 4596,
      "ĠLatin": 4597,
      "unction": 4598,
      "ĠUK": 4599,
      "ĠMart": 4600,
      "ilit": 4601,
      "38": 4602,
      "Ġclasses": 4603,
      "Ġcomment": 4604,
      "Ġhomes": 4605,
      "ĠFlor": 4606,
      "Ġbelong": 4607,
      "Ġspent": 4608,
      "48": 4609,
      "Ġofficials": 4610,
      "Ġ70": 4611,
      "Ġprefer": 4612,
      "ĠMac": 4613,
      "Ġcompleted": 4614,
      "From": 4615,
      "Ġ90": 4616,
      "ception": 4617,
      "ĠMedical": 4618,
      "Ġmo": 4619,
      "Ġdecided": 4620,
      "Ġdrive": 4621,
      "Ġbone": 4622,
      "Ġkm": 4623,
      "Ã¡": 4624,
      "Ġbackground": 4625,
      "itors": 4626,
      "Ġprepared": 4627,
      "ĠMass": 4628,
      "Ġstatement": 4629,
      "Ġwestern": 4630,
      "ieties": 4631,
      "Ġoutput": 4632,
      "Ġisol": 4633,
      "ios": 4634,
      "ĠLake": 4635,
      "Ġbecoming": 4636,
      "oting": 4637,
      "Ġcycle": 4638,
      "ĠBritain": 4639,
      "Ġmetal": 4640,
      "elines": 4641,
      "Ġhear": 4642,
      "ael": 4643,
      "Ġ188": 4644,
      "ĠAv": 4645,
      "ĠOld": 4646,
      "Ġinstitutions": 4647,
      "ressive": 4648,
      "ado": 4649,
      "ĠPhys": 4650,
      "ĠMal": 4651,
      "Ġbed": 4652,
      "nel": 4653,
      "Ġfif": 4654,
      "ĠOrgan": 4655,
      "ij": 4656,
      "iveness": 4657,
      "Ġlinks": 4658,
      "Ġ35": 4659,
      "med": 4660,
      "Ġvictim": 4661,
      "Ġfinding": 4662,
      "van": 4663,
      "Ġdrop": 4664,
      "ishes": 4665,
      "ĠCentral": 4666,
      "....": 4667,
      "Ġconcern": 4668,
      "ĠWork": 4669,
      "mal": 4670,
      "ĠDiv": 4671,
      "ria": 4672,
      "vis": 4673,
      "Ġexcess": 4674,
      "Ġtim": 4675,
      "CC": 4676,
      "rence": 4677,
      "Ġseed": 4678,
      "cycl": 4679,
      "Ġheard": 4680,
      "opes": 4681,
      "ĠBel": 4682,
      "ĠGra": 4683,
      "ĠFood": 4684,
      "Ġwet": 4685,
      "ĠNav": 4686,
      "Ġhelped": 4687,
      "igration": 4688,
      "Ġunf": 4689,
      "Ġrail": 4690,
      "ĠMark": 4691,
      "Ġpreviously": 4692,
      "ĠSam": 4693,
      "Ġintended": 4694,
      "Ġsecret": 4695,
      "Ġquar": 4696,
      "ĠDist": 4697,
      "ĠJose": 4698,
      "Ġoxygen": 4699,
      "Ġexistence": 4700,
      "Ġded": 4701,
      "Ġreturned": 4702,
      "ĠDirect": 4703,
      "Ġhour": 4704,
      "ĠVirginia": 4705,
      "Ġlic": 4706,
      "ĠCarol": 4707,
      "Ġinternal": 4708,
      "Ġmere": 4709,
      "ĠBas": 4710,
      "rant": 4711,
      "Ġpi": 4712,
      "Ġsort": 4713,
      "lar": 4714,
      "Ġâ": 4715,
      "ION": 4716,
      "Ġreality": 4717,
      "Ġanyone": 4718,
      "Ġconfirm": 4719,
      "Ġincorpor": 4720,
      "Ġextent": 4721,
      "Ġmanner": 4722,
      "Ġsufficient": 4723,
      "Ġpal": 4724,
      "Ġobvious": 4725,
      "Ġbrief": 4726,
      "Ġpurposes": 4727,
      "aker": 4728,
      "Ġsupported": 4729,
      "Ab": 4730,
      "Ġupd": 4731,
      "Ġtrend": 4732,
      "Ġintellig": 4733,
      "Ġfort": 4734,
      "Ġneu": 4735,
      "Ġbalance": 4736,
      "Ġcere": 4737,
      "ek": 4738,
      "ague": 4739,
      "ĠWhy": 4740,
      "Ġmostly": 4741,
      "OS": 4742,
      "Ġperspect": 4743,
      "rum": 4744,
      "Ġdiss": 4745,
      "Ġinterested": 4746,
      "Ġimmune": 4747,
      "Ġdoll": 4748,
      "ota": 4749,
      "Ġdecisions": 4750,
      "Ġinvent": 4751,
      "rep": 4752,
      "ĠSou": 4753,
      "Ġwife": 4754,
      "Ġ1997": 4755,
      "Ġconver": 4756,
      "Ġstore": 4757,
      "Ġprimarily": 4758,
      "34": 4759,
      "Ġinnov": 4760,
      "ĠOffice": 4761,
      "Ġforced": 4762,
      "Ġinvolve": 4763,
      "Ġload": 4764,
      "Ġwealth": 4765,
      "ĠSy": 4766,
      "Ġpark": 4767,
      "ĠCharles": 4768,
      "Ġgoals": 4769,
      "Ġpun": 4770,
      "roph": 4771,
      "Ġlargely": 4772,
      "Ġadvanced": 4773,
      "Ġfarmers": 4774,
      "Ġbill": 4775,
      "Ġadvantage": 4776,
      "Ġlayer": 4777,
      "ĠMuslim": 4778,
      "Ġchanging": 4779,
      "Ġreplace": 4780,
      "istan": 4781,
      "Ġ>": 4782,
      "Ġtechnical": 4783,
      "Ġexpression": 4784,
      "icit": 4785,
      "ey": 4786,
      "Ġsetting": 4787,
      "Con": 4788,
      "Ġcomprehens": 4789,
      "ĠLouis": 4790,
      "olid": 4791,
      "Ġconflict": 4792,
      "uration": 4793,
      "kin": 4794,
      "Ġpil": 4795,
      "Ġconnection": 4796,
      "what": 4797,
      "39": 4798,
      "Ġsignal": 4799,
      "Ġnations": 4800,
      "Ġexposed": 4801,
      "oviet": 4802,
      "Ġsusp": 4803,
      "Ġcharge": 4804,
      "Ġsolid": 4805,
      "Ġemail": 4806,
      "Ġchallenge": 4807,
      "Ġcoord": 4808,
      "rans": 4809,
      "ĠSal": 4810,
      "Ġsurpris": 4811,
      "Ġagg": 4812,
      "rian": 4813,
      "Ġfinally": 4814,
      "Ġaid": 4815,
      "Ġfol": 4816,
      "Ġhabitat": 4817,
      "Ġhappen": 4818,
      "Ġrecorded": 4819,
      "Ġstars": 4820,
      "Ġlanguages": 4821,
      "ndrome": 4822,
      "ĠFre": 4823,
      "onic": 4824,
      "Ġdescribe": 4825,
      "ball": 4826,
      "ĠMedicine": 4827,
      "ulating": 4828,
      "ĠAN": 4829,
      "Ġbird": 4830,
      "Ġfoss": 4831,
      "Ġdro": 4832,
      "Ġsaying": 4833,
      "Ġdirector": 4834,
      "CR": 4835,
      "Ġnorm": 4836,
      "ĠMil": 4837,
      "onomic": 4838,
      "Ġstarting": 4839,
      "amental": 4840,
      "Ġcast": 4841,
      "Ġexactly": 4842,
      "OT": 4843,
      "ĠLabor": 4844,
      "37": 4845,
      "Ġrecommended": 4846,
      "Ġagricultural": 4847,
      "Ġmentioned": 4848,
      "ĠFederal": 4849,
      "Although": 4850,
      "oo": 4851,
      "Ġexplore": 4852,
      "Ġkill": 4853,
      "Ġwww": 4854,
      "ishing": 4855,
      ".|": 4856,
      "ĠWild": 4857,
      "ĠLet": 4858,
      "AP": 4859,
      "ĠEnvironmental": 4860,
      "Ġsubstant": 4861,
      "Ġoffered": 4862,
      "Ġnav": 4863,
      "That": 4864,
      "Ġinput": 4865,
      "Ġfacilities": 4866,
      "Ġstorage": 4867,
      "ĠAcadem": 4868,
      "Ġmeant": 4869,
      "Ġtechnique": 4870,
      "Ġnutri": 4871,
      "ship": 4872,
      "inf": 4873,
      "Ġindicate": 4874,
      "ĠBook": 4875,
      "ĠWind": 4876,
      "Ġmort": 4877,
      "ĠHistor": 4878,
      "Ġdetect": 4879,
      "Ġraised": 4880,
      "ien": 4881,
      "cript": 4882,
      "bal": 4883,
      "ĠFranc": 4884,
      "tion": 4885,
      "Ġbuy": 4886,
      "Ġlandsc": 4887,
      "Ġphenomen": 4888,
      "Ġadapt": 4889,
      "EL": 4890,
      "add": 4891,
      "âĢĿ.": 4892,
      "ĠGroup": 4893,
      "Ġscen": 4894,
      "Ġappeared": 4895,
      "AD": 4896,
      "Ġsong": 4897,
      "Ġregarding": 4898,
      "otic": 4899,
      "Ġunderst": 4900,
      "Ġdefinition": 4901,
      "iology": 4902,
      "col": 4903,
      "tle": 4904,
      "Ġamounts": 4905,
      "hetic": 4906,
      "ĠCompany": 4907,
      "ya": 4908,
      "ixt": 4909,
      "ĠDef": 4910,
      "Ġconcerns": 4911,
      "akers": 4912,
      "ĠStand": 4913,
      "ĠHenry": 4914,
      "isation": 4915,
      "Ġconnected": 4916,
      "ĠColumb": 4917,
      "Ġexperiences": 4918,
      "Ġcore": 4919,
      "Ġcamer": 4920,
      "Ġprison": 4921,
      "Ġdisorders": 4922,
      "Ġexcell": 4923,
      "Ġyourself": 4924,
      "Ġmanufacture": 4925,
      "Ġcombined": 4926,
      "Ġengineering": 4927,
      "ĠIr": 4928,
      "Ġformation": 4929,
      "works": 4930,
      "Ġbiological": 4931,
      "Ġgreatest": 4932,
      "ses": 4933,
      "ĠMont": 4934,
      "Ġsatell": 4935,
      "Ġhur": 4936,
      "Ġ1996": 4937,
      "chers": 4938,
      "Ġbatter": 4939,
      "Ġ185": 4940,
      "Ġchallenges": 4941,
      "Ġcenturies": 4942,
      "Ġcausing": 4943,
      "ĠTwo": 4944,
      "Ġhospital": 4945,
      "osite": 4946,
      "Ġready": 4947,
      "Ġyouth": 4948,
      "Ġcris": 4949,
      "ructure": 4950,
      "Ġnutrition": 4951,
      "Ġimproved": 4952,
      "ĠTechnology": 4953,
      "ĠFoundation": 4954,
      "tes": 4955,
      "ĠQue": 4956,
      "Â·": 4957,
      "ibl": 4958,
      "Ġsynt": 4959,
      "burg": 4960,
      "Ġkil": 4961,
      "44": 4962,
      "Ġmel": 4963,
      "Ġportion": 4964,
      "Ġcontinues": 4965,
      "ĠSecond": 4966,
      "Cl": 4967,
      "ortunately": 4968,
      "Ġsuggested": 4969,
      "Ġpret": 4970,
      "omin": 4971,
      "Ġprices": 4972,
      "board": 4973,
      "More": 4974,
      "osen": 4975,
      "Ġencourage": 4976,
      "cience": 4977,
      "Ġweap": 4978,
      "lig": 4979,
      "ĠSea": 4980,
      "Ġbegins": 4981,
      "Ġdu": 4982,
      "Ġpractical": 4983,
      "ĠSoviet": 4984,
      "icial": 4985,
      "ossible": 4986,
      "Ġreaction": 4987,
      "itage": 4988,
      "utive": 4989,
      "ĠLife": 4990,
      "32": 4991,
      "Ġgrand": 4992,
      "Ġoptions": 4993,
      "ĠCle": 4994,
      "urance": 4995,
      "Ġexplan": 4996,
      "Ġlung": 4997,
      "Ġparticipants": 4998,
      "Ġfrequency": 4999,
      "ĠDi": 5000,
      "Ġconnect": 5001,
      "Ġchapter": 5002,
      "rus": 5003,
      "Ġdomestic": 5004,
      "Ġdetailed": 5005,
      "isp": 5006,
      "Ġsubsequ": 5007,
      "Ġsnow": 5008,
      "ĠISBN": 5009,
      "MS": 5010,
      "ĠWil": 5011,
      "Ġ1980": 5012,
      "Ġsubjects": 5013,
      "band": 5014,
      "Ġoperating": 5015,
      "ĠCD": 5016,
      "Ġletters": 5017,
      "ĠNor": 5018,
      "Many": 5019,
      "Ġtoxic": 5020,
      "Ġexperts": 5021,
      "standing": 5022,
      "Ġspot": 5023,
      "Ġtopic": 5024,
      "ĠBen": 5025,
      "rust": 5026,
      "ĠStudents": 5027,
      "ctic": 5028,
      "Ġrevolution": 5029,
      "ears": 5030,
      "Ġremove": 5031,
      "No": 5032,
      "Ġpollution": 5033,
      "Ġdisapp": 5034,
      "Ġ<": 5035,
      "Ġbud": 5036,
      "ĠMiddle": 5037,
      "Ġperman": 5038,
      "atric": 5039,
      "100": 5040,
      "riculum": 5041,
      "Ġinstrument": 5042,
      "Ġphase": 5043,
      "ĠHel": 5044,
      "Ġagencies": 5045,
      "ĠMet": 5046,
      "iled": 5047,
      "Ġcollected": 5048,
      "Ġsurgery": 5049,
      "mp": 5050,
      "Ġgets": 5051,
      "Ġmotion": 5052,
      "Ġvast": 5053,
      "ifying": 5054,
      "Ġreducing": 5055,
      "Ġeggs": 5056,
      "olute": 5057,
      "Ġchemicals": 5058,
      "ĠÃ": 5059,
      "Ġinstruction": 5060,
      "76": 5061,
      "Ġotherwise": 5062,
      "ĠAD": 5063,
      "Ġsamples": 5064,
      "Ġrequest": 5065,
      "Ġmulti": 5066,
      "Ġfiles": 5067,
      "point": 5068,
      "Ġobtained": 5069,
      "Ġban": 5070,
      "Ġroot": 5071,
      "Ġleader": 5072,
      "Ġrecognized": 5073,
      "Ġdistingu": 5074,
      "Ġgun": 5075,
      "Ġmeat": 5076,
      "Ġdangerous": 5077,
      "According": 5078,
      "zing": 5079,
      "ato": 5080,
      "olars": 5081,
      "Ġpromote": 5082,
      "Ġlibrary": 5083,
      "Ġnan": 5084,
      "cest": 5085,
      "Ġbright": 5086,
      "Ġsed": 5087,
      "Ġ1995": 5088,
      "Ġyellow": 5089,
      "ĠBudd": 5090,
      "Ġdocuments": 5091,
      "Ġeasier": 5092,
      "Ġkinds": 5093,
      "Ġadjust": 5094,
      "ĠConstitution": 5095,
      "ĠDise": 5096,
      "Ġparticles": 5097,
      "iling": 5098,
      "Ġpieces": 5099,
      "rich": 5100,
      "Ġshar": 5101,
      "ĠRights": 5102,
      "roke": 5103,
      "Ġjour": 5104,
      "Ġcertainly": 5105,
      "Ġreduction": 5106,
      "Ġsyn": 5107,
      "CO": 5108,
      "inet": 5109,
      "Ġlinked": 5110,
      "Ġmorning": 5111,
      "Ġdiscover": 5112,
      "Ġowners": 5113,
      "Ġtitle": 5114,
      "sembly": 5115,
      "Ġkid": 5116,
      "oking": 5117,
      "Ġmuscle": 5118,
      "Ġshowing": 5119,
      "Ġstudied": 5120,
      "Ġacademic": 5121,
      "ĠElect": 5122,
      "Ġlatter": 5123,
      "Ġdivided": 5124,
      "Ġcontaining": 5125,
      "inating": 5126,
      "cyclop": 5127,
      "lements": 5128,
      "ĠMem": 5129,
      "aur": 5130,
      "ompl": 5131,
      "Ġvaccine": 5132,
      "Ġ#": 5133,
      "American": 5134,
      "Ġclim": 5135,
      "unk": 5136,
      "Ġclos": 5137,
      "Ġdepression": 5138,
      "Ġecosystem": 5139,
      "Ġplayed": 5140,
      "Ġfelt": 5141,
      "Ġinstall": 5142,
      "ĠFlorida": 5143,
      "ston": 5144,
      "ĠBible": 5145,
      "BC": 5146,
      "Ġmist": 5147,
      "eck": 5148,
      "Ġfle": 5149,
      "Ġgames": 5150,
      "ING": 5151,
      "Ġconsult": 5152,
      "ĠTer": 5153,
      "from": 5154,
      "Ġalg": 5155,
      "31": 5156,
      "Ġconvent": 5157,
      "Ġflight": 5158,
      "Ġtaught": 5159,
      "Ġstone": 5160,
      "Ġselected": 5161,
      "Ġdouble": 5162,
      "ĠScient": 5163,
      "Ġtroops": 5164,
      "lers": 5165,
      "Ġchronic": 5166,
      "ping": 5167,
      "Ġmeasured": 5168,
      "Ġgrade": 5169,
      "Ġdut": 5170,
      "Ġpolice": 5171,
      "Ġconcerned": 5172,
      "des": 5173,
      "Ġwarming": 5174,
      "Ġrelationships": 5175,
      "ĠCommittee": 5176,
      "Ġsoldiers": 5177,
      "46": 5178,
      "Ġheight": 5179,
      "Ġrenew": 5180,
      "ĠBur": 5181,
      "ĠSuch": 5182,
      "Ġdial": 5183,
      "Ġrural": 5184,
      "Ġconcepts": 5185,
      "Ġlooks": 5186,
      "Ġefficiency": 5187,
      "ĠOnce": 5188,
      "Ġmaster": 5189,
      "liam": 5190,
      "Ġprocessing": 5191,
      "state": 5192,
      "Ġpul": 5193,
      "Ġresponsibility": 5194,
      "ĠPost": 5195,
      "ĠPers": 5196,
      "amily": 5197,
      "verty": 5198,
      "TS": 5199,
      "Ġmainly": 5200,
      "ellect": 5201,
      "ĠSum": 5202,
      "Ġpoverty": 5203,
      "Ġfundamental": 5204,
      "49": 5205,
      "rete": 5206,
      "RI": 5207,
      "eters": 5208,
      "Ġthin": 5209,
      "Ġhaz": 5210,
      "Ġdistrict": 5211,
      "Ġmoral": 5212,
      "Ġrisks": 5213,
      "Ġclaims": 5214,
      "lamm": 5215,
      "Ġpray": 5216,
      "Ġexpert": 5217,
      "Ġinterests": 5218,
      "Ġfollows": 5219,
      "Ġrapidly": 5220,
      "Ġtransform": 5221,
      "Ġtried": 5222,
      "oto": 5223,
      "Ġtrust": 5224,
      "Ġinfections": 5225,
      "Ġgal": 5226,
      "Ġinterview": 5227,
      "Ġchann": 5228,
      "ĠSl": 5229,
      "Most": 5230,
      "Ġtypical": 5231,
      "ategy": 5232,
      "DF": 5233,
      "umber": 5234,
      "Ġhundreds": 5235,
      "Ġvul": 5236,
      "Ġregional": 5237,
      "ictionary": 5238,
      "Ġmotor": 5239,
      "Ġinvolves": 5240,
      "aks": 5241,
      "Ġprinciple": 5242,
      "inger": 5243,
      "ĠBoth": 5244,
      "ropical": 5245,
      "ocratic": 5246,
      "Now": 5247,
      "Ġband": 5248,
      "fall": 5249,
      "Ġdiscovery": 5250,
      "ĠAp": 5251,
      "ĠClass": 5252,
      "Ġrelevant": 5253,
      "Ġdynam": 5254,
      "Ġcrops": 5255,
      "Ġrough": 5256,
      "ags": 5257,
      "ĠRussian": 5258,
      "Ġcredit": 5259,
      "Ġliquid": 5260,
      "Other": 5261,
      "Ġneighbor": 5262,
      "Ġcontem": 5263,
      "Ġelev": 5264,
      "Ġwonder": 5265,
      "Ġaircraft": 5266,
      "Ġtrial": 5267,
      "gment": 5268,
      "Ġstrategy": 5269,
      "Ġslightly": 5270,
      "ona": 5271,
      "Ġadvance": 5272,
      "anguage": 5273,
      "500": 5274,
      "ĠJoseph": 5275,
      "Ġknew": 5276,
      "Ġgar": 5277,
      "Ġexperienced": 5278,
      "ĠWomen": 5279,
      "place": 5280,
      "anges": 5281,
      "Ġsen": 5282,
      "ded": 5283,
      "ĠBro": 5284,
      "going": 5285,
      "Ġpip": 5286,
      "Ġseek": 5287,
      "acters": 5288,
      "Ġsend": 5289,
      "ML": 5290,
      "Ġprocedure": 5291,
      "Ġsurrounding": 5292,
      "Ġclosely": 5293,
      "ĠPri": 5294,
      "Ġspl": 5295,
      "Ġgall": 5296,
      "Ġfacts": 5297,
      "Ġlooked": 5298,
      "Ġstem": 5299,
      "Ġdiam": 5300,
      "Ġemergency": 5301,
      "ĠTHE": 5302,
      "ss": 5303,
      "ĠMo": 5304,
      "Ġgovernments": 5305,
      "Ġdatabase": 5306,
      "Ġfunding": 5307,
      "Ġforests": 5308,
      "rolog": 5309,
      "Ġviews": 5310,
      "Ġ31": 5311,
      "liament": 5312,
      "Ġaccompl": 5313,
      "Ġdrinking": 5314,
      "asure": 5315,
      "Ġsatis": 5316,
      "Ġdepth": 5317,
      "Ġperiods": 5318,
      "Ġhappens": 5319,
      "emic": 5320,
      "ipped": 5321,
      "47": 5322,
      "ĠLand": 5323,
      "Ġtrig": 5324,
      "Ġsin": 5325,
      "Ġelectrical": 5326,
      "ĠChic": 5327,
      "agues": 5328,
      "eria": 5329,
      "Ġsalt": 5330,
      "eline": 5331,
      "Gen": 5332,
      "ĠSte": 5333,
      "hi": 5334,
      "anged": 5335,
      "pat": 5336,
      "Ġlit": 5337,
      "Ġjobs": 5338,
      "body": 5339,
      "Ġfell": 5340,
      "roc": 5341,
      "Ġfamiliar": 5342,
      "ĠDan": 5343,
      "ĠIll": 5344,
      "war": 5345,
      "65": 5346,
      "olf": 5347,
      "SA": 5348,
      "Ġprincip": 5349,
      "Ġuniverse": 5350,
      "osal": 5351,
      "Ġnit": 5352,
      "ĠReport": 5353,
      "Ġadopted": 5354,
      "Ġroll": 5355,
      "ĠKore": 5356,
      "Ġstated": 5357,
      "reed": 5358,
      "ĠRem": 5359,
      "Ġneut": 5360,
      "Ġinjury": 5361,
      "Ġcounty": 5362,
      "Ġeffectively": 5363,
      "Ġleads": 5364,
      "Ġresist": 5365,
      "apes": 5366,
      "Ġinches": 5367,
      "espite": 5368,
      "resents": 5369,
      "ĠUp": 5370,
      "Ġcontrolled": 5371,
      "ĠOF": 5372,
      "Ġmoon": 5373,
      "Ġ1970": 5374,
      "Ġcogn": 5375,
      "Ġther": 5376,
      "Ġdiagnosis": 5377,
      "do": 5378,
      "Ġprofession": 5379,
      "ĠSouthern": 5380,
      "rem": 5381,
      "Ġmaximum": 5382,
      "active": 5383,
      "LE": 5384,
      "Ġexternal": 5385,
      "amil": 5386,
      "atever": 5387,
      "99": 5388,
      "ĠSom": 5389,
      "Ġresidents": 5390,
      "Ġindex": 5391,
      "Ġargument": 5392,
      "Ġcomponent": 5393,
      "Ġoriginally": 5394,
      "ĠAlex": 5395,
      "Ġmountain": 5396,
      "ails": 5397,
      "ĠToday": 5398,
      "Ġmamm": 5399,
      "Ġaccepted": 5400,
      "Ġplastic": 5401,
      "Ġconsists": 5402,
      "ding": 5403,
      "Ġfloor": 5404,
      "Ġvalu": 5405,
      "othing": 5406,
      "onds": 5407,
      "arr": 5408,
      "iced": 5409,
      "Ġfrag": 5410,
      "Ġ45": 5411,
      "Ġonto": 5412,
      "alian": 5413,
      "Ġutil": 5414,
      "Ġstraight": 5415,
      "ĠOh": 5416,
      "clusion": 5417,
      "ĠAnn": 5418,
      "crib": 5419,
      "Ġsides": 5420,
      "Ġseeds": 5421,
      "ache": 5422,
      "Ġmonitoring": 5423,
      "ĠStudies": 5424,
      "Ġproperly": 5425,
      "IDS": 5426,
      "Ġtested": 5427,
      "Ġhunt": 5428,
      "Ġnewsp": 5429,
      "Ġstock": 5430,
      "Ġexplained": 5431,
      "ĠCanadian": 5432,
      "pen": 5433,
      "ĠEvery": 5434,
      "Ġfit": 5435,
      "Ġaccomp": 5436,
      "Ġdiscussed": 5437,
      "Ġextensive": 5438,
      "Ġopened": 5439,
      "].": 5440,
      "Ġdespite": 5441,
      "ada": 5442,
      "ĠNature": 5443,
      "Ġpaid": 5444,
      "oral": 5445,
      "Ġvisible": 5446,
      "Ġallowing": 5447,
      "ĠDel": 5448,
      "iest": 5449,
      "Ġadvoc": 5450,
      "ĠKen": 5451,
      "but": 5452,
      "Ġlisted": 5453,
      "Ġgrown": 5454,
      "Ġflat": 5455,
      "celer": 5456,
      "Ġconsequences": 5457,
      "Ġvitamin": 5458,
      "Ġattacks": 5459,
      "Ġgirls": 5460,
      "Ġrecon": 5461,
      "Pl": 5462,
      "CE": 5463,
      "Ġfigures": 5464,
      "Ġvillage": 5465,
      "Ġharvest": 5466,
      "ĠPsych": 5467,
      "ĠIN": 5468,
      "inn": 5469,
      "UR": 5470,
      "ava": 5471,
      "Ġnarrow": 5472,
      "asks": 5473,
      "Ind": 5474,
      "Ġhappened": 5475,
      "Ġindeed": 5476,
      "Ġincreasingly": 5477,
      "Ġvehicle": 5478,
      "Ġcharacters": 5479,
      "Ġgoods": 5480,
      "Ġvent": 5481,
      "iders": 5482,
      "rier": 5483,
      "ĠWell": 5484,
      "omy": 5485,
      "Ġ1994": 5486,
      "ĠTherefore": 5487,
      "erves": 5488,
      "reci": 5489,
      "Ġsector": 5490,
      "Ġcalls": 5491,
      "Ġteeth": 5492,
      "comp": 5493,
      "Ġeastern": 5494,
      "under": 5495,
      "Ġwave": 5496,
      "Ġmillions": 5497,
      "However": 5498,
      "Ġspecifically": 5499,
      "Ġmarine": 5500,
      "ĠStreet": 5501,
      "ĠFurther": 5502,
      "ĠAnother": 5503,
      "icon": 5504,
      "Ġexplains": 5505,
      "Ġsan": 5506,
      "ĠST": 5507,
      "Ġhorm": 5508,
      "Ġancest": 5509,
      "ĠPub": 5510,
      "De": 5511,
      "gal": 5512,
      "ĠEngine": 5513,
      "Ġentirely": 5514,
      "Ġexperiments": 5515,
      "Ġspiritual": 5516,
      "Ġflowers": 5517,
      "Ġcircumst": 5518,
      "Ġlesson": 5519,
      "Ġlatest": 5520,
      "Ġdogs": 5521,
      "racy": 5522,
      "ĠReview": 5523,
      "Ġhearing": 5524,
      "Ġrepresents": 5525,
      "ĠOx": 5526,
      "ĠCarolina": 5527,
      "Ġconstitution": 5528,
      "Ġfirm": 5529,
      "ework": 5530,
      "Ġpoet": 5531,
      "Ġbeautiful": 5532,
      "Ġtwenty": 5533,
      "ĠHaw": 5534,
      "ĠAdminist": 5535,
      "Ġdepos": 5536,
      "ĠOcean": 5537,
      "Ġthousand": 5538,
      "ĠFrank": 5539,
      "ĠOut": 5540,
      "ective": 5541,
      "ĠTreat": 5542,
      "Ġleaving": 5543,
      "Ġwalls": 5544,
      "Ġvoice": 5545,
      "Ġsuc": 5546,
      "Im": 5547,
      "Ġdepending": 5548,
      "Ġsustainable": 5549,
      "ĠFort": 5550,
      "Ġadministration": 5551,
      "Ġpictures": 5552,
      "ĠPeter": 5553,
      "Ġselection": 5554,
      "Ġhit": 5555,
      "Ġcontribute": 5556,
      "born": 5557,
      "During": 5558,
      "ait": 5559,
      "Ġagriculture": 5560,
      "iated": 5561,
      "Ġpure": 5562,
      "hist": 5563,
      "ĠControl": 5564,
      "Ġprotected": 5565,
      "Ġequival": 5566,
      "Ġaccurate": 5567,
      "Ġunless": 5568,
      "Ġopinion": 5569,
      "oned": 5570,
      "Ġmarriage": 5571,
      "Ġaqu": 5572,
      "Ġawareness": 5573,
      "Ġadequ": 5574,
      "Ġfocused": 5575,
      "Here": 5576,
      "Ġkn": 5577,
      "Ġarms": 5578,
      "mic": 5579,
      "aturally": 5580,
      "Ġcommit": 5581,
      "Ġpaint": 5582,
      "down": 5583,
      "spec": 5584,
      "Ġcomputers": 5585,
      "Ġshared": 5586,
      "Ġpossess": 5587,
      "Ġexcellent": 5588,
      "ĠTem": 5589,
      "ĠRussia": 5590,
      "ki": 5591,
      "rine": 5592,
      ".;": 5593,
      "âĢĿ,": 5594,
      "heast": 5595,
      "Ġrefers": 5596,
      "Ġcareer": 5597,
      "Ġvalid": 5598,
      "Ġorganized": 5599,
      "inction": 5600,
      "ĠRad": 5601,
      "Ġhouses": 5602,
      "no": 5603,
      "alse": 5604,
      "Ġdeaths": 5605,
      "Ġmix": 5606,
      "EM": 5607,
      "la": 5608,
      "Ġformat": 5609,
      "Ġcandid": 5610,
      "Ġdescribes": 5611,
      "itan": 5612,
      "Ġhelping": 5613,
      "77": 5614,
      "Ġlaboratory": 5615,
      "Ġdoubt": 5616,
      "ĠNatural": 5617,
      "abil": 5618,
      "Ġappearance": 5619,
      "imens": 5620,
      "ĠCamp": 5621,
      "ĠManagement": 5622,
      "Ġadvice": 5623,
      "enses": 5624,
      "ĠNations": 5625,
      "throp": 5626,
      "ĠLeg": 5627,
      "ĠPenn": 5628,
      "Ġnotice": 5629,
      "Ġformal": 5630,
      "HO": 5631,
      "abb": 5632,
      "Ġfailed": 5633,
      "Ġhorse": 5634,
      "Ġstorm": 5635,
      "ĠCamb": 5636,
      "Ġideal": 5637,
      "Ġderived": 5638,
      "Ġassistance": 5639,
      "Ġparties": 5640,
      "Ġmath": 5641,
      "Ġfeeling": 5642,
      "exp": 5643,
      "ĠForest": 5644,
      "long": 5645,
      "Ġprocedures": 5646,
      "Ġages": 5647,
      "ogue": 5648,
      "stream": 5649,
      "95": 5650,
      "Ġfluid": 5651,
      "Ġclosed": 5652,
      "Ġdescription": 5653,
      "uses": 5654,
      "Ġsolutions": 5655,
      "inding": 5656,
      "Ġimpossible": 5657,
      "rosc": 5658,
      "Ġoption": 5659,
      "comm": 5660,
      "zy": 5661,
      "ĠBrown": 5662,
      "anta": 5663,
      "Ġju": 5664,
      "uilding": 5665,
      "ĠRichard": 5666,
      "Ġpossibly": 5667,
      "Ġsets": 5668,
      "Ġagency": 5669,
      "Ġremaining": 5670,
      "icks": 5671,
      "Ġmarked": 5672,
      "aria": 5673,
      "Ġvegetables": 5674,
      "Ġjustice": 5675,
      "ĠDisc": 5676,
      "Ġabsolute": 5677,
      "Ġreject": 5678,
      "ka": 5679,
      "urb": 5680,
      "Ġdecade": 5681,
      "Ġwire": 5682,
      "ĠRome": 5683,
      "Ġperspective": 5684,
      "Ġimpacts": 5685,
      "Ġrand": 5686,
      "Ġidentity": 5687,
      "Ġintellect": 5688,
      "Ġshell": 5689,
      "Ġhyper": 5690,
      "Ġdecline": 5691,
      "stein": 5692,
      "Ġfaster": 5693,
      "ĠProv": 5694,
      "Ġbow": 5695,
      "Our": 5696,
      "Ġblog": 5697,
      "Ġcapable": 5698,
      "uous": 5699,
      "ĠIndians": 5700,
      "Ġdestroyed": 5701,
      "Ġwildlife": 5702,
      "Ġod": 5703,
      "Ġtun": 5704,
      "Se": 5705,
      "Ġminimum": 5706,
      "IL": 5707,
      "Ġcert": 5708,
      "Ġmassive": 5709,
      "Ġcritic": 5710,
      "ĠDar": 5711,
      "ĠSaf": 5712,
      "Ġphotograph": 5713,
      "Ġpig": 5714,
      "Ġmur": 5715,
      "luding": 5716,
      "CS": 5717,
      "Ġlik": 5718,
      "ĠStudy": 5719,
      "ĠChicago": 5720,
      "Ġarrived": 5721,
      "Ġmyth": 5722,
      "Ġinterf": 5723,
      "ĠTimes": 5724,
      "eer": 5725,
      "Ġcrisis": 5726,
      "Ġextended": 5727,
      "Ġproducing": 5728,
      "Ġdebate": 5729,
      "kins": 5730,
      "Ġcomments": 5731,
      "Ġphilosophy": 5732,
      "Ġrepresented": 5733,
      "Ġexpressed": 5734,
      "Ġax": 5735,
      "ĠProfessor": 5736,
      "Ġrandom": 5737,
      "Ġunlike": 5738,
      "ycl": 5739,
      "Ġprecise": 5740,
      "Ġnormally": 5741,
      "Ġsyndrome": 5742,
      "mat": 5743,
      "sey": 5744,
      "Ġtopics": 5745,
      "Ġprevention": 5746,
      "zen": 5747,
      "Ġsounds": 5748,
      "ua": 5749,
      "Ġpossibility": 5750,
      "Ġunderstood": 5751,
      "care": 5752,
      "Ġvulner": 5753,
      "organ": 5754,
      "?\"": 5755,
      "Ġremark": 5756,
      "ĠAbout": 5757,
      "Ġ300": 5758,
      "ĠValley": 5759,
      "IG": 5760,
      "ario": 5761,
      "tic": 5762,
      "ansion": 5763,
      "umin": 5764,
      "igenous": 5765,
      "ny": 5766,
      "teen": 5767,
      "Ġproteins": 5768,
      "Ġraise": 5769,
      "ureau": 5770,
      "Ġtrain": 5771,
      "ĠMad": 5772,
      "Ġscholars": 5773,
      "ĠBoard": 5774,
      "Ġanx": 5775,
      "Ġ1960": 5776,
      "ester": 5777,
      "ĠStat": 5778,
      "Ġspend": 5779,
      "Ġsimpl": 5780,
      "inity": 5781,
      "Ġunknown": 5782,
      "Ġapproaches": 5783,
      "Ġsequence": 5784,
      "ini": 5785,
      "cher": 5786,
      "indu": 5787,
      "Ġauthorities": 5788,
      "Ġcomfort": 5789,
      "Ġflex": 5790,
      "Ġsituations": 5791,
      "Ġintroduction": 5792,
      "Ġtreatments": 5793,
      "55": 5794,
      "Ġcomprehensive": 5795,
      "bur": 5796,
      "Ġethnic": 5797,
      "'m": 5798,
      "Ġ500": 5799,
      "Ġmarried": 5800,
      "ena": 5801,
      "Ġdepends": 5802,
      "dden": 5803,
      "ĠTor": 5804,
      "ĠHall": 5805,
      "osc": 5806,
      "Ġapart": 5807,
      "Ġfounded": 5808,
      "irty": 5809,
      "rovers": 5810,
      "ĠAustralian": 5811,
      "Ġkeeping": 5812,
      "ĠPower": 5813,
      "Ġcorpor": 5814,
      "ĠGal": 5815,
      "last": 5816,
      "hips": 5817,
      "Ġconcentration": 5818,
      "ĠSupp": 5819,
      "hemical": 5820,
      "Ġrepeated": 5821,
      "orter": 5822,
      "Ġabund": 5823,
      "Ġnine": 5824,
      "ĠKh": 5825,
      "ĠTw": 5826,
      "ĠOnly": 5827,
      "Ġdust": 5828,
      "Ġexchange": 5829,
      "ĠPan": 5830,
      "Ġoccasion": 5831,
      "Ġbrown": 5832,
      "Ġvaluable": 5833,
      "ĠNorthern": 5834,
      "aph": 5835,
      "Ġcurriculum": 5836,
      "Ġcolleagues": 5837,
      "Ġastronom": 5838,
      "Ġfib": 5839,
      "Ġsubs": 5840,
      "ĠMill": 5841,
      "mary": 5842,
      "apping": 5843,
      "Ġlabel": 5844,
      "Ġsecondary": 5845,
      "stone": 5846,
      "Ġabuse": 5847,
      "Ġsky": 5848,
      "Ġamb": 5849,
      "EP": 5850,
      "Ġinstitution": 5851,
      "Ġshel": 5852,
      "UN": 5853,
      "Ġera": 5854,
      "Ġprem": 5855,
      "Re": 5856,
      "Ġrestrict": 5857,
      "ĠYet": 5858,
      "Ġmotiv": 5859,
      "cyclopedia": 5860,
      "Ġcontained": 5861,
      "Ġrecognize": 5862,
      "Ġmedium": 5863,
      "Ġdiox": 5864,
      "mas": 5865,
      "Ġgrav": 5866,
      "ĠGold": 5867,
      "ogle": 5868,
      "ĠAgricult": 5869,
      "Ġagreement": 5870,
      "Ġinsp": 5871,
      "Ġedge": 5872,
      "Dr": 5873,
      "Ġelectronic": 5874,
      "ĠLike": 5875,
      "Ġplate": 5876,
      "Ġsick": 5877,
      "stract": 5878,
      "rors": 5879,
      "ta": 5880,
      "ĠLong": 5881,
      "Ġopening": 5882,
      "ĠUSA": 5883,
      "Ġbudget": 5884,
      "Ġdaughter": 5885,
      "Ġexpensive": 5886,
      "ĠId": 5887,
      "Ġwindow": 5888,
      "Ġships": 5889,
      "azine": 5890,
      "Ġsurvival": 5891,
      "Ġmuseum": 5892,
      "ifies": 5893,
      "Cont": 5894,
      "42": 5895,
      "Ġsudden": 5896,
      "Ġobtain": 5897,
      "CT": 5898,
      "Ġtow": 5899,
      "05": 5900,
      "Ġschem": 5901,
      "ĠSciences": 5902,
      "Ġparalle": 5903,
      "Ġdiversity": 5904,
      "Ġpregnancy": 5905,
      "Ġlaun": 5906,
      "Ġaw": 5907,
      ":||": 5908,
      "rob": 5909,
      "Ġpotentially": 5910,
      "ĠVict": 5911,
      "obe": 5912,
      "Ġwid": 5913,
      "ĠResources": 5914,
      "Ġimper": 5915,
      "iate": 5916,
      "normal": 5917,
      "Ġbear": 5918,
      "Ġtraffic": 5919,
      "opyright": 5920,
      "prise": 5921,
      "Ġliver": 5922,
      "eenth": 5923,
      "imental": 5924,
      "My": 5925,
      "Ġcouple": 5926,
      "pping": 5927,
      "Ġrevealed": 5928,
      "aud": 5929,
      "Ġ1992": 5930,
      "itudes": 5931,
      "Ġaf": 5932,
      "Ġgender": 5933,
      "ĠAcademy": 5934,
      "Ġran": 5935,
      "Ġgreatly": 5936,
      "gov": 5937,
      "isters": 5938,
      "icians": 5939,
      "example": 5940,
      "Ġissued": 5941,
      "ĠMag": 5942,
      "Ġmovements": 5943,
      "Ġlose": 5944,
      "ĠPM": 5945,
      "Ġdiscipl": 5946,
      "Ġtherap": 5947,
      "Ġroots": 5948,
      "Ġimmun": 5949,
      "orrow": 5950,
      "Ġacts": 5951,
      "Ġreform": 5952,
      "79": 5953,
      "ĠCommon": 5954,
      "ĠHome": 5955,
      "igation": 5956,
      "Ġstret": 5957,
      "Ġyield": 5958,
      "Ġfly": 5959,
      "ĠIII": 5960,
      "Ġdomin": 5961,
      "Ġobservations": 5962,
      "pre": 5963,
      "ĠData": 5964,
      "ĠUsing": 5965,
      "Ġestimates": 5966,
      "irds": 5967,
      "agers": 5968,
      "Ġphr": 5969,
      "ĠMichael": 5970,
      "Ġpref": 5971,
      "Ġphone": 5972,
      "Ġconscious": 5973,
      "Ġ1993": 5974,
      "such": 5975,
      "Ġreplaced": 5976,
      "gent": 5977,
      "esity": 5978,
      "iform": 5979,
      "Ġsubstance": 5980,
      "Another": 5981,
      "anda": 5982,
      "Ġworldwide": 5983,
      "hered": 5984,
      "ĠBr": 5985,
      "Ġunus": 5986,
      "Ġmaps": 5987,
      "aine": 5988,
      "ĠGeorg": 5989,
      "oln": 5990,
      "Ġrein": 5991,
      "ĠBet": 5992,
      "Ġpump": 5993,
      "Ġinfected": 5994,
      "athy": 5995,
      "ocracy": 5996,
      "encing": 5997,
      "Te": 5998,
      "Ġtwice": 5999,
      "Ġvote": 6000,
      "Ġachieved": 6001,
      "ĠItaly": 6002,
      "Ġfilled": 6003,
      "Ġenemy": 6004,
      "ĠRevolution": 6005,
      "olve": 6006,
      "Ġjoined": 6007,
      "ĠColor": 6008,
      "ĠAny": 6009,
      "elled": 6010,
      "roid": 6011,
      "pan": 6012,
      "ĠExpl": 6013,
      "free": 6014,
      "Ġfossil": 6015,
      "Ġmagnetic": 6016,
      "asp": 6017,
      "atal": 6018,
      "01": 6019,
      "ca": 6020,
      "Ġlegisl": 6021,
      "66": 6022,
      "ibilities": 6023,
      "Ġsucceed": 6024,
      "Ġplat": 6025,
      "idden": 6026,
      "ĠFree": 6027,
      "aska": 6028,
      "Ġemotional": 6029,
      "level": 6030,
      "called": 6031,
      "Ġwaves": 6032,
      "Ġdefic": 6033,
      "Ġtiny": 6034,
      "Ã¼": 6035,
      "ceived": 6036,
      "struct": 6037,
      "Ġlegislation": 6038,
      "imer": 6039,
      "zil": 6040,
      "41": 6041,
      "Ġleadership": 6042,
      "Ġgenerated": 6043,
      "Ġsupplies": 6044,
      "hop": 6045,
      "Ġrub": 6046,
      "tenance": 6047,
      "Ġmoist": 6048,
      "Ġplaying": 6049,
      "reland": 6050,
      "IA": 6051,
      "ĠSpain": 6052,
      "Ġgather": 6053,
      "ĠInstead": 6054,
      "Ġhus": 6055,
      "comes": 6056,
      "43": 6057,
      "ĠParty": 6058,
      "Ġcircumstances": 6059,
      "ansas": 6060,
      "oster": 6061,
      "rastructure": 6062,
      "Ġconventional": 6063,
      "lets": 6064,
      "ĠParis": 6065,
      "uke": 6066,
      "ĠBank": 6067,
      "Ġinvestment": 6068,
      "Ġcultiv": 6069,
      "ĠEnd": 6070,
      "Ġlimits": 6071,
      "ĠLearning": 6072,
      "88": 6073,
      "Ġlandscape": 6074,
      "elesc": 6075,
      "Ġdefe": 6076,
      "ĠColumbia": 6077,
      "gu": 6078,
      "Ġappreci": 6079,
      "Ġterritory": 6080,
      "ĠThose": 6081,
      "Why": 6082,
      "inations": 6083,
      "Ġextract": 6084,
      "html": 6085,
      "Ġmanage": 6086,
      "ĠScot": 6087,
      "ih": 6088,
      "Ġdensity": 6089,
      "acts": 6090,
      "ola": 6091,
      "Ġpowers": 6092,
      "Ġopposite": 6093,
      "ĠWood": 6094,
      "ĠGlobal": 6095,
      "Ġdin": 6096,
      "Ġwel": 6097,
      "Ġerror": 6098,
      "kes": 6099,
      "Ġorganisms": 6100,
      "utch": 6101,
      "Ġenhance": 6102,
      "ĠRoyal": 6103,
      "flow": 6104,
      "rd": 6105,
      "Ġtail": 6106,
      "ancing": 6107,
      "Ġcolors": 6108,
      "Ġindicates": 6109,
      "Ġtal": 6110,
      "Ġacceler": 6111,
      "Ġwitness": 6112,
      "Ġpromin": 6113,
      "Ġreaders": 6114,
      "Ġentry": 6115,
      "Ġpermanent": 6116,
      "ĠSecret": 6117,
      "Ġsurvive": 6118,
      "Ġdeliver": 6119,
      "ĠScott": 6120,
      "hand": 6121,
      "Ġbio": 6122,
      "Ġdepartment": 6123,
      "Ġadding": 6124,
      "Ġnaturally": 6125,
      "Ġstored": 6126,
      "Ġimmediate": 6127,
      "ctive": 6128,
      "Ġexists": 6129,
      "iah": 6130,
      "Ġequivalent": 6131,
      "Ġbroken": 6132,
      "ita": 6133,
      "Ġmolecules": 6134,
      "incoln": 6135,
      "Ġpu": 6136,
      "Ġgone": 6137,
      "ye": 6138,
      "Ġparam": 6139,
      "tra": 6140,
      "Ġvehicles": 6141,
      "ĠCancer": 6142,
      "Ġforth": 6143,
      "Ġlocations": 6144,
      "Ġproduces": 6145,
      "Ġresolution": 6146,
      "Ġgrew": 6147,
      "awn": 6148,
      "ifications": 6149,
      "ĠKnow": 6150,
      "ĠFour": 6151,
      "ĠÎ": 6152,
      "Ġdecrease": 6153,
      "Ġtells": 6154,
      "Ġtransmission": 6155,
      "ĠLab": 6156,
      "ĠGuide": 6157,
      "Ġinject": 6158,
      "Ġchart": 6159,
      "inder": 6160,
      "Ġsell": 6161,
      "Ġtoler": 6162,
      "heric": 6163,
      "Ġsight": 6164,
      "Ġvital": 6165,
      "Ġcoastal": 6166,
      "ensions": 6167,
      "Ġborder": 6168,
      "Ġpush": 6169,
      "Ġshut": 6170,
      ".'": 6171,
      "Ġattend": 6172,
      "Ġdioxide": 6173,
      "agon": 6174,
      "ĠAtlantic": 6175,
      "Ġguidelines": 6176,
      "ĠEastern": 6177,
      "orough": 6178,
      "En": 6179,
      "Ġdiscrim": 6180,
      "umes": 6181,
      "ĠGood": 6182,
      "ulin": 6183,
      "ĠIreland": 6184,
      "Ġlov": 6185,
      "Ġearthqu": 6186,
      "Ġfruits": 6187,
      "Ġpra": 6188,
      "earchers": 6189,
      "Ġlaunch": 6190,
      "Ġcourses": 6191,
      "osph": 6192,
      "Ġsurf": 6193,
      "Ġpretty": 6194,
      "Ġdepart": 6195,
      "Ġble": 6196,
      "Ġelection": 6197,
      "Ġcatch": 6198,
      "Ġaccounts": 6199,
      "Ġcos": 6200,
      "igned": 6201,
      "________": 6202,
      "ulty": 6203,
      "Ġ36": 6204,
      "Ġaffects": 6205,
      "ĠAgency": 6206,
      "Ġrecip": 6207,
      "rating": 6208,
      "Ġphysics": 6209,
      "ĠFe": 6210,
      "cium": 6211,
      "ooth": 6212,
      "ĠDisease": 6213,
      "Ġremote": 6214,
      "Ġmechanism": 6215,
      "Ġphotos": 6216,
      "Ġing": 6217,
      "Ġaer": 6218,
      "Ġsensitive": 6219,
      "Ġsomewhat": 6220,
      "Us": 6221,
      "Ġdream": 6222,
      "ĠAS": 6223,
      "Ġleaf": 6224,
      "Ġdoor": 6225,
      "bour": 6226,
      "Ġattached": 6227,
      "Ġelectron": 6228,
      "Ġsuffering": 6229,
      "ints": 6230,
      "Ġgenerate": 6231,
      "Ġfacilit": 6232,
      "Ġvessels": 6233,
      "Ġgalax": 6234,
      "ĠCult": 6235,
      "Ġ1991": 6236,
      "Ġresulted": 6237,
      "Ġfixed": 6238,
      "Ġcontrovers": 6239,
      "ĠWik": 6240,
      "Ġwish": 6241,
      "Ġtransportation": 6242,
      "ĠAtt": 6243,
      "Ġinstruments": 6244,
      "Ġedition": 6245,
      "Ġcars": 6246,
      "Ġnecessarily": 6247,
      "usal": 6248,
      "Ġshot": 6249,
      "osion": 6250,
      "Ġcontamin": 6251,
      "Ġentered": 6252,
      "Ġconsistent": 6253,
      "Ġcup": 6254,
      "Ġstages": 6255,
      "Ġneither": 6256,
      "Stud": 6257,
      "Ġemployed": 6258,
      "Ġgreenhouse": 6259,
      "Figure": 6260,
      "Ġagreed": 6261,
      "Ġnone": 6262,
      "Ġuniversity": 6263,
      "ĠExt": 6264,
      "ĠMD": 6265,
      "Ġfill": 6266,
      "Ġslowly": 6267,
      "Ġclust": 6268,
      "Ġregist": 6269,
      "Ġhoriz": 6270,
      "ĠStep": 6271,
      "Ġpublication": 6272,
      "Ġsupposed": 6273,
      "Ġrecovery": 6274,
      "oston": 6275,
      "ĠBre": 6276,
      "Ġzone": 6277,
      "ĠOhio": 6278,
      "ĠDivision": 6279,
      "fish": 6280,
      "',": 6281,
      "uels": 6282,
      "Ġlies": 6283,
      "everal": 6284,
      "omic": 6285,
      "Ġoutl": 6286,
      "ĠClin": 6287,
      "IP": 6288,
      "Ġfertil": 6289,
      "ĠExp": 6290,
      "Ġimplementation": 6291,
      "Ġsignals": 6292,
      "Ġofficers": 6293,
      "ĠCap": 6294,
      "Ġcrim": 6295,
      "Ġcart": 6296,
      "Ġrivers": 6297,
      "Ġspeaking": 6298,
      "Ġfighting": 6299,
      "Ġtalking": 6300,
      "Ġchosen": 6301,
      "top": 6302,
      "igan": 6303,
      "Ġ;": 6304,
      "ora": 6305,
      "Ġepid": 6306,
      "AA": 6307,
      "Ġsuccessfully": 6308,
      "Note": 6309,
      "Ġrelation": 6310,
      "Ġmedications": 6311,
      "ĠGard": 6312,
      "Ġspok": 6313,
      "ĠGree": 6314,
      "Ġmetab": 6315,
      "Ġchildhood": 6316,
      "Ġdrawn": 6317,
      "OL": 6318,
      "ĠVis": 6319,
      "Since": 6320,
      "Ġcamera": 6321,
      "Ġdivision": 6322,
      "ĠEmpire": 6323,
      "Ġcomposition": 6324,
      "Ġprincipal": 6325,
      "Ġaren": 6326,
      "Ġhelpful": 6327,
      "Ġdifficulty": 6328,
      "itative": 6329,
      "Ġaband": 6330,
      "Ġlect": 6331,
      "ĠHoly": 6332,
      "Ġoral": 6333,
      "Ġsuffer": 6334,
      "Ġmixed": 6335,
      "ymph": 6336,
      "Ġelected": 6337,
      "ĠNative": 6338,
      "Ġmanaged": 6339,
      "ĠMer": 6340,
      "iac": 6341,
      "ĠServices": 6342,
      "ĠBC": 6343,
      "ailed": 6344,
      "Ġanswers": 6345,
      "ĠCare": 6346,
      "ĠHeb": 6347,
      "Ġdriving": 6348,
      "ĠMa": 6349,
      "produ": 6350,
      "Ġsupplement": 6351,
      "Ġvolcan": 6352,
      "alysis": 6353,
      "ocation": 6354,
      "hma": 6355,
      "othe": 6356,
      "ctor": 6357,
      "een": 6358,
      "IR": 6359,
      "Ġarrange": 6360,
      "Ġworse": 6361,
      "Ã³": 6362,
      "isted": 6363,
      "Ġends": 6364,
      "Ġbones": 6365,
      "Do": 6366,
      "Ġcognitive": 6367,
      "Ġacknow": 6368,
      "ĠRob": 6369,
      "Ġ32": 6370,
      "Ġdiverse": 6371,
      "ĠSol": 6372,
      "Ġdoctors": 6373,
      "Ġpolitics": 6374,
      "otion": 6375,
      "Ġlin": 6376,
      "icide": 6377,
      "Ġsatellite": 6378,
      "ĠHill": 6379,
      "Ġseemed": 6380,
      "bran": 6381,
      "Ġhydrogen": 6382,
      "Ġdesire": 6383,
      "orous": 6384,
      "Ġchrom": 6385,
      "Ġpassage": 6386,
      "Ġrow": 6387,
      "ashion": 6388,
      "igrants": 6389,
      "Ġregulations": 6390,
      "struction": 6391,
      "Last": 6392,
      "Ġevaluation": 6393,
      "Ġcarefully": 6394,
      "Ġtasks": 6395,
      "Ġuns": 6396,
      "uh": 6397,
      "Ġinflamm": 6398,
      "ugh": 6399,
      "ishop": 6400,
      "pread": 6401,
      "Ġhop": 6402,
      "vironments": 6403,
      "Ġinsects": 6404,
      "Ġrid": 6405,
      "ercury": 6406,
      "erent": 6407,
      "Ġundert": 6408,
      "Ġnurs": 6409,
      "Ġfewer": 6410,
      "ĠLib": 6411,
      "Ġstudying": 6412,
      "iana": 6413,
      "Ġprepare": 6414,
      "Ġsurve": 6415,
      "Ġfalse": 6416,
      "ĠAdministration": 6417,
      "Ġsecure": 6418,
      "cons": 6419,
      "Ġunable": 6420,
      "Ġ75": 6421,
      "85": 6422,
      "phone": 6423,
      "asters": 6424,
      "ĠProp": 6425,
      "Ġfunds": 6426,
      "Ġhistoric": 6427,
      "Ġdestruction": 6428,
      "Ġhem": 6429,
      "ĠItalian": 6430,
      "orses": 6431,
      "Ġstruggle": 6432,
      "Ġstands": 6433,
      "Ġmerely": 6434,
      "Ġexplanation": 6435,
      "then": 6436,
      "Ġindicated": 6437,
      "Ġcomparison": 6438,
      "Ġdownload": 6439,
      "ella": 6440,
      "Ġ150": 6441,
      "71": 6442,
      "idespread": 6443,
      "Ġannounced": 6444,
      "BS": 6445,
      "ĠDistrict": 6446,
      "Ġconsiderable": 6447,
      "ested": 6448,
      "Ġsections": 6449,
      "while": 6450,
      "Ġdeclared": 6451,
      "Ġstring": 6452,
      "Ġru": 6453,
      "Ġseeing": 6454,
      "uter": 6455,
      "Ġlessons": 6456,
      "Ġpull": 6457,
      "Ġstanding": 6458,
      "eers": 6459,
      "Ġhypothes": 6460,
      "Ġtons": 6461,
      "liest": 6462,
      "antly": 6463,
      "Ġtouch": 6464,
      "Ġalle": 6465,
      "ĠCoast": 6466,
      "Ġrising": 6467,
      "Ġcommission": 6468,
      "vania": 6469,
      "aser": 6470,
      "Ġtransition": 6471,
      "Ġfoundation": 6472,
      "May": 6473,
      "Ġislands": 6474,
      "asive": 6475,
      "Ġwhatever": 6476,
      "Ġaccum": 6477,
      "Ġemployment": 6478,
      "Ġhero": 6479,
      "Ġyounger": 6480,
      "73": 6481,
      "zed": 6482,
      "olester": 6483,
      "ĠExper": 6484,
      "Ġnearby": 6485,
      "Ġswitch": 6486,
      "pet": 6487,
      "Ġratio": 6488,
      "Ġstick": 6489,
      "ificial": 6490,
      "ĠDet": 6491,
      "xts": 6492,
      "arant": 6493,
      "Ġnegot": 6494,
      "Ġweapons": 6495,
      "Ġcrew": 6496,
      "ĠLincoln": 6497,
      "Ġcommittee": 6498,
      "ĠThrough": 6499,
      "Ġaward": 6500,
      "Ġprohib": 6501,
      "Ġminim": 6502,
      "Ġflag": 6503,
      "ĠAND": 6504,
      "ascular": 6505,
      "ipedia": 6506,
      "syl": 6507,
      "Int": 6508,
      "CH": 6509,
      "oples": 6510,
      "Ġexpansion": 6511,
      "inking": 6512,
      "ĠRock": 6513,
      "Ġconstructed": 6514,
      "Ġeld": 6515,
      "Ġvariable": 6516,
      "Ġestimate": 6517,
      "Ġinfrastructure": 6518,
      "ĠEth": 6519,
      "rot": 6520,
      "Ġcloud": 6521,
      "peror": 6522,
      "Ġwriter": 6523,
      "alls": 6524,
      "Ġoblig": 6525,
      "operation": 6526,
      "Ġdelay": 6527,
      "ĠSpecial": 6528,
      "Ġrocks": 6529,
      "Ġdedicated": 6530,
      "Ġpapers": 6531,
      "Ġparticipate": 6532,
      "ĠBrazil": 6533,
      "Ġblow": 6534,
      "Ġparticipation": 6535,
      "http": 6536,
      "Ġhousing": 6537,
      "Ġpositions": 6538,
      "72": 6539,
      "ployment": 6540,
      "Ġultimately": 6541,
      "ults": 6542,
      "ĠSup": 6543,
      "Ġpercentage": 6544,
      "Ġcomposed": 6545,
      "ounded": 6546,
      "CD": 6547,
      "Ġprove": 6548,
      "Ġmuscles": 6549,
      "Ġmaintenance": 6550,
      "Ġchain": 6551,
      "ĠKingdom": 6552,
      "Ġroute": 6553,
      "SS": 6554,
      "Ġnetworks": 6555,
      "Ġcircuit": 6556,
      "Ġnutrients": 6557,
      "Ġsole": 6558,
      "Ġknows": 6559,
      "wing": 6560,
      "oven": 6561,
      "ĠPop": 6562,
      "rary": 6563,
      "ditional": 6564,
      "acing": 6565,
      "Ġlaunched": 6566,
      "74": 6567,
      "ĠMartin": 6568,
      "Ġinner": 6569,
      "dis": 6570,
      "Ġcultures": 6571,
      "Ġmand": 6572,
      "Ġcolumn": 6573,
      "acu": 6574,
      "erals": 6575,
      "arn": 6576,
      "ĠIrish": 6577,
      "Ġrank": 6578,
      "Ġapproved": 6579,
      "Ġsuitable": 6580,
      "abled": 6581,
      "Ġdemonstrated": 6582,
      "Ġoverl": 6583,
      "Ġaccident": 6584,
      "ĠTime": 6585,
      "ented": 6586,
      "ĠFamily": 6587,
      "Ġindependence": 6588,
      "ĠEarly": 6589,
      "Ġintellectual": 6590,
      "Ġfacility": 6591,
      "Ġpair": 6592,
      "Ġdollars": 6593,
      "ĠRom": 6594,
      "Ġantibiot": 6595,
      "scale": 6596,
      "Ġvolt": 6597,
      "Ġcryst": 6598,
      "ĠJeff": 6599,
      "Of": 6600,
      "Ġinvolving": 6601,
      "Ġmobile": 6602,
      "Ġcompetition": 6603,
      "Ġpron": 6604,
      "olesterol": 6605,
      "Ġscript": 6606,
      "Ġpounds": 6607,
      "rey": 6608,
      "Ġconsumers": 6609,
      "angered": 6610,
      "ĠGrand": 6611,
      "abric": 6612,
      "Ġmales": 6613,
      "Ġjoin": 6614,
      "oir": 6615,
      "ĠSurvey": 6616,
      "ĠTop": 6617,
      "Ġtruly": 6618,
      "Ġcloser": 6619,
      "Ġwants": 6620,
      "onia": 6621,
      "Ġfeeding": 6622,
      "Ġwilling": 6623,
      "ĠViet": 6624,
      "urrent": 6625,
      "cription": 6626,
      "Ġafford": 6627,
      "Ġ1950": 6628,
      "----": 6629,
      "omach": 6630,
      "Ġfourth": 6631,
      "Ġhonor": 6632,
      "Ġincl": 6633,
      "isco": 6634,
      "power": 6635,
      "Ġintelligence": 6636,
      "Ġparallel": 6637,
      "ĠIP": 6638,
      "ishment": 6639,
      "Ġroutine": 6640,
      "IM": 6641,
      "Ġmaintained": 6642,
      "Ġplatform": 6643,
      "avery": 6644,
      "ĠPlease": 6645,
      "ĠConn": 6646,
      "Ã¶": 6647,
      "Ġexamine": 6648,
      "Can": 6649,
      "Bl": 6650,
      "Ġarrest": 6651,
      "acher": 6652,
      "Ġwidespread": 6653,
      "Ġassociation": 6654,
      "Ġtall": 6655,
      "Ġreader": 6656,
      "'d": 6657,
      "Ġboys": 6658,
      "Ġframework": 6659,
      "ĠClimate": 6660,
      "Ġtelevision": 6661,
      "Ġflo": 6662,
      "Ġsteel": 6663,
      "aked": 6664,
      "Ġproportion": 6665,
      "Ġdecide": 6666,
      "ĠBill": 6667,
      ")|": 6668,
      "Ġboy": 6669,
      "Ġacres": 6670,
      "ĠBoston": 6671,
      "ĠForce": 6672,
      "Ġpoison": 6673,
      "Ġbiology": 6674,
      "Ġsought": 6675,
      "Ġended": 6676,
      "Ġcong": 6677,
      "Ġchoices": 6678,
      "rison": 6679,
      "Ġstrongly": 6680,
      "Ġmeth": 6681,
      "ivery": 6682,
      "ĠLanguage": 6683,
      "Ġruns": 6684,
      "Ġsod": 6685,
      "Ġturns": 6686,
      "Ġveter": 6687,
      "Rec": 6688,
      "Ġcm": 6689,
      "Ġcenters": 6690,
      "Ġenable": 6691,
      "esis": 6692,
      "ĠVictor": 6693,
      "Ġtrials": 6694,
      "Ġbomb": 6695,
      "ĠDirector": 6696,
      "Ġregul": 6697,
      "Ġmatters": 6698,
      "how": 6699,
      "Ġresponses": 6700,
      "sylvania": 6701,
      "Ġserver": 6702,
      "car": 6703,
      "Ġregularly": 6704,
      "osh": 6705,
      "'.": 6706,
      "Ġproceed": 6707,
      "Ġopposed": 6708,
      "Ġexplo": 6709,
      "Ġintervention": 6710,
      "68": 6711,
      "Ġfishing": 6712,
      "Ġfeelings": 6713,
      "Ġ65": 6714,
      "ums": 6715,
      "iral": 6716,
      "ĠPolic": 6717,
      "ricts": 6718,
      "Ġbread": 6719,
      "Ġarchitecture": 6720,
      "ĠOxford": 6721,
      "Ġscene": 6722,
      "Ġmathematics": 6723,
      "aded": 6724,
      "Ġsigned": 6725,
      "ighter": 6726,
      "Ġenvironments": 6727,
      "Ġrecognition": 6728,
      "Ġcapture": 6729,
      "Ġmit": 6730,
      "Ġbridge": 6731,
      "Ġroof": 6732,
      "Ġmodified": 6733,
      "Ġinteraction": 6734,
      "ĠSk": 6735,
      "anc": 6736,
      "Ġordered": 6737,
      "Ġthy": 6738,
      "Ġmode": 6739,
      "Ġsharing": 6740,
      "Read": 6741,
      "fortunately": 6742,
      "Ġarchae": 6743,
      "Ġclaimed": 6744,
      "Ġshift": 6745,
      "ether": 6746,
      "Ġeditor": 6747,
      "Ġproved": 6748,
      "irt": 6749,
      "word": 6750,
      "ĠConservation": 6751,
      "Ġcopyright": 6752,
      "ĠWhere": 6753,
      "ĠâĨ": 6754,
      "Ġimproving": 6755,
      "Ġgenerations": 6756,
      "Ġsacr": 6757,
      "Ġmeters": 6758,
      "Ġconference": 6759,
      "ĠEff": 6760,
      "Ġtheore": 6761,
      "Ġsmoke": 6762,
      "gi": 6763,
      "Ġappointed": 6764,
      "Ġrefuge": 6765,
      "Ġfemales": 6766,
      "Ġdebt": 6767,
      "Ġdrawing": 6768,
      "Ġscan": 6769,
      "UT": 6770,
      "Ġinfant": 6771,
      "ading": 6772,
      "Ġcrime": 6773,
      "Ġtips": 6774,
      "ĠList": 6775,
      "Ġ(\"": 6776,
      "Ġimprovement": 6777,
      "ĠNaz": 6778,
      "quar": 6779,
      "Ġplays": 6780,
      "Ġske": 6781,
      "ĠAngel": 6782,
      "Ġthoughts": 6783,
      "riers": 6784,
      "Ġcaptured": 6785,
      "ĠSat": 6786,
      "ipping": 6787,
      "plant": 6788,
      "Ġnoise": 6789,
      "Ġprev": 6790,
      "Qu": 6791,
      "bing": 6792,
      "ĠDesign": 6793,
      "Ġintake": 6794,
      "Ġvictims": 6795,
      "Ġsweet": 6796,
      "Ġorient": 6797,
      "08": 6798,
      "yr": 6799,
      "Ġsupports": 6800,
      "Ġpresentation": 6801,
      "Ġmechanisms": 6802,
      "Ġingred": 6803,
      "erior": 6804,
      "Ġstre": 6805,
      "Ġadequate": 6806,
      "mes": 6807,
      "Ġallerg": 6808,
      "Ġmarkets": 6809,
      "Ġnest": 6810,
      "cul": 6811,
      "rat": 6812,
      "venue": 6813,
      "Ġmeasurements": 6814,
      "Ġmanif": 6815,
      "ĠEncyclopedia": 6816,
      "Ġhole": 6817,
      "bar": 6818,
      "Ġadm": 6819,
      "Ġmanufacturing": 6820,
      "Ġrig": 6821,
      "uing": 6822,
      "Ġpreval": 6823,
      "Ġstreet": 6824,
      "ĠJac": 6825,
      "she": 6826,
      "ĠDou": 6827,
      "Ġille": 6828,
      "tery": 6829,
      "ala": 6830,
      "Ġmice": 6831,
      "weight": 6832,
      "ushed": 6833,
      "mail": 6834,
      "Ġtexts": 6835,
      "ĠJohnson": 6836,
      "inson": 6837,
      "Ġperm": 6838,
      "ĠâĢ¦": 6839,
      "Ġcommitted": 6840,
      "ĠGoogle": 6841,
      "ĠGulf": 6842,
      "Ġcontrols": 6843,
      "ĠPage": 6844,
      "ĠTV": 6845,
      "net": 6846,
      "ypes": 6847,
      "raq": 6848,
      "ĠLaboratory": 6849,
      "Ġsentence": 6850,
      "ĠCommunity": 6851,
      "Ġsupporting": 6852,
      "Ġagents": 6853,
      "Ġemployees": 6854,
      "ĠWhe": 6855,
      "urt": 6856,
      "Ġcreates": 6857,
      "herent": 6858,
      "ĠAmong": 6859,
      "Ġlists": 6860,
      "ĠPet": 6861,
      "orph": 6862,
      "Ġlie": 6863,
      "Ġorbit": 6864,
      "Ġpurchase": 6865,
      "gans": 6866,
      "Ġtube": 6867,
      "Ġcentre": 6868,
      "ĠAccess": 6869,
      "Ġphoto": 6870,
      "Ġtrip": 6871,
      "Ġattempts": 6872,
      "Ġmm": 6873,
      "adel": 6874,
      "Ġplus": 6875,
      "Ġdefine": 6876,
      "lishing": 6877,
      "Ġhusband": 6878,
      "ediatric": 6879,
      "ano": 6880,
      "ĠBab": 6881,
      "Ġpool": 6882,
      "vard": 6883,
      "occ": 6884,
      "acco": 6885,
      "Ġsubsequent": 6886,
      "Ġdefense": 6887,
      "uset": 6888,
      "Ġsmoking": 6889,
      "Ġlake": 6890,
      "including": 6891,
      "Ġcompounds": 6892,
      "Ġframe": 6893,
      "Ġ1989": 6894,
      "ĠAge": 6895,
      "eless": 6896,
      "09": 6897,
      "Ġholds": 6898,
      "Ġcategories": 6899,
      "Ġlaid": 6900,
      "ĠÂ©": 6901,
      "Ġcolour": 6902,
      "Ġdanger": 6903,
      "Ġturb": 6904,
      "Ġalter": 6905,
      "Ġzero": 6906,
      "Ġmachines": 6907,
      "Ġsports": 6908,
      "Ġmild": 6909,
      "Ġobesity": 6910,
      "Ġoperate": 6911,
      "ady": 6912,
      "ĠZeal": 6913,
      "Ġobjective": 6914,
      "prof": 6915,
      "uracy": 6916,
      "Ġfairly": 6917,
      "ĠYoung": 6918,
      "li": 6919,
      "inally": 6920,
      "sen": 6921,
      "ĠNov": 6922,
      "eper": 6923,
      "ĠIran": 6924,
      "Ġlots": 6925,
      "Ġsolve": 6926,
      "Ġstable": 6927,
      "arsh": 6928,
      "Ġfurn": 6929,
      "Ġconcerning": 6930,
      "06": 6931,
      "Ġdemonstrate": 6932,
      "ĠMake": 6933,
      "Ġstarts": 6934,
      "Ġreceiving": 6935,
      "Ġspending": 6936,
      "Ġarts": 6937,
      "Ġbiod": 6938,
      "Ġdisaster": 6939,
      "Ġtropical": 6940,
      "gs": 6941,
      "Ġcontemporary": 6942,
      "hav": 6943,
      "Ġholding": 6944,
      "Ġfasc": 6945,
      "usetts": 6946,
      "Ġring": 6947,
      "earing": 6948,
      "cel": 6949,
      "achusetts": 6950,
      "Ġtheories": 6951,
      "Ġinhib": 6952,
      "Ġaudience": 6953,
      "Ġintegrated": 6954,
      "ĠSil": 6955,
      "ĠPennsylvania": 6956,
      "Ġtrained": 6957,
      "Ġhun": 6958,
      "ograp": 6959,
      "Ġuncertain": 6960,
      "Ġfever": 6961,
      "Ġbreeding": 6962,
      "ĠSir": 6963,
      "Ġwhereas": 6964,
      "anes": 6965,
      "Ġinterpretation": 6966,
      "Ġoutcomes": 6967,
      "?âĢĿ": 6968,
      "otton": 6969,
      "Ġcoff": 6970,
      "Ġnewly": 6971,
      "ĠGeorgia": 6972,
      "ĠSupreme": 6973,
      "class": 6974,
      "was": 6975,
      "Ġwithd": 6976,
      "Ġjourney": 6977,
      "ĠHebrew": 6978,
      "Ġlayers": 6979,
      "Ġstations": 6980,
      "using": 6981,
      "Not": 6982,
      "Ġcalcium": 6983,
      "ĠVer": 6984,
      "Ġsilver": 6985,
      "Ġexclus": 6986,
      "Ġcompris": 6987,
      "RA": 6988,
      "Ġfisher": 6989,
      "Ġrecommendations": 6990,
      "illa": 6991,
      "ĠDen": 6992,
      "Ġbeliefs": 6993,
      "ĠWall": 6994,
      "Ġreactions": 6995,
      "Ġinstructions": 6996,
      "Ġfract": 6997,
      "izer": 6998,
      "ĠMel": 6999,
      "eor": 7000,
      "reated": 7001,
      "ucky": 7002,
      "uts": 7003,
      "Ġsubstantial": 7004,
      "Ġraw": 7005,
      "Ġterror": 7006,
      "ĠLar": 7007,
      "itter": 7008,
      "Ġprompt": 7009,
      "DP": 7010,
      "Ġappeal": 7011,
      "Ġevil": 7012,
      "abul": 7013,
      "Ġrarely": 7014,
      "ĠZealand": 7015,
      "ĠEPA": 7016,
      "erted": 7017,
      "Ġlegs": 7018,
      "ĠVen": 7019,
      "Ġanxiety": 7020,
      "Ġneck": 7021,
      "medi": 7022,
      "RC": 7023,
      "ENT": 7024,
      "Ġfrequent": 7025,
      "Ã¢": 7026,
      "ĠSwed": 7027,
      "Ġfold": 7028,
      "Ġcattle": 7029,
      "Ġdistributed": 7030,
      "Ġbanks": 7031,
      "Ġinher": 7032,
      "ĠAsian": 7033,
      "cribed": 7034,
      "roduction": 7035,
      "Ġcriteria": 7036,
      "ourage": 7037,
      "Ġahead": 7038,
      "Ġunusual": 7039,
      "Ġbehaviour": 7040,
      "Ġplanned": 7041,
      "Ġinterpre": 7042,
      "bra": 7043,
      "alm": 7044,
      "Ġgenet": 7045,
      "Ġexceed": 7046,
      "Ġblind": 7047,
      "ĠAM": 7048,
      "Ġassigned": 7049,
      "Ġment": 7050,
      "Ġcrucial": 7051,
      "abits": 7052,
      "eren": 7053,
      "Ġkilomet": 7054,
      "ĠBig": 7055,
      "Ġslaves": 7056,
      "Ġearliest": 7057,
      "Ġcutting": 7058,
      "Ġconclusion": 7059,
      "Ġsheet": 7060,
      "Ġcovers": 7061,
      "Ġmolecular": 7062,
      "ivered": 7063,
      "ĠMen": 7064,
      "Ġmac": 7065,
      "apse": 7066,
      "ĠWindows": 7067,
      "Ġplane": 7068,
      "CL": 7069,
      "estion": 7070,
      "03": 7071,
      "ĠChange": 7072,
      "Ġdesigns": 7073,
      "Ġstrict": 7074,
      "Le": 7075,
      "iological": 7076,
      "Ġpainting": 7077,
      "Ġsignificance": 7078,
      "Ġbusinesses": 7079,
      "ĠSecurity": 7080,
      "Ġstroke": 7081,
      "Ġburning": 7082,
      "Ġengage": 7083,
      "Ġguarant": 7084,
      "Pe": 7085,
      "istent": 7086,
      "Ġstomach": 7087,
      "orith": 7088,
      "Ġexception": 7089,
      "Ġtransf": 7090,
      "onomy": 7091,
      "Ġunderlying": 7092,
      "Ġdirected": 7093,
      "02": 7094,
      "Ġinjuries": 7095,
      "98": 7096,
      "Ġinstalled": 7097,
      "Ġescape": 7098,
      "Ġhappy": 7099,
      "Am": 7100,
      "Ġshop": 7101,
      "Ġresident": 7102,
      "Ġoutbre": 7103,
      "amber": 7104,
      "Ġcarrying": 7105,
      "Ġ400": 7106,
      "Ġdischar": 7107,
      "Ġtransp": 7108,
      "Ġcreative": 7109,
      "Ġmedication": 7110,
      "Ġunion": 7111,
      "Ġteen": 7112,
      "urches": 7113,
      "Ġenforce": 7114,
      "Ġpeak": 7115,
      "ĠNetwork": 7116,
      "ĠFund": 7117,
      "Ġprofessionals": 7118,
      "ĠPC": 7119,
      "Ed": 7120,
      "ĠEp": 7121,
      "Ġreserved": 7122,
      "Ġconqu": 7123,
      "rous": 7124,
      "ette": 7125,
      "ĠPalest": 7126,
      "Ġgranted": 7127,
      "Ġid": 7128,
      "ĠChristians": 7129,
      "Ġartists": 7130,
      "Ġhandle": 7131,
      "ĠMoon": 7132,
      "Ġinhabit": 7133,
      "Ġpreced": 7134,
      "Ġmortality": 7135,
      "Ġskill": 7136,
      "Ġtrouble": 7137,
      "Ġwalking": 7138,
      "Ġprinted": 7139,
      "pd": 7140,
      "Ġhorses": 7141,
      "Ġbranch": 7142,
      "asty": 7143,
      "Ġsettlement": 7144,
      "bles": 7145,
      "64": 7146,
      "ĠSund": 7147,
      "hesis": 7148,
      "Ġbiggest": 7149,
      "ima": 7150,
      "ifts": 7151,
      "Ġcholesterol": 7152,
      "Ġ38": 7153,
      "ĠConfed": 7154,
      "Ġdrain": 7155,
      "forest": 7156,
      "Ġscientist": 7157,
      "Ġmountains": 7158,
      "ĠDictionary": 7159,
      "Ġuniversal": 7160,
      "ĠMassachusetts": 7161,
      "Ġfer": 7162,
      "ĠCambridge": 7163,
      "Ġconsumer": 7164,
      "Ġtank": 7165,
      "Ġcircle": 7166,
      "Ġrice": 7167,
      "theless": 7168,
      "ĠWildlife": 7169,
      "\")": 7170,
      "Ġsoul": 7171,
      "04": 7172,
      "ĠMS": 7173,
      "Ġmatch": 7174,
      "unicip": 7175,
      "ĠIraq": 7176,
      "Ġconcrete": 7177,
      "Ġrecept": 7178,
      "Ġlisten": 7179,
      "uality": 7180,
      "va": 7181,
      "ocy": 7182,
      "ĠMichigan": 7183,
      "usalem": 7184,
      "amination": 7185,
      "First": 7186,
      "Ġphysician": 7187,
      "Ġpassing": 7188,
      "ooking": 7189,
      "ĠJul": 7190,
      "orted": 7191,
      "ĠMinister": 7192,
      "ĠAdd": 7193,
      "Ġconven": 7194,
      "ĠNavy": 7195,
      "Because": 7196,
      "Ġsuffered": 7197,
      "Ġinvestigation": 7198,
      "Ġpermission": 7199,
      "Ġexamination": 7200,
      "ounce": 7201,
      "Ġtowns": 7202,
      "Ġnerve": 7203,
      "ĠSuper": 7204,
      "58": 7205,
      "Ġswim": 7206,
      "Ġpestic": 7207,
      "Ġvoc": 7208,
      "Ġabsence": 7209,
      "ĠThree": 7210,
      "erman": 7211,
      "edu": 7212,
      "ĠTim": 7213,
      "ĠColorado": 7214,
      "inois": 7215,
      "Ġessentially": 7216,
      "Ġadap": 7217,
      "ĠAri": 7218,
      "Ġcrow": 7219,
      "Ġ48": 7220,
      "Ġproof": 7221,
      "Ġfilter": 7222,
      "Ġroads": 7223,
      "ĠAdv": 7224,
      "Or": 7225,
      "ĠOnline": 7226,
      "Ġtemple": 7227,
      "Ġimplications": 7228,
      "Ġfed": 7229,
      "Ġslavery": 7230,
      "Ġroughly": 7231,
      "Ġhighlight": 7232,
      "Ġthorough": 7233,
      "Col": 7234,
      "ani": 7235,
      "AB": 7236,
      "etime": 7237,
      "Ġencouraged": 7238,
      "Ġcombat": 7239,
      "ĠPo": 7240,
      "Ġmedic": 7241,
      "ĠFather": 7242,
      "Ġfashion": 7243,
      "Ġprominent": 7244,
      "ĠYear": 7245,
      "Ġstatistics": 7246,
      "Ġopposition": 7247,
      "Ġbehaviors": 7248,
      "Ġbattery": 7249,
      "Ġengaged": 7250,
      "Ġfabric": 7251,
      "Ġassume": 7252,
      "69": 7253,
      "Ġrelief": 7254,
      "Ġangle": 7255,
      "pling": 7256,
      "Ġath": 7257,
      "Comp": 7258,
      "fl": 7259,
      "Ġcategory": 7260,
      "abeth": 7261,
      "Ġdelivery": 7262,
      "Ġexamined": 7263,
      "Ġdiameter": 7264,
      "istical": 7265,
      "utrition": 7266,
      "erty": 7267,
      "Ġpeoples": 7268,
      "yles": 7269,
      "Ġmembran": 7270,
      "Don": 7271,
      "Ġpresents": 7272,
      "Ġregarded": 7273,
      "iary": 7274,
      "umps": 7275,
      "Ġsup": 7276,
      "Ġlifest": 7277,
      "ommod": 7278,
      "Ġvulnerable": 7279,
      "Ġfinished": 7280,
      "Ġguard": 7281,
      "Ġpreparation": 7282,
      "ube": 7283,
      "Ġdiagnosed": 7284,
      "Ġconcluded": 7285,
      "Ġpartner": 7286,
      "Ġrespectively": 7287,
      "Ġsubstances": 7288,
      "yal": 7289,
      "Ġintense": 7290,
      "enza": 7291,
      "Ġhazard": 7292,
      "Ġvisitors": 7293,
      "outs": 7294,
      "Ġmeasurement": 7295,
      "ollowing": 7296,
      "Ġexped": 7297,
      "Ġbeings": 7298,
      "Ġjudge": 7299,
      "ĠProtection": 7300,
      "Ġgrain": 7301,
      "Ġdelivered": 7302,
      "ĠPract": 7303,
      "Ġdose": 7304,
      "Ġgained": 7305,
      "ĠPrince": 7306,
      "ĠFrancisco": 7307,
      "rint": 7308,
      "Go": 7309,
      "Ġacids": 7310,
      "Ġconfirmed": 7311,
      "Ġadvert": 7312,
      "Ġaccuracy": 7313,
      "Ġslave": 7314,
      "Ġpup": 7315,
      "Ġabnormal": 7316,
      "07": 7317,
      "Ġconnections": 7318,
      "Ġped": 7319,
      "Ġourselves": 7320,
      "ĠGr": 7321,
      "Ġdomain": 7322,
      "ptions": 7323,
      "Ġartist": 7324,
      "à¤": 7325,
      "Ġseeking": 7326,
      "azing": 7327,
      "Ġouter": 7328,
      "oric": 7329,
      "Ġwasn": 7330,
      "John": 7331,
      "requ": 7332,
      "Ġcav": 7333,
      "Ġrespir": 7334,
      "ĠCreek": 7335,
      "ĠSenate": 7336,
      "ĠDig": 7337,
      "Ġputting": 7338,
      "Ġserving": 7339,
      "ĠEst": 7340,
      "Ġtaste": 7341,
      "Ġprotocol": 7342,
      "isdom": 7343,
      "Ġinsurance": 7344,
      "Ġstead": 7345,
      "Ġinfluenced": 7346,
      "sm": 7347,
      "Ġequally": 7348,
      "Ġmanip": 7349,
      "Ġplayers": 7350,
      "Ġquarter": 7351,
      "Ġengines": 7352,
      "Ġ1930": 7353,
      "ĠCorn": 7354,
      "Ġmechanical": 7355,
      "Ġemphasis": 7356,
      "yc": 7357,
      "Ġenorm": 7358,
      "Ġbabies": 7359,
      "Ġmessages": 7360,
      "ographical": 7361,
      "Ġprogramming": 7362,
      "Ġmining": 7363,
      "issipp": 7364,
      "Ġblocks": 7365,
      "Ġcards": 7366,
      "Ġcareful": 7367,
      "Ġchap": 7368,
      "Ġsettled": 7369,
      "Ġdefend": 7370,
      "Ġfro": 7371,
      "ĠSand": 7372,
      "ĠStar": 7373,
      "itals": 7374,
      "Ġholid": 7375,
      "Ġbatt": 7376,
      "ĠRh": 7377,
      "Ġongoing": 7378,
      "def": 7379,
      "ĠThough": 7380,
      "Ġbranches": 7381,
      "Ġapparently": 7382,
      "Ġwrites": 7383,
      "Ġcited": 7384,
      "isk": 7385,
      "Ġturning": 7386,
      "Ġrose": 7387,
      "Ġmoves": 7388,
      "Ġflav": 7389,
      "ĠSecretary": 7390,
      "Ġmos": 7391,
      "ĠEdward": 7392,
      "Ġusual": 7393,
      "akistan": 7394,
      "Ġelectro": 7395,
      "Ġforg": 7396,
      "Ġoptim": 7397,
      "rox": 7398,
      "emia": 7399,
      "century": 7400,
      "ĠWrit": 7401,
      "vation": 7402,
      "Ġgradually": 7403,
      "Ġconcentrations": 7404,
      "ĠConference": 7405,
      "ĠJerusalem": 7406,
      "Ġdependent": 7407,
      "ĠTre": 7408,
      "59": 7409,
      "sets": 7410,
      "Ġviewed": 7411,
      "Ġbutter": 7412,
      "mod": 7413,
      "],": 7414,
      "Ġcompare": 7415,
      "Ġacquired": 7416,
      "Ġneur": 7417,
      "Ġfinds": 7418,
      "Over": 7419,
      "Ear": 7420,
      "elfare": 7421,
      "Ġvoltage": 7422,
      "usiness": 7423,
      "Ġduty": 7424,
      "otal": 7425,
      "ĠWho": 7426,
      "Ġpanel": 7427,
      "ĠHospital": 7428,
      "Ġelsewhere": 7429,
      "Ġthreatened": 7430,
      "Ġcontinuous": 7431,
      "ĠUt": 7432,
      "Ġwine": 7433,
      "Ġinn": 7434,
      "Ġchlor": 7435,
      "making": 7436,
      "Ġrational": 7437,
      "ĠArctic": 7438,
      "Ġpharm": 7439,
      "Ġsuperior": 7440,
      "Ġcommunicate": 7441,
      "%)": 7442,
      "oured": 7443,
      "Ġtract": 7444,
      "Ġgluc": 7445,
      "ĠOper": 7446,
      "ĠIndust": 7447,
      "sell": 7448,
      "ĠSing": 7449,
      "ĠLin": 7450,
      "Ġfulf": 7451,
      "Ġ33": 7452,
      "Ġgiant": 7453,
      "Ġvel": 7454,
      "Ġaccompan": 7455,
      "ĠHawai": 7456,
      "ĠBul": 7457,
      "Ġsevent": 7458,
      "Ġorgans": 7459,
      "OM": 7460,
      "Art": 7461,
      "56": 7462,
      "Ġphenomenon": 7463,
      "Ġmixt": 7464,
      "ourse": 7465,
      "Ġevaluate": 7466,
      "Ġcaught": 7467,
      "Ġpsychological": 7468,
      "Ġworship": 7469,
      "Ġevolved": 7470,
      "enger": 7471,
      "ĠMicro": 7472,
      "ĠChapter": 7473,
      "Ġempt": 7474,
      "just": 7475,
      "ude": 7476,
      "ĠBefore": 7477,
      "Ġwriters": 7478,
      "Ġscar": 7479,
      "Ġgram": 7480,
      "rowing": 7481,
      "Ġtooth": 7482,
      "Ġbond": 7483,
      "ĠCast": 7484,
      "Ġconserv": 7485,
      "ĠEr": 7486,
      "achers": 7487,
      "Ġcharacterized": 7488,
      "Ġplanets": 7489,
      "elescope": 7490,
      "Ġgap": 7491,
      "eping": 7492,
      "athered": 7493,
      "ĠNote": 7494,
      "Ġconfidence": 7495,
      "Ġpolar": 7496,
      "Ġsenior": 7497,
      "ĠPolicy": 7498,
      "ĠAcc": 7499,
      "Ġtribes": 7500,
      "Ġvariation": 7501,
      "âĢĻ.": 7502,
      "Ġconfig": 7503,
      "ĠPass": 7504,
      "olesc": 7505,
      "Ġcorner": 7506,
      "ĠCentre": 7507,
      "roat": 7508,
      "Ġrab": 7509,
      "Ġharmful": 7510,
      "Ġofficer": 7511,
      "Ġvirtual": 7512,
      "Ġarray": 7513,
      "Ġisolated": 7514,
      "ĠPlant": 7515,
      "Ġinteractions": 7516,
      "Ġestablishment": 7517,
      "ĠIslands": 7518,
      "Ġitem": 7519,
      "Ġminute": 7520,
      "adelph": 7521,
      "Ġ1988": 7522,
      "Ġseat": 7523,
      "ĠSar": 7524,
      "Ġviruses": 7525,
      "ĠHave": 7526,
      "About": 7527,
      "Ġparas": 7528,
      "sue": 7529,
      "ĠBureau": 7530,
      "Ġbringing": 7531,
      "Ġalgorith": 7532,
      "ĠPen": 7533,
      "Ġlibr": 7534,
      "ĠBooks": 7535,
      "Ġdamaged": 7536,
      "ĠHy": 7537,
      "Ġbrings": 7538,
      "Ġchannel": 7539,
      "Ġdrought": 7540,
      "reation": 7541,
      "etary": 7542,
      "Ġstimul": 7543,
      "ĠIllinois": 7544,
      "Ġsession": 7545,
      "ĠAff": 7546,
      "Ġdistricts": 7547,
      "emb": 7548,
      "kl": 7549,
      "Ġobservation": 7550,
      "Ġexperimental": 7551,
      "Ġmicrosc": 7552,
      "ribe": 7553,
      "ĠConvention": 7554,
      "Ġkit": 7555,
      "ĠObs": 7556,
      "ĠPolit": 7557,
      "ĠLee": 7558,
      "Ġton": 7559,
      "Ġye": 7560,
      "Ġshock": 7561,
      "Ġrenewable": 7562,
      "ogether": 7563,
      "Ġtight": 7564,
      "Ġvariables": 7565,
      "Ġowner": 7566,
      "Ġordinary": 7567,
      "izabeth": 7568,
      "Su": 7569,
      "Ġorb": 7570,
      "ĠEqu": 7571,
      "ĠKar": 7572,
      "Ġsurfaces": 7573,
      "Ġsharp": 7574,
      "Ġneighborhood": 7575,
      "hyth": 7576,
      "ĠHand": 7577,
      "Ġconsideration": 7578,
      "ieval": 7579,
      "issippi": 7580,
      "Ġheads": 7581,
      "Ġnitrogen": 7582,
      "OC": 7583,
      "elve": 7584,
      "Ġfarming": 7585,
      "Ġoffering": 7586,
      "Ġfunctional": 7587,
      "era": 7588,
      "aired": 7589,
      "night": 7590,
      "Ġwarning": 7591,
      "ĠStr": 7592,
      "Ġearn": 7593,
      "iability": 7594,
      "Even": 7595,
      "ĠCreat": 7596,
      "esides": 7597,
      "Ġcommunications": 7598,
      "Ġcharacteristic": 7599,
      "uten": 7600,
      "ĠFigure": 7601,
      "ao": 7602,
      "ĠOrganization": 7603,
      "Ġburied": 7604,
      "Ġassumed": 7605,
      "ĠAuthor": 7606,
      "Ġcourts": 7607,
      "Ġdesired": 7608,
      "Ġasking": 7609,
      "ĠMah": 7610,
      "Ġjur": 7611,
      "ĠRoad": 7612,
      "Ġessay": 7613,
      "ĠWal": 7614,
      "Ġsatisf": 7615,
      "Let": 7616,
      "Ġaccessible": 7617,
      "ĠSafety": 7618,
      "Ġdemands": 7619,
      "Comm": 7620,
      "âĢĺ": 7621,
      "Ġracial": 7622,
      "Ġwait": 7623,
      "Ġmissing": 7624,
      "Ġsit": 7625,
      "ĠCross": 7626,
      "Ġflows": 7627,
      "Ġeffectiveness": 7628,
      "ĠObama": 7629,
      "Ġseconds": 7630,
      "soft": 7631,
      "Ġindigenous": 7632,
      "ĠLiter": 7633,
      "olt": 7634,
      "Ġchest": 7635,
      "Ġseg": 7636,
      "Ġvegetation": 7637,
      "Ġgases": 7638,
      "ĠDutch": 7639,
      "Ġspectrum": 7640,
      "Ġusage": 7641,
      "Ġpregnant": 7642,
      "adelphia": 7643,
      "Ġagent": 7644,
      "Ġtaxes": 7645,
      "rays": 7646,
      "ĠIV": 7647,
      "ounter": 7648,
      "Ġseparated": 7649,
      "Ġimplemented": 7650,
      "itely": 7651,
      "Ġtom": 7652,
      "Ġchick": 7653,
      "Med": 7654,
      "63": 7655,
      "Ġplain": 7656,
      "ĠPrevention": 7657,
      "Ġorders": 7658,
      "pes": 7659,
      "ĠCapt": 7660,
      "ĠScotland": 7661,
      "ĠBattle": 7662,
      "Ġstatements": 7663,
      "ami": 7664,
      "Once": 7665,
      "agan": 7666,
      "icted": 7667,
      "Ġdetected": 7668,
      "Ġpersonnel": 7669,
      "Ġscreening": 7670,
      "Ġheavily": 7671,
      "Ġentit": 7672,
      "Ġmyst": 7673,
      "bec": 7674,
      "Ġextend": 7675,
      "Ġradical": 7676,
      "iov": 7677,
      "Ġnerv": 7678,
      "Ġsettings": 7679,
      "mann": 7680,
      "Ġdates": 7681,
      "Ġrealize": 7682,
      "Ġaddressed": 7683,
      "Ġdramatic": 7684,
      "raham": 7685,
      "EE": 7686,
      "Ġtraditions": 7687,
      "ĠJustice": 7688,
      "Ġpointed": 7689,
      "Ġfiber": 7690,
      "Ġvan": 7691,
      "ĠParliament": 7692,
      "Ġinternet": 7693,
      "Ġtea": 7694,
      ".).": 7695,
      "Ġcollaboration": 7696,
      "opic": 7697,
      "Lear": 7698,
      "endar": 7699,
      "operative": 7700,
      "ĠFar": 7701,
      "ackson": 7702,
      "Ġidentification": 7703,
      "Ġerrors": 7704,
      "icious": 7705,
      "Ġcharged": 7706,
      "ĠFire": 7707,
      "Ġshore": 7708,
      "endment": 7709,
      "Ġdriven": 7710,
      "Ġbeauty": 7711,
      "Ġreliable": 7712,
      "haust": 7713,
      "Ġspin": 7714,
      "Ġindustries": 7715,
      "ruption": 7716,
      "Ġremoval": 7717,
      "Ġvisited": 7718,
      "Ġengineers": 7719,
      "Ġjump": 7720,
      "Ġnewspaper": 7721,
      "uma": 7722,
      "ĠHistorical": 7723,
      "Ġconj": 7724,
      "angle": 7725,
      "Per": 7726,
      "rite": 7727,
      "Ġmir": 7728,
      "Ġcoverage": 7729,
      "Ġadds": 7730,
      "Ġspacecraft": 7731,
      "vi": 7732,
      "Ġaccommod": 7733,
      "Ġles": 7734,
      "ĠNon": 7735,
      "Ġliteracy": 7736,
      "Ġstuff": 7737,
      "itivity": 7738,
      "ĠJo": 7739,
      "Ġcontributed": 7740,
      "ĠPot": 7741,
      "Ġclothing": 7742,
      "ĠLo": 7743,
      "Today": 7744,
      "Ġsmooth": 7745,
      "heimer": 7746,
      "Ġcriminal": 7747,
      "icular": 7748,
      "Ġartificial": 7749,
      "ĠDC": 7750,
      "Ġowned": 7751,
      "Ġdifficulties": 7752,
      "raining": 7753,
      "Ġmine": 7754,
      "Ġexpanded": 7755,
      "fts": 7756,
      "Ġpilot": 7757,
      "Ġcalling": 7758,
      "rooms": 7759,
      "ostic": 7760,
      "67": 7761,
      "Ġfacing": 7762,
      "Ġplayer": 7763,
      "real": 7764,
      "Ġargued": 7765,
      "ĠTom": 7766,
      "oding": 7767,
      "Ġserves": 7768,
      "writ": 7769,
      "ĠLos": 7770,
      "aneously": 7771,
      "ilation": 7772,
      "53": 7773,
      "Ġbeneficial": 7774,
      "rolled": 7775,
      "ĠPakistan": 7776,
      "omed": 7777,
      "aneous": 7778,
      "Ġdealing": 7779,
      "opher": 7780,
      "DS": 7781,
      "Ġcomplicated": 7782,
      "Ġov": 7783,
      "Ġfalls": 7784,
      "idity": 7785,
      "ĠFred": 7786,
      "ĠFair": 7787,
      "Ġsteam": 7788,
      "Ġflour": 7789,
      "ouds": 7790,
      "atus": 7791,
      "Ġinitially": 7792,
      "Ġexhibit": 7793,
      "Ġbegun": 7794,
      "Ġacute": 7795,
      "Ġasthma": 7796,
      "Ġdescript": 7797,
      "Hist": 7798,
      "Ġbrows": 7799,
      "Ġversions": 7800,
      "Ġdraft": 7801,
      "ĠIslamic": 7802,
      "una": 7803,
      "ĠPoint": 7804,
      "vin": 7805,
      "regon": 7806,
      "Ġfeedback": 7807,
      "eness": 7808,
      "ĠLow": 7809,
      "Ġoldest": 7810,
      "ĠChristmas": 7811,
      "Ġhabits": 7812,
      "Pre": 7813,
      "Ġgrid": 7814,
      "ditionally": 7815,
      "ĠOl": 7816,
      "Ġpy": 7817,
      "Ġmusical": 7818,
      "yer": 7819,
      "ritis": 7820,
      "Ġdisabilities": 7821,
      "Ġmaintaining": 7822,
      "zer": 7823,
      "Ġtranslation": 7824,
      "Ġcovering": 7825,
      "gers": 7826,
      "ĠWord": 7827,
      "Ġtissues": 7828,
      "Ġmineral": 7829,
      "ĠFinally": 7830,
      "ĠCurrent": 7831,
      "ĠTable": 7832,
      "Ġdesert": 7833,
      "you": 7834,
      "Ġalph": 7835,
      "ĠKent": 7836,
      "ologic": 7837,
      "foot": 7838,
      "pled": 7839,
      "this": 7840,
      "Ġinterface": 7841,
      "Ġdisturb": 7842,
      "ĠEU": 7843,
      "Ġdiscrimination": 7844,
      "Ġfellow": 7845,
      "ĠAssess": 7846,
      "ĠMethod": 7847,
      "Ġkilling": 7848,
      "Ġchemistry": 7849,
      "eh": 7850,
      "Ġcounsel": 7851,
      "%.": 7852,
      "pass": 7853,
      "89": 7854,
      "ensed": 7855,
      "irth": 7856,
      "Ġoccurring": 7857,
      "Car": 7858,
      "after": 7859,
      "ĠChristianity": 7860,
      "Ã¤": 7861,
      "ĠOpen": 7862,
      "Ġargue": 7863,
      "ĠAgriculture": 7864,
      "Ġbreathing": 7865,
      "ali": 7866,
      "ildren": 7867,
      "Ġphotographs": 7868,
      "Ġdecor": 7869,
      "rection": 7870,
      "itual": 7871,
      "ĠQueen": 7872,
      "Ġca": 7873,
      "ĠGet": 7874,
      "ĠMississippi": 7875,
      "Sc": 7876,
      "Ġholes": 7877,
      "Ġhosp": 7878,
      "Ġprovince": 7879,
      "Ġrepair": 7880,
      "Ġguidance": 7881,
      "arents": 7882,
      "Ġcompens": 7883,
      "Ġfarms": 7884,
      "ailable": 7885,
      "Ġwheat": 7886,
      "Ġgro": 7887,
      "quir": 7888,
      "aints": 7889,
      "Ġmathematical": 7890,
      "hent": 7891,
      "52": 7892,
      "Ġinformed": 7893,
      "Ġoutcome": 7894,
      "Ġformula": 7895,
      "Ġboat": 7896,
      "Ġprosp": 7897,
      "Ġcoffee": 7898,
      "onym": 7899,
      "Ġbath": 7900,
      "Ġcontents": 7901,
      "atial": 7902,
      "Ġintent": 7903,
      "EF": 7904,
      "mers": 7905,
      "Ġliterary": 7906,
      "ouri": 7907,
      "ĠNever": 7908,
      "Ġmeal": 7909,
      "press": 7910,
      "Ġcorrel": 7911,
      "Ġachievement": 7912,
      "ĠForm": 7913,
      "Ġplot": 7914,
      "Ġmg": 7915,
      "Ġcontribution": 7916,
      "Ġcarb": 7917,
      "Ġvarieties": 7918,
      "Ġanalys": 7919,
      "being": 7920,
      "Ġchair": 7921,
      "Ġfavorite": 7922,
      "Ġtrends": 7923,
      "otype": 7924,
      "ĠSym": 7925,
      "OP": 7926,
      "ĠHor": 7927,
      "ĠGall": 7928,
      "Ġhunting": 7929,
      "ĠWorks": 7930,
      "Ġcopper": 7931,
      "Part": 7932,
      "western": 7933,
      "Ġtumor": 7934,
      "ycling": 7935,
      "ĠEngineering": 7936,
      "ifferent": 7937,
      "plete": 7938,
      "Ġinsulin": 7939,
      "orig": 7940,
      "ĠUr": 7941,
      "Ġtheme": 7942,
      "uan": 7943,
      "ba": 7944,
      "Ġstores": 7945,
      "Ġfought": 7946,
      "Ġvariations": 7947,
      "ĠSometimes": 7948,
      "ĠHeritage": 7949,
      "Ġarguments": 7950,
      "Ġthereby": 7951,
      "Ġ1920": 7952,
      "regation": 7953,
      "Ġcommitment": 7954,
      "Ġtargets": 7955,
      "urning": 7956,
      "asant": 7957,
      "Ġglac": 7958,
      "Ġirrig": 7959,
      "ĠDespite": 7960,
      "MP": 7961,
      "Ġ)": 7962,
      "ĠSection": 7963,
      "ĠCub": 7964,
      "Ġrepresentation": 7965,
      "ogy": 7966,
      "Ġcouncil": 7967,
      "Ġphosph": 7968,
      "Ġworst": 7969,
      "Ġevident": 7970,
      "zo": 7971,
      "uther": 7972,
      "Ġforming": 7973,
      "Ġupdated": 7974,
      "Ġvirtually": 7975,
      "Ġoccupied": 7976,
      "Ġmarks": 7977,
      "Ġ1986": 7978,
      "Ġbless": 7979,
      "riday": 7980,
      "Ġteams": 7981,
      "Ġforget": 7982,
      "Ġmicrob": 7983,
      "Ġreferences": 7984,
      "Ġnose": 7985,
      "Ġobserve": 7986,
      "ician": 7987,
      "ols": 7988,
      "uation": 7989,
      "Ġimagine": 7990,
      "ĠSpirit": 7991,
      "ĠHarvard": 7992,
      "Ġreveal": 7993,
      "ĠAP": 7994,
      "lines": 7995,
      "Ġremarkable": 7996,
      "ricted": 7997,
      "Ġthr": 7998,
      "amine": 7999,
      "ailing": 8000,
      "ĠChief": 8001,
      "bean": 8002,
      "ĠKorea": 8003,
      "amps": 8004,
      "Ġ1940": 8005,
      "She": 8006,
      "ĠAIDS": 8007,
      "ĠLew": 8008,
      "Source": 8009,
      "Ġconstantly": 8010,
      "coming": 8011,
      "kind": 8012,
      "ĠPhiladelphia": 8013,
      "sub": 8014,
      "ĠHT": 8015,
      "anger": 8016,
      "Ġmeasuring": 8017,
      "ĠAlexander": 8018,
      "Ġfest": 8019,
      "Ġroles": 8020,
      "National": 8021,
      "Ġkidney": 8022,
      "Ġgeomet": 8023,
      "bel": 8024,
      "61": 8025,
      "olving": 8026,
      "Post": 8027,
      "Ġecological": 8028,
      "Ġtor": 8029,
      "Ġtables": 8030,
      "rin": 8031,
      "Ġ39": 8032,
      "quit": 8033,
      "Ġevolutionary": 8034,
      "Ġpros": 8035,
      "Ġmothers": 8036,
      "Ġ1987": 8037,
      "Ġrely": 8038,
      "iti": 8039,
      "Ġuniform": 8040,
      "lymp": 8041,
      "Ġpreserve": 8042,
      "ĠMaterial": 8043,
      "ĠâĨĳ": 8044,
      "ĠVolume": 8045,
      "Ġbelieves": 8046,
      "ĠLittle": 8047,
      "Ġsubstit": 8048,
      "Ġsched": 8049,
      "Ġneutral": 8050,
      "Ġflying": 8051,
      "ĠStan": 8052,
      "Ġcats": 8053,
      "uting": 8054,
      "ycle": 8055,
      "Ġobjectives": 8056,
      "Ġinvention": 8057,
      "Ġsubt": 8058,
      "Ġdemocracy": 8059,
      "Ġinfect": 8060,
      "Ġheating": 8061,
      "Ġcontinuing": 8062,
      "iture": 8063,
      "ĠElizabeth": 8064,
      "eting": 8065,
      "mm": 8066,
      "chnology": 8067,
      "ĠMid": 8068,
      "Ġflower": 8069,
      "Ġintest": 8070,
      "adow": 8071,
      "iat": 8072,
      "Rep": 8073,
      "Ġextension": 8074,
      "ĠDO": 8075,
      "Ġsales": 8076,
      "Ġpreventing": 8077,
      "Ġdetection": 8078,
      "ĠColon": 8079,
      "Ġabstract": 8080,
      "Ġbuff": 8081,
      "Ġlogic": 8082,
      "Ġepis": 8083,
      "Your": 8084,
      "Ġcas": 8085,
      "Ġstopped": 8086,
      "Ġexecutive": 8087,
      "Ġvertical": 8088,
      "ĠTri": 8089,
      "Ġalive": 8090,
      "ĠNO": 8091,
      "Ġtob": 8092,
      "CA": 8093,
      "ventions": 8094,
      "Ġ34": 8095,
      "Ġstrike": 8096,
      "apor": 8097,
      "uscript": 8098,
      "ivest": 8099,
      "Ġexisted": 8100,
      "Ġprecip": 8101,
      "Ġreaching": 8102,
      "Ġspecified": 8103,
      "Ġclar": 8104,
      "Ġassemb": 8105,
      "Ġnervous": 8106,
      "Ġthanks": 8107,
      "eries": 8108,
      "Ġmoisture": 8109,
      "ĠHim": 8110,
      "sis": 8111,
      "through": 8112,
      "archy": 8113,
      "Ġenormous": 8114,
      "ĠSpring": 8115,
      "abulary": 8116,
      "Ġboost": 8117,
      "Ġchurches": 8118,
      "erly": 8119,
      "icity": 8120,
      "ulpt": 8121,
      "Ġhence": 8122,
      "2010": 8123,
      "Ġintensity": 8124,
      "Ġimprovements": 8125,
      "ĠWay": 8126,
      "Ġstronger": 8127,
      "about": 8128,
      "chen": 8129,
      "Ġeru": 8130,
      "ĠSunday": 8131,
      "adder": 8132,
      "Ġinflammation": 8133,
      "Ġgravity": 8134,
      "Ġstreams": 8135,
      "ĠMult": 8136,
      "idal": 8137,
      "Ġperception": 8138,
      "HD": 8139,
      "Ġfaculty": 8140,
      "Ġconsidering": 8141,
      "54": 8142,
      "Ġdecreased": 8143,
      "Ġgrounds": 8144,
      "rical": 8145,
      "Ġreporting": 8146,
      "hus": 8147,
      "books": 8148,
      "Ġlights": 8149,
      "zona": 8150,
      "Ġremind": 8151,
      "ĠMarine": 8152,
      "ĠLight": 8153,
      "Ġproven": 8154,
      "also": 8155,
      "Ġquantity": 8156,
      "Ġfaced": 8157,
      "imp": 8158,
      "ĠJackson": 8159,
      "Ġeveryday": 8160,
      "Ġreasonable": 8161,
      "Â®": 8162,
      "lected": 8163,
      "Ġresid": 8164,
      "ĠDarwin": 8165,
      "Ġoverw": 8166,
      "Ġarmed": 8167,
      "Ġroyal": 8168,
      "Ġrect": 8169,
      "ĠGar": 8170,
      "Ġcolonial": 8171,
      "ĠField": 8172,
      "acent": 8173,
      "ĠType": 8174,
      "Ġtut": 8175,
      "Ġwheel": 8176,
      "Ġevening": 8177,
      "Ġautism": 8178,
      "itarian": 8179,
      "Ġspoken": 8180,
      "Ġillegal": 8181,
      "ghan": 8182,
      "claim": 8183,
      "thod": 8184,
      "ĠTestament": 8185,
      "Ġinfants": 8186,
      "Ġaccord": 8187,
      "ĠOregon": 8188,
      "Ġexploration": 8189,
      "Ġlymph": 8190,
      "ĠBush": 8191,
      "Ġcooling": 8192,
      "Ġlifestyle": 8193,
      "ĠAgain": 8194,
      "Ġstood": 8195,
      "Ġvictory": 8196,
      "oul": 8197,
      "ĠOrig": 8198,
      "Ġpursu": 8199,
      "iop": 8200,
      "ĠTown": 8201,
      "Ġcotton": 8202,
      "Ġincident": 8203,
      "oids": 8204,
      "Ġrefused": 8205,
      "Ġsons": 8206,
      "gence": 8207,
      "Ġearthquake": 8208,
      "Every": 8209,
      "wan": 8210,
      "Ġstructural": 8211,
      "ĠSystems": 8212,
      "action": 8213,
      "Ġsocieties": 8214,
      "Ġphrase": 8215,
      "Ġadvis": 8216,
      "ĠMoreover": 8217,
      "Ġquiet": 8218,
      "HS": 8219,
      "51": 8220,
      "Ġnom": 8221,
      "ĠAlaska": 8222,
      "Ġfocuses": 8223,
      "Ġdism": 8224,
      "Ġtobacco": 8225,
      "Ġeliminate": 8226,
      "ĠClick": 8227,
      "Ġdirections": 8228,
      ".:": 8229,
      "Ġecosystems": 8230,
      "ivestock": 8231,
      "Ġadverse": 8232,
      "Ġfunded": 8233,
      "Ġadvent": 8234,
      ")||": 8235,
      "Ġdiag": 8236,
      "IF": 8237,
      "Ġexhaust": 8238,
      "Ġbrand": 8239,
      "ĠLu": 8240,
      "Ġsimult": 8241,
      "ĠLead": 8242,
      "jo": 8243,
      "Ġgraduate": 8244,
      "itory": 8245,
      "Ġatoms": 8246,
      "ĠSimilar": 8247,
      "airy": 8248,
      "62": 8249,
      "ĠMur": 8250,
      "Ġgirl": 8251,
      "nesota": 8252,
      "iger": 8253,
      "atively": 8254,
      "allow": 8255,
      "omer": 8256,
      "zone": 8257,
      "Ġconclus": 8258,
      "Ġminerals": 8259,
      "Ġlosses": 8260,
      "ontal": 8261,
      "Ġwing": 8262,
      "Ġinitiative": 8263,
      "2008": 8264,
      "Ġsaved": 8265,
      "Ġampl": 8266,
      "hyd": 8267,
      "outheast": 8268,
      "bell": 8269,
      "Ġconsciousness": 8270,
      "Ġdynamic": 8271,
      "Ġlowest": 8272,
      "ĠLy": 8273,
      "Ġprogramme": 8274,
      "CP": 8275,
      "Ġinteractive": 8276,
      "Ġthread": 8277,
      "sts": 8278,
      "ĠColl": 8279,
      "inent": 8280,
      "Ġscores": 8281,
      "aret": 8282,
      "Ġwindows": 8283,
      "Ġglucose": 8284,
      "Ġhardware": 8285,
      "ĠKansas": 8286,
      "Ġbreed": 8287,
      "ĠAntar": 8288,
      "Ġstreets": 8289,
      "Ġsciences": 8290,
      "Ġinterior": 8291,
      "gon": 8292,
      "asts": 8293,
      "ĠAL": 8294,
      "essions": 8295,
      "ugg": 8296,
      "ocument": 8297,
      "Ġsmart": 8298,
      "Ġavailability": 8299,
      "br": 8300,
      "Ġrelax": 8301,
      "Ġpion": 8302,
      "Ġpin": 8303,
      "Ġconverted": 8304,
      "Ġanywhere": 8305,
      "Ġpoem": 8306,
      "onday": 8307,
      "Ġsacred": 8308,
      "Ġfuels": 8309,
      "Ġreduces": 8310,
      "ĠStandard": 8311,
      "ĠSign": 8312,
      "App": 8313,
      "Ġresearcher": 8314,
      "Ġ37": 8315,
      "ogs": 8316,
      "Ġunp": 8317,
      "Ġritual": 8318,
      "ĠStation": 8319,
      "ĠModern": 8320,
      "ĠSaint": 8321,
      "Ġreward": 8322,
      "Ġnotion": 8323,
      "ĠLess": 8324,
      "dule": 8325,
      "ĠNob": 8326,
      ".),": 8327,
      "Ġoccas": 8328,
      "ĠAT": 8329,
      "Ġft": 8330,
      "ocial": 8331,
      "Ġheaven": 8332,
      "Ġpropag": 8333,
      "stant": 8334,
      "Ġcooperation": 8335,
      "ĠIce": 8336,
      "Ġkingdom": 8337,
      "Ġcontributions": 8338,
      "Ġmixture": 8339,
      "aming": 8340,
      "Ġinspired": 8341,
      "Ġcrown": 8342,
      "Ġshoot": 8343,
      "Ġuniversities": 8344,
      "2009": 8345,
      "Ġmoderate": 8346,
      "Ġcolonies": 8347,
      "ĠPy": 8348,
      "Ġregulation": 8349,
      "Ġclassical": 8350,
      "Ġcalories": 8351,
      "ĠOlymp": 8352,
      "ĠSeveral": 8353,
      "ĠWikipedia": 8354,
      "Ġscore": 8355,
      "ĠMissouri": 8356,
      "ĠIndeed": 8357,
      "borne": 8358,
      "Ġdisk": 8359,
      "Ġassembly": 8360,
      "Back": 8361,
      "Ġdance": 8362,
      "Ġspaces": 8363,
      "ĠAR": 8364,
      "ĠCentury": 8365,
      "Ġpoetry": 8366,
      "aws": 8367,
      "Ġpsychology": 8368,
      "57": 8369,
      "Ġspons": 8370,
      "ĠDie": 8371,
      "Ġboundaries": 8372,
      "utation": 8373,
      "Ġknowing": 8374,
      "Ġdivine": 8375,
      "Ġimaging": 8376,
      "zheimer": 8377,
      "Ġthreats": 8378,
      "Ġchromos": 8379,
      "ecess": 8380,
      "Ġdropped": 8381,
      "Ġdominant": 8382,
      "Ġpreferred": 8383,
      "irms": 8384,
      "ĠBa": 8385,
      "ustain": 8386,
      "ĠIndepend": 8387,
      "Ġreef": 8388,
      "ĠEconomic": 8389,
      "MA": 8390,
      ".âĢĻ": 8391,
      "Click": 8392,
      "ĠBack": 8393,
      "ĠJr": 8394,
      "Ġwinds": 8395,
      "HA": 8396,
      "Ġreadily": 8397,
      "ati": 8398,
      "Ġnice": 8399,
      "Ġsuscept": 8400,
      "ĠRail": 8401,
      "Ġfix": 8402,
      "Ġlaser": 8403,
      "ĠMaryland": 8404,
      "Ġpromise": 8405,
      "thritis": 8406,
      "Ġtemporary": 8407,
      "ĠCorps": 8408,
      "brid": 8409,
      "Ġtreating": 8410,
      "Ġfalling": 8411,
      "âĢĻ,": 8412,
      "Ġtempor": 8413,
      "unicipal": 8414,
      "istant": 8415,
      "Ġaged": 8416,
      "Ġbeat": 8417,
      "ĠâĢ¢": 8418,
      "ĠHead": 8419,
      "Ġaimed": 8420,
      "vernment": 8421,
      "Ġreserv": 8422,
      "ĠPhilipp": 8423,
      "apped": 8424,
      "ĠTO": 8425,
      "ĠAndrew": 8426,
      "Ġmigration": 8427,
      "olk": 8428,
      "Ġembry": 8429,
      "Ġbibl": 8430,
      "Ġherb": 8431,
      "Ġmaybe": 8432,
      "Ĥ¬": 8433,
      "Ġven": 8434,
      "oca": 8435,
      "Ġdesignated": 8436,
      "ĠMexican": 8437,
      "Ġentitled": 8438,
      "Ġwars": 8439,
      "ĠFurthermore": 8440,
      "Ġveloc": 8441,
      "ĠBu": 8442,
      "ĠPortug": 8443,
      "ĠAlbert": 8444,
      "ĠTake": 8445,
      "Ġheritage": 8446,
      "ĠPur": 8447,
      "rav": 8448,
      "Ġvs": 8449,
      "Ġthirty": 8450,
      "Ġflash": 8451,
      "Two": 8452,
      "play": 8453,
      "ĠDaniel": 8454,
      "2000": 8455,
      "Ġcorresponding": 8456,
      "ologically": 8457,
      "Ġcolony": 8458,
      "cho": 8459,
      "Ġkne": 8460,
      "Ġcopies": 8461,
      "Ġrepresentative": 8462,
      "Ġrecover": 8463,
      "Ġshapes": 8464,
      "hedule": 8465,
      "Ġdys": 8466,
      "Ġminority": 8467,
      "Ġgathered": 8468,
      "Ġ1985": 8469,
      "Ġdies": 8470,
      "Ġpurchased": 8471,
      "Ġaccompanied": 8472,
      "ĠCat": 8473,
      "Ġinhabitants": 8474,
      "ĠSanta": 8475,
      "ricane": 8476,
      "Ġexplicit": 8477,
      "ifted": 8478,
      "Ġattribut": 8479,
      "rator": 8480,
      "umer": 8481,
      "ĠJacob": 8482,
      "ruit": 8483,
      "Ġcreatures": 8484,
      "ĠCP": 8485,
      "Ġimmigrants": 8486,
      "ĠCa": 8487,
      "Ġcab": 8488,
      "Ġtransmitted": 8489,
      "mond": 8490,
      "Ġviolent": 8491,
      "Ġhabitats": 8492,
      "text": 8493,
      "Ġpriority": 8494,
      "Ġstrengthen": 8495,
      "Ġadapted": 8496,
      "96": 8497,
      "hemistry": 8498,
      "Ġcollections": 8499,
      "2012": 8500,
      "rive": 8501,
      "Ġaudio": 8502,
      "Ġ`": 8503,
      "Ġcancers": 8504,
      "isd": 8505,
      "UL": 8506,
      "esh": 8507,
      "Ġexcessive": 8508,
      ",'": 8509,
      "ifice": 8510,
      "Ġsurge": 8511,
      "Ġfet": 8512,
      "Ġidentifying": 8513,
      "ĠMax": 8514,
      "Ġexercises": 8515,
      "Ġdetermining": 8516,
      "Ġattitude": 8517,
      "aning": 8518,
      "ĠCop": 8519,
      "ĠFish": 8520,
      "Ġwisdom": 8521,
      "Ġbag": 8522,
      "otherapy": 8523,
      "Ġdescend": 8524,
      "2007": 8525,
      "ĠFace": 8526,
      "Ġunw": 8527,
      "riend": 8528,
      "Ġendangered": 8529,
      "Â©": 8530,
      "ĠHeart": 8531,
      "Ge": 8532,
      "fe": 8533,
      "Ġcooking": 8534,
      "Ġmagazine": 8535,
      "print": 8536,
      "Ġadolesc": 8537,
      "ersonal": 8538,
      "ĠEss": 8539,
      "Ġstones": 8540,
      "Ġlens": 8541,
      "thur": 8542,
      "NS": 8543,
      "Mar": 8544,
      "ĠMuslims": 8545,
      "ĠArizona": 8546,
      "Ġautomatically": 8547,
      "ĠFed": 8548,
      "Ġbiodiversity": 8549,
      "Ġdress": 8550,
      "Ġsubsc": 8551,
      "Ġbreath": 8552,
      "Ġscope": 8553,
      "ĠVietnam": 8554,
      "Ġhypothesis": 8555,
      "ĠMountain": 8556,
      "agraph": 8557,
      "Ġsediment": 8558,
      "Ġash": 8559,
      "ĠMinnesota": 8560,
      "thew": 8561,
      "Ġclock": 8562,
      "Ġhidden": 8563,
      "Ġprotecting": 8564,
      "Ġplenty": 8565,
      "Ġbutton": 8566,
      "Ġhat": 8567,
      "rene": 8568,
      "Ġworry": 8569,
      "Ġgent": 8570,
      "Ġsport": 8571,
      "People": 8572,
      "Ref": 8573,
      "ĠGovernor": 8574,
      "BM": 8575,
      "Ġreign": 8576,
      "ĠFact": 8577,
      "Ġresc": 8578,
      "ATION": 8579,
      "har": 8580,
      "Ġdense": 8581,
      "Sm": 8582,
      "Ġfur": 8583,
      "ĠPhot": 8584,
      "Ġmanufacturers": 8585,
      "Ġmouse": 8586,
      "Ġcycl": 8587,
      "Ġequation": 8588,
      "Ġsulf": 8589,
      "ĠDrug": 8590,
      "oded": 8591,
      "Ġgrows": 8592,
      "Ġinvolvement": 8593,
      "ĠCard": 8594,
      "Ġcub": 8595,
      ".]": 8596,
      "Ġsoils": 8597,
      "page": 8598,
      "Ġdegrad": 8599,
      "Ġhouseholds": 8600,
      "Ġsummary": 8601,
      "ĠTenn": 8602,
      "Ġmovie": 8603,
      "Ġmammals": 8604,
      "ĠAssembly": 8605,
      "Ġbigger": 8606,
      "ĠNeu": 8607,
      "Ġhal": 8608,
      "Ġsplit": 8609,
      "ifer": 8610,
      "Ġcustomers": 8611,
      "issance": 8612,
      "ĠCheck": 8613,
      "made": 8614,
      "ptic": 8615,
      "health": 8616,
      "Ġcord": 8617,
      "Ġparad": 8618,
      "Ġadvantages": 8619,
      "Ġattempted": 8620,
      "Ġfaces": 8621,
      "Ġcompound": 8622,
      "ĠArts": 8623,
      "ĠVan": 8624,
      "ĠWilson": 8625,
      "ĠLater": 8626,
      "Ġlabour": 8627,
      "sem": 8628,
      "Ġpreserved": 8629,
      "ico": 8630,
      "Ġbare": 8631,
      "ĠDoes": 8632,
      "iscons": 8633,
      "92": 8634,
      "Ġacknowled": 8635,
      "ĠAngeles": 8636,
      "Ġdisplayed": 8637,
      "Ġeducators": 8638,
      "Ġsitting": 8639,
      "ighth": 8640,
      "ials": 8641,
      "Ġprey": 8642,
      "Ġ55": 8643,
      "OD": 8644,
      "run": 8645,
      "ranean": 8646,
      "2011": 8647,
      "Ġhormone": 8648,
      "ĠAbraham": 8649,
      "inth": 8650,
      "ila": 8651,
      "Ġparticle": 8652,
      "Ġcow": 8653,
      "ĠFind": 8654,
      "Ġranging": 8655,
      "Ġminister": 8656,
      "ĠUnfortunately": 8657,
      "Ġannually": 8658,
      "Ġdiscussions": 8659,
      "Ġhall": 8660,
      "Ġgods": 8661,
      "Ġsect": 8662,
      "isconsin": 8663,
      "Ġ42": 8664,
      "Ġdevast": 8665,
      "ĠArea": 8666,
      "2006": 8667,
      "Ġtrem": 8668,
      "Ġrespiratory": 8669,
      "EA": 8670,
      "agnetic": 8671,
      "Ġfires": 8672,
      "Ġraising": 8673,
      "ceans": 8674,
      "Ġmagnitude": 8675,
      "Ġthermal": 8676,
      "ĠEll": 8677,
      "uits": 8678,
      "aven": 8679,
      "mun": 8680,
      "Ġemerging": 8681,
      "onents": 8682,
      "uled": 8683,
      "ĠCA": 8684,
      "Ġanticip": 8685,
      "Ġwaiting": 8686,
      "Ġaims": 8687,
      "Ġspr": 8688,
      "Rel": 8689,
      "Ġguess": 8690,
      "Ġelections": 8691,
      "Ġsurprised": 8692,
      "Ġinfluenza": 8693,
      "ĠHam": 8694,
      "ĠAlzheimer": 8695,
      "non": 8696,
      "Ġsoph": 8697,
      "Ġmetabol": 8698,
      "Ġspoke": 8699,
      "Ġlakes": 8700,
      "SP": 8701,
      "aren": 8702,
      "Eng": 8703,
      "86": 8704,
      "they": 8705,
      "97": 8706,
      "Ġidentical": 8707,
      "ĠDev": 8708,
      "thodox": 8709,
      "Ġincidence": 8710,
      "Ġorigins": 8711,
      "Ġbears": 8712,
      "Ġwelfare": 8713,
      "Ġsculpt": 8714,
      "Ġrepresenting": 8715,
      "hea": 8716,
      "Ġlinear": 8717,
      "awa": 8718,
      "Ġathlet": 8719,
      "Ġprime": 8720,
      "Ġcalculated": 8721,
      "asses": 8722,
      "Ġabandoned": 8723,
      "olph": 8724,
      "ĠMA": 8725,
      "asy": 8726,
      "Ġfinger": 8727,
      "Ġrealized": 8728,
      "ĠID": 8729,
      "Ġstability": 8730,
      "lete": 8731,
      "Ġtip": 8732,
      "Ġoperated": 8733,
      "obile": 8734,
      "orters": 8735,
      "Ġaddresses": 8736,
      "ĠTemple": 8737,
      "ĠMess": 8738,
      "ket": 8739,
      "teb": 8740,
      "bury": 8741,
      "Ġmile": 8742,
      "Ġclient": 8743,
      "ĠPu": 8744,
      "Ġaffecting": 8745,
      "Inf": 8746,
      "Ġvalley": 8747,
      "ĠImp": 8748,
      "EG": 8749,
      "Ġdict": 8750,
      "Ġreflected": 8751,
      "Sim": 8752,
      "Ġcensus": 8753,
      "Ġdistant": 8754,
      "Ġdigest": 8755,
      "Ġentering": 8756,
      "Ġseriously": 8757,
      "TH": 8758,
      "ais": 8759,
      "Ġcraft": 8760,
      "Ġclassified": 8761,
      "Ġstrain": 8762,
      "Ġprobability": 8763,
      "ois": 8764,
      "Ġprayer": 8765,
      "Ġclub": 8766,
      "sex": 8767,
      "Ġfifth": 8768,
      "ĠOffic": 8769,
      "ĠBlue": 8770,
      "Ġvillages": 8771,
      "ĠSolar": 8772,
      "green": 8773,
      "ĠWithout": 8774,
      "asm": 8775,
      "GE": 8776,
      "Sub": 8777,
      "Ġ120": 8778,
      "Ġassociate": 8779,
      "Ġconversation": 8780,
      "ieth": 8781,
      "Ġquantum": 8782,
      "Ġdeeper": 8783,
      "irable": 8784,
      "Ġtill": 8785,
      "Ġmeetings": 8786,
      "III": 8787,
      "2005": 8788,
      "Ġempty": 8789,
      "Ġovercome": 8790,
      "Ġconversion": 8791,
      "Ġdistinction": 8792,
      "Ġacting": 8793,
      "Ġhumanity": 8794,
      "Ġinspir": 8795,
      "Ġoptical": 8796,
      "ĠRelig": 8797,
      "Ġhappening": 8798,
      "Ġantibiotics": 8799,
      "Ġmercury": 8800,
      "Ġdiffer": 8801,
      "ĠMoses": 8802,
      "Ġpairs": 8803,
      "ĠÂ£": 8804,
      "Ġmanifest": 8805,
      "ipher": 8806,
      "Ġtu": 8807,
      "ador": 8808,
      "Ġlanding": 8809,
      "who": 8810,
      "ĠEgyptian": 8811,
      "Ġregardless": 8812,
      "ĠHit": 8813,
      "enter": 8814,
      "rec": 8815,
      "Where": 8816,
      "Ġprotective": 8817,
      "ĠMajor": 8818,
      "Ġtechnological": 8819,
      "Ġproposal": 8820,
      "Ġcompos": 8821,
      "ĠSon": 8822,
      "rity": 8823,
      "rix": 8824,
      "Ġscheme": 8825,
      "Ġvig": 8826,
      "Ġprivile": 8827,
      "ĠPerhaps": 8828,
      "Ġloose": 8829,
      "Ġoverwhel": 8830,
      "words": 8831,
      "ĠSchools": 8832,
      "Ġcul": 8833,
      "Ġ~": 8834,
      "quarters": 8835,
      "Ġclouds": 8836,
      "Ġmanager": 8837,
      "ĠBang": 8838,
      "ga": 8839,
      "Ġbene": 8840,
      "ĠAsk": 8841,
      "Ġstrange": 8842,
      "enh": 8843,
      "itic": 8844,
      "Ġreverse": 8845,
      "Ġtong": 8846,
      "ĠSS": 8847,
      "Ġblo": 8848,
      "Ġchose": 8849,
      "ĠMinistry": 8850,
      "Ġsheep": 8851,
      "Ġtort": 8852,
      "Ġcort": 8853,
      "omatic": 8854,
      "ĠAction": 8855,
      "ublished": 8856,
      "ineteenth": 8857,
      "Ġjudgment": 8858,
      "Ġemerged": 8859,
      "ĠSqu": 8860,
      "Ġirrit": 8861,
      "Ġsymbols": 8862,
      "aware": 8863,
      "Ġweigh": 8864,
      "ĠEmer": 8865,
      "ĠModel": 8866,
      "ĠLast": 8867,
      "Ġ44": 8868,
      "Ġfatal": 8869,
      "Ġwonderful": 8870,
      "ĠContin": 8871,
      "ohyd": 8872,
      "amples": 8873,
      "Ġpit": 8874,
      "ĠWilliams": 8875,
      "Ġunlikely": 8876,
      "Ġdisability": 8877,
      "Ġatmospheric": 8878,
      "Ġ1984": 8879,
      "Ġprovider": 8880,
      "Ġoccasionally": 8881,
      "Ġcandidate": 8882,
      "Ġforecast": 8883,
      "rose": 8884,
      "PL": 8885,
      "asma": 8886,
      "87": 8887,
      "Ġmerch": 8888,
      "vals": 8889,
      "Ġcomprom": 8890,
      "ĠBuilding": 8891,
      "ĠFarm": 8892,
      "ysical": 8893,
      "Scient": 8894,
      "Ġsale": 8895,
      "ĠJefferson": 8896,
      "Ġrh": 8897,
      "Ġremed": 8898,
      "Ġtransferred": 8899,
      "rub": 8900,
      "unar": 8901,
      "Ġconstra": 8902,
      "ĠPope": 8903,
      "ropol": 8904,
      "feed": 8905,
      "Ġinvasion": 8906,
      "Ġweakness": 8907,
      "rons": 8908,
      "ref": 8909,
      "shaped": 8910,
      "Ġingredients": 8911,
      "erally": 8912,
      "erts": 8913,
      "Ġcorrectly": 8914,
      "ospel": 8915,
      "Ġprofit": 8916,
      "ĠAnalysis": 8917,
      "Ġattitudes": 8918,
      "ĠNorm": 8919,
      "Under": 8920,
      "Ġquantities": 8921,
      "Ġaffairs": 8922,
      "Ġ95": 8923,
      "ĠÂ·": 8924,
      "Ġadministrative": 8925,
      "Ġminds": 8926,
      "Ġmature": 8927,
      "!\"": 8928,
      "93": 8929,
      "ells": 8930,
      "Ġsizes": 8931,
      "pos": 8932,
      "ĠCirc": 8933,
      "Ġgenome": 8934,
      "Ġgrades": 8935,
      "arks": 8936,
      "Ġpert": 8937,
      "Ġlivestock": 8938,
      "ĠIndones": 8939,
      "Ġversus": 8940,
      "Ġtact": 8941,
      "Ġelementary": 8942,
      "Ġsunlight": 8943,
      "Ġcelebrated": 8944,
      "Ġsubsid": 8945,
      "Ġerect": 8946,
      "Ġvolunteers": 8947,
      "Ġcomplications": 8948,
      "Ġpartly": 8949,
      "Ġplanting": 8950,
      "Ġregime": 8951,
      "rh": 8952,
      "Ġrestoration": 8953,
      "Please": 8954,
      "owa": 8955,
      "Ġrequirement": 8956,
      "Ġtwelve": 8957,
      "Ġemotions": 8958,
      "Ġmarg": 8959,
      "Cons": 8960,
      "Ġdipl": 8961,
      "section": 8962,
      "iography": 8963,
      "Ġbeneath": 8964,
      "Ġposted": 8965,
      "**": 8966,
      "aka": 8967,
      "Ġdriver": 8968,
      "Ġ?": 8969,
      "oked": 8970,
      "Copyright": 8971,
      "ĠGreece": 8972,
      "Ä«": 8973,
      "oons": 8974,
      "ĠMarsh": 8975,
      "oli": 8976,
      "Ġcapabilities": 8977,
      "Ġinvestigate": 8978,
      "Ġparameters": 8979,
      "world": 8980,
      "ĠView": 8981,
      "Ġburned": 8982,
      "Ġreturns": 8983,
      "Ġsister": 8984,
      "Ġloved": 8985,
      "rait": 8986,
      "ocated": 8987,
      "zes": 8988,
      "Ã±": 8989,
      "Ġresemb": 8990,
      "Ġintegration": 8991,
      "Ġtrail": 8992,
      "ĠCorpor": 8993,
      "Ġphilos": 8994,
      "ĠHa": 8995,
      "azon": 8996,
      "ĠWisconsin": 8997,
      "ĠBern": 8998,
      "Ġproductivity": 8999,
      "trans": 9000,
      "ĠCode": 9001,
      "Ġlungs": 9002,
      "Ġincent": 9003,
      "Gl": 9004,
      "Ne": 9005,
      "Ġion": 9006,
      "ĠWales": 9007,
      "ĠCho": 9008,
      "Ġdocumented": 9009,
      "ĠAst": 9010,
      "Ġcheap": 9011,
      "Ġtrace": 9012,
      "Ġinsight": 9013,
      "Ġdeeply": 9014,
      "Ġcure": 9015,
      "Ġpredicted": 9016,
      "cking": 9017,
      "ĠIsa": 9018,
      "Ġconsumed": 9019,
      "ĠDesc": 9020,
      "ometer": 9021,
      "lav": 9022,
      "olves": 9023,
      "Ġunem": 9024,
      "ĠSus": 9025,
      "anol": 9026,
      "eller": 9027,
      "ĠFriday": 9028,
      "Ġinch": 9029,
      "ĠJersey": 9030,
      "Ġintroduce": 9031,
      "Ġdoctrine": 9032,
      "Ġ1945": 9033,
      "Ġbroadcast": 9034,
      "Ġliterally": 9035,
      "ĠNY": 9036,
      "Ġultimate": 9037,
      "Ġprisoners": 9038,
      "olds": 9039,
      "Ġdevelopments": 9040,
      "Ġvaried": 9041,
      "Ġom": 9042,
      "cut": 9043,
      "Ġmissions": 9044,
      "Ġmanuscript": 9045,
      "Ġclay": 9046,
      "Ġdecay": 9047,
      "Ġdeposits": 9048,
      "Ġembra": 9049,
      "Ġperceived": 9050,
      "Ġshaped": 9051,
      "Ġtelling": 9052,
      "Ġlifetime": 9053,
      "Ġincorporated": 9054,
      "Ġlob": 9055,
      "ĠPDF": 9056,
      "Ġsees": 9057,
      "Ġreaches": 9058,
      "neys": 9059,
      "Ġdimin": 9060,
      "aping": 9061,
      "Ġinnovative": 9062,
      "attered": 9063,
      "Ġregistered": 9064,
      "Ġrelie": 9065,
      "Ġattach": 9066,
      "has": 9067,
      "Ġcomputing": 9068,
      "ĠReading": 9069,
      "Ġliberal": 9070,
      "Ġverb": 9071,
      "Ġsongs": 9072,
      "Ġdisrupt": 9073,
      "Ġwings": 9074,
      "Ġsurveys": 9075,
      "Ġdefault": 9076,
      "Ġruled": 9077,
      "Ġspray": 9078,
      "Ġmyself": 9079,
      "Ġtumors": 9080,
      "ymes": 9081,
      "oil": 9082,
      "ĠBiology": 9083,
      "Ġprovision": 9084,
      "Ġnort": 9085,
      "Ġpasses": 9086,
      "Ġrhyth": 9087,
      "Each": 9088,
      "ĠSmall": 9089,
      "Ġrestricted": 9090,
      "Ġconvert": 9091,
      "oline": 9092,
      "Ġvot": 9093,
      "ĠAfghan": 9094,
      "Ġuncle": 9095,
      "ĠDam": 9096,
      "ĠStandards": 9097,
      "ĠLewis": 9098,
      "ĠSpecies": 9099,
      "ĠMedia": 9100,
      "Ġgrains": 9101,
      "Ġboundary": 9102,
      "Ġconsequence": 9103,
      "Ã¨": 9104,
      "lan": 9105,
      "Ġmeteor": 9106,
      "ĠDown": 9107,
      "ĠTurk": 9108,
      "Ġwat": 9109,
      "Ġproviders": 9110,
      "Ġbehavioral": 9111,
      "Ġauthent": 9112,
      "300": 9113,
      "Ġstyles": 9114,
      "Ġho": 9115,
      "ĠRam": 9116,
      "Ġurine": 9117,
      "ught": 9118,
      "Ġcash": 9119,
      "Ġtrigger": 9120,
      "Ġexciting": 9121,
      "Ġcalendar": 9122,
      "Sec": 9123,
      "Ġamazing": 9124,
      "Ġunderground": 9125,
      "irus": 9126,
      "ĠOcc": 9127,
      "profit": 9128,
      "Ġdistinguish": 9129,
      "dep": 9130,
      "Ġplanted": 9131,
      "Ġsovere": 9132,
      "Ġclassic": 9133,
      "anted": 9134,
      "Ġprofile": 9135,
      "rue": 9136,
      "ĠCrit": 9137,
      "Ġobst": 9138,
      "Ġlogical": 9139,
      "Ġlecture": 9140,
      "ĠAssessment": 9141,
      "Ġvocabulary": 9142,
      "800": 9143,
      "Ġpenet": 9144,
      "Ġfing": 9145,
      "Ġwatching": 9146,
      "Ġenthus": 9147,
      "UC": 9148,
      "Ġgovernor": 9149,
      "Ġvaccines": 9150,
      "Ġpersonality": 9151,
      "ĠWed": 9152,
      "ĠFDA": 9153,
      "Ġcoc": 9154,
      "Ġhospitals": 9155,
      "Ġchallenging": 9156,
      "ogenic": 9157,
      "Ġutility": 9158,
      "box": 9159,
      "icing": 9160,
      "Ġtreaty": 9161,
      "sor": 9162,
      "icts": 9163,
      "Ġhopes": 9164,
      "Ġsuspect": 9165,
      "roud": 9166,
      "ĠDavis": 9167,
      "Ġbroke": 9168,
      "onal": 9169,
      "ĠKeep": 9170,
      "door": 9171,
      "Ġvaries": 9172,
      "Ġscholar": 9173,
      "ĠFil": 9174,
      "Ġfra": 9175,
      "ĠArticle": 9176,
      "Ġrelating": 9177,
      "Ġdiscipline": 9178,
      "Ġadjacent": 9179,
      "Ġadvances": 9180,
      "ĠCr": 9181,
      "rency": 9182,
      "Ġlingu": 9183,
      "Ġmig": 9184,
      "Then": 9185,
      "ubble": 9186,
      "Ġ1979": 9187,
      "Just": 9188,
      "Ġprinting": 9189,
      "Ġholy": 9190,
      "Ġanthrop": 9191,
      "Ġrequiring": 9192,
      "Ġdoi": 9193,
      "itzer": 9194,
      "Ġoffices": 9195,
      "Ġasc": 9196,
      "Ġcomfortable": 9197,
      "Ġrevers": 9198,
      "ĠMcC": 9199,
      "Ġwithdraw": 9200,
      "Ġpromoting": 9201,
      "Ġsensitivity": 9202,
      "Ġreviewed": 9203,
      "lights": 9204,
      "Ġmanual": 9205,
      "ĠPeace": 9206,
      "Ġdramatically": 9207,
      "isting": 9208,
      "ĠStart": 9209,
      "Ġstruck": 9210,
      "Ġmood": 9211,
      "Ġdevoted": 9212,
      "Ġdietary": 9213,
      "%,": 9214,
      "neum": 9215,
      "iner": 9216,
      "Ġprofound": 9217,
      "Ġbiom": 9218,
      "Ġbacterial": 9219,
      "ĠNeg": 9220,
      "ĠJones": 9221,
      "Ġprocessed": 9222,
      "Ġtranslated": 9223,
      "Ġsettlers": 9224,
      "Ġ1900": 9225,
      "inates": 9226,
      "2004": 9227,
      "ĠWeek": 9228,
      "zyme": 9229,
      "Ġmetals": 9230,
      "athan": 9231,
      "Ġsurvived": 9232,
      "94": 9233,
      "berry": 9234,
      "uesday": 9235,
      "Ġstake": 9236,
      "Ġtheoretical": 9237,
      "uclear": 9238,
[...]
